[PAD]
[UNK]
[CLS]
[SEP]
[MASK]
!
"
#
$
%
&
'
(
)
*
+
,
-
.
/
0
1
2
3
4
5
6
7
8
9
:
;
=
?
@
A
B
C
D
E
F
G
H
I
J
K
L
M
N
O
P
Q
R
S
T
U
V
W
X
Y
Z
[
\
]
^
_
`
a
b
c
d
e
f
g
h
i
j
k
l
m
n
o
p
q
r
s
t
u
v
w
x
y
z
{
|
}
~
·
∼
ㄱ
ㄲ
ㄳ
ㄴ
ㄶ
ㄷ
ㄸ
ㄹ
ㄺ
ㄻ
ㅀ
ㅁ
ㅂ
ㅃ
ㅄ
ㅅ
ㅆ
ㅇ
ㅈ
ㅉ
ㅊ
ㅋ
ㅌ
ㅍ
ㅎ
ㅏ
ㅐ
ㅑ
ㅒ
ㅓ
ㅔ
ㅕ
ㅖ
ㅗ
ㅘ
ㅙ
ㅚ
ㅛ
ㅜ
ㅝ
ㅞ
ㅟ
ㅠ
ㅡ
ㅢ
ㅣ
가
각
갂
갃
간
갅
갆
갇
갈
갉
갊
갋
갏
감
갑
값
갓
갔
강
갖
갗
갘
같
갚
갛
개
객
갞
갠
갢
갣
갤
갬
갭
갮
갯
갰
갱
갲
갴
갵
갶
갷
갸
갹
갼
걀
걈
걉
걊
걋
걌
걍
걑
걔
걘
걩
거
걱
걲
건
걵
걷
걸
걹
검
겁
겂
것
겄
겅
겆
겇
겈
겉
겊
겋
게
겍
겎
겐
겓
겔
겜
겝
겟
겠
겡
겢
겣
겤
겥
겦
겧
겨
격
겪
견
겯
결
겱
겷
겸
겹
겻
겼
경
겾
곀
곁
곂
곃
계
곅
곈
곌
곗
곘
곙
고
곡
곤
곧
골
곪
곬
곯
곰
곱
곳
공
곶
곷
곸
곹
곺
곻
과
곽
관
괁
괂
괄
괌
괍
괏
광
괒
괘
괙
괜
괞
괬
괭
괴
괵
괸
괼
굉
교
굑
굔
굘
굡
굣
굥
굨
굫
구
국
굮
굯
군
굳
굴
굵
굶
굷
굻
굼
굽
굿
궁
궂
궃
궄
궅
궇
궈
궉
권
궍
궐
궘
궙
궛
궜
궝
궤
궥
궨
궷
궸
궹
귀
귁
귄
귈
귐
귑
귓
귕
규
귝
균
귤
귯
귱
그
극
근
귾
귿
글
긁
긂
긇
금
급
긋
긌
긍
긎
긐
긑
긒
긓
긔
긕
긘
긜
긤
긧
기
긱
긴
긷
길
긿
김
깁
깂
깃
깄
깅
깆
깇
깈
깉
깊
깋
까
깍
깎
깐
깓
깔
깕
깜
깝
깞
깟
깠
깡
깢
깤
깥
깦
깧
깨
깩
깬
깰
깸
깹
깻
깼
깽
꺀
꺄
꺅
꺆
꺊
꺌
꺔
꺕
꺙
꺜
꺠
꺵
꺼
꺽
꺾
껀
껃
껄
껌
껍
껏
껐
껑
껒
껔
껕
껗
께
껙
껜
껠
껨
껫
껬
껭
껰
껴
껵
껶
껸
껼
꼅
꼇
꼈
꼉
꼐
꼤
꼬
꼭
꼮
꼰
꼳
꼴
꼹
꼻
꼼
꼽
꼿
꽁
꽂
꽃
꽄
꽅
꽇
꽈
꽉
꽊
꽌
꽐
꽝
꽤
꽥
꽦
꽹
꾀
꾁
꾐
꾕
꾜
꾤
꾸
꾹
꾺
꾼
꾾
꾿
꿀
꿁
꿂
꿃
꿇
꿈
꿉
꿋
꿍
꿎
꿏
꿐
꿑
꿔
꿕
꿘
꿜
꿥
꿧
꿨
꿩
꿰
꿱
꿴
뀌
뀐
뀔
뀜
뀝
뀟
뀠
뀡
뀨
뀩
뀬
뀰
끄
끅
끈
끊
끋
끌
끍
끓
끔
끕
끗
끘
끙
끚
끛
끜
끝
끟
끠
끤
끨
끼
끽
끾
낀
낂
낃
낄
낌
낍
낏
낑
낒
낔
낕
낗
나
낙
낚
낛
난
낝
낞
낟
날
낡
낧
남
납
낫
났
낭
낮
낯
낰
낱
낲
낳
내
낵
낸
낼
냄
냅
냇
냈
냉
냊
냌
냏
냐
냑
냔
냘
냠
냡
냣
냤
냥
냦
냨
냫
냬
냰
냼
너
넉
넊
넋
넌
넎
넏
널
넑
넒
넓
넔
넖
넗
넘
넙
넚
넛
넜
넝
넞
넠
넢
넣
네
넥
넨
넫
넬
넴
넵
넷
넸
넹
넺
넼
넽
넿
녀
녁
녂
년
녅
녆
녇
녈
념
녑
녓
녔
녕
녘
녛
녜
녠
녤
녴
노
녹
논
녾
녿
놀
놁
놂
놈
놉
놊
놋
놌
농
놎
놏
놐
놑
높
놓
놔
놕
놘
놜
놤
놥
놧
놨
놬
놯
놰
뇀
뇁
뇌
뇐
뇜
뇝
뇟
뇠
뇨
뇩
뇬
뇯
뇰
뇸
뇻
뇽
눃
누
눅
눈
눌
눍
눔
눕
눗
눙
눚
눜
눞
눟
눠
눤
눨
눰
눳
눴
눼
뉍
뉘
뉜
뉠
뉨
뉩
뉭
뉴
뉸
뉼
늄
늇
늉
느
늑
는
늕
늗
늘
늙
늚
늟
늠
늡
늣
능
늦
늧
늨
늩
늪
늫
늬
늰
늴
늼
닁
니
닉
닊
닌
닏
닐
님
닙
닚
닛
닜
닝
닞
닟
닠
닡
닢
닣
다
닥
닦
단
닩
닪
닫
달
닭
닮
닯
닰
닲
닳
담
답
닶
닷
닸
당
닺
닻
닼
닽
닾
닿
대
댁
댂
댄
댇
댈
댐
댑
댓
댔
댕
댖
댗
댘
댙
댚
댛
댜
댝
댠
댤
댬
댭
댯
댱
댸
덋
덍
더
덕
던
덙
덛
덜
덝
덞
덟
덤
덥
덧
덨
덩
덪
덫
덬
덭
덮
덯
데
덱
덴
덷
델
뎀
뎁
뎃
뎄
뎅
뎆
뎇
뎈
뎊
뎋
뎌
뎍
뎐
뎔
뎜
뎝
뎟
뎠
뎡
뎨
뎽
도
독
돈
돉
돋
돌
돐
돔
돕
돗
동
돚
돛
돜
돝
돞
돟
돠
돡
돤
돨
돰
돱
돳
돴
돵
돼
됀
됄
됌
됍
됏
됐
됑
됒
됔
됗
되
됙
된
됟
될
됨
됩
됫
됬
됭
됮
됰
됳
됴
됵
됸
됻
됼
둇
둉
둊
둋
두
둑
둔
둗
둘
둟
둠
둡
둣
둥
둬
둰
둴
둿
뒀
뒁
뒈
뒙
뒛
뒝
뒞
뒤
뒥
뒨
뒬
뒵
뒷
뒸
뒹
뒺
듀
듁
듄
듈
듐
듕
드
득
든
듡
듣
들
듥
듦
듧
듨
듩
듪
듫
듬
듭
듯
등
듲
듳
듴
듵
듷
듸
듹
듼
딀
딋
딍
디
딕
딘
딛
딜
딝
딞
딤
딥
딧
딨
딩
딪
딫
딬
딮
딯
따
딱
딲
딴
딷
딸
딹
땀
땁
땃
땄
땅
땈
땋
때
땍
땐
땔
땜
땝
땟
땠
땡
땤
땧
땨
땩
땬
땰
땸
땽
떄
떈
떔
떙
떠
떡
떢
떤
떦
떧
떨
떪
떫
떯
떰
떱
떳
떴
떵
떻
떼
떽
뗀
뗄
뗌
뗍
뗏
뗐
뗑
뗔
뗗
뗘
뗙
뗜
뗠
뗬
뗭
뗳
뗴
또
똑
똒
똔
똗
똘
똟
똠
똡
똣
똥
똨
똫
똬
똭
똴
뙇
뙈
뙌
뙛
뙜
뙤
뙥
뙨
뙷
뚀
뚁
뚕
뚜
뚝
뚠
뚣
뚤
뚥
뚫
뚬
뚯
뚱
뚷
뚸
뛍
뛔
뛧
뛰
뛴
뛸
뜀
뜁
뜅
뜌
뜡
뜨
뜩
뜬
뜯
뜰
뜱
뜷
뜸
뜹
뜻
뜼
뜽
뜾
뜿
띁
띃
띄
띈
띌
띔
띟
띠
띡
띤
띨
띰
띱
띳
띵
띻
라
락
띾
란
랂
랃
랄
랅
랋
람
랍
랏
랐
랑
랒
랓
랔
랕
랖
랗
래
랙
랜
랟
랠
램
랩
랫
랬
랭
랮
랰
랲
랳
랴
략
랸
랼
럄
럅
럇
럈
량
럐
럤
러
럭
런
럱
럲
럳
럴
럻
럼
럽
럾
럿
렀
렁
렂
렄
렆
렇
레
렉
렌
렏
렐
렘
렙
렛
렜
렝
렠
렣
려
력
련
렪
렫
렬
렴
렵
렷
렸
령
렺
렼
렿
례
롁
롄
롈
롐
롓
롔
롕
로
록
론
롣
롤
롬
롭
롯
롱
롲
롳
롴
롶
롷
롸
롹
롼
뢀
뢈
뢉
뢋
뢌
뢍
뢐
뢔
뢰
뢱
뢴
뢸
룁
료
룍
룐
룔
룜
룝
룟
룡
루
룩
룬
룰
룸
룹
룻
룽
뤀
뤂
뤄
뤈
뤌
뤔
뤗
뤘
뤠
뤡
뤼
륀
륄
륍
류
륙
륜
률
륨
륩
륭
르
륵
른
륻
를
륾
륿
릂
릃
름
릅
릇
릉
릊
릌
릍
릎
릏
릐
릔
릠
릫
리
릭
린
릳
릴
림
립
릿
맀
링
맂
맃
맄
맆
맇
마
막
맊
만
맍
많
맏
말
맑
맒
맔
맗
맘
맙
맛
맜
망
맞
맟
맠
맡
맢
맣
매
맥
맨
맫
맬
맴
맵
맷
맸
맹
맺
맻
맼
맽
먀
먁
먄
먆
먈
먕
먖
먗
먛
먜
먠
먱
머
먹
먺
먼
먽
먾
먿
멀
멈
멉
멊
멋
멌
멍
멎
멏
멐
멓
메
멕
멘
멜
멤
멥
멧
멨
멩
멫
며
멱
면
멵
멷
멸
몀
몁
몃
몄
명
몆
몇
몈
몉
몊
몋
몌
몐
몡
몣
모
목
몪
몫
몬
몯
몰
몱
몴
몸
몹
못
몼
몽
몾
몿
뫀
뫁
뫃
뫄
뫈
뫌
뫕
뫘
뫙
뫠
뫼
뫽
묀
묏
묘
묙
묜
묠
묫
묭
무
묵
묶
묷
문
묹
묻
물
묽
묾
뭄
뭅
뭇
뭈
뭉
뭊
뭌
뭍
뭏
뭐
뭑
뭔
뭘
뭠
뭡
뭣
뭤
뭥
뭨
뭫
뭬
뭰
뮈
뮌
뮐
뮙
뮛
뮜
뮝
뮤
뮥
뮨
뮬
뮴
뮷
뮹
므
믁
믄
믇
믈
믐
믓
믕
믜
믠
미
믹
민
믽
믾
믿
밀
밇
밈
밉
밋
밌
밍
밎
및
밐
밑
밓
바
박
밖
밗
반
밙
밚
받
발
밝
밞
밟
밠
밢
밣
밤
밥
밦
밧
밨
방
밪
밫
밬
밭
밮
밯
배
백
밴
밷
밸
뱀
뱁
뱃
뱄
뱅
뱆
뱈
뱉
뱌
뱍
뱐
뱓
뱔
뱜
뱝
뱡
뱨
뱩
뱰
뱸
뱽
버
벅
벆
번
벋
벌
벍
벎
벏
벓
범
법
벖
벗
벘
벙
벚
벛
벜
벝
벞
벟
베
벡
벤
벧
벨
벰
벱
벳
벴
벵
벸
벹
벼
벽
변
볂
볃
별
볌
볍
볎
볏
볐
병
볒
볓
볔
볕
볖
볗
볘
볜
볠
볭
보
복
볶
본
볹
볻
볼
볽
볾
봄
봅
봇
봉
봊
봌
봍
봏
봐
봑
봔
봗
봘
봙
봟
봡
봣
봤
봥
봦
봨
봫
봬
뵀
뵁
뵈
뵌
뵐
뵘
뵙
뵜
뵝
뵤
뵥
뵨
뵬
뵵
뵹
부
북
붂
붃
분
붅
붇
불
붉
붊
붋
붌
붍
붏
붐
붑
붓
붔
붕
붖
붗
붘
붙
붚
붛
붜
붠
붤
붱
붸
붹
뷀
뷁
뷍
뷔
뷘
뷜
뷩
뷰
뷱
뷴
뷸
븀
븁
븃
븅
븉
브
븍
븐
블
븜
븝
븟
븡
븥
븨
븩
븬
븰
븹
븽
비
빅
빆
빈
빋
빌
빍
빏
빔
빕
빗
빘
빙
빚
빛
빜
빝
빟
빠
빡
빢
빤
빧
빨
빩
빫
빬
빯
빰
빱
빳
빴
빵
빶
빸
빹
빻
빼
빽
뺀
뺃
뺄
뺌
뺍
뺏
뺐
뺑
뺒
뺕
뺘
뺙
뺜
뺠
뺨
뺫
뺭
뺴
뺵
뺸
뺼
뻄
뻇
뻈
뻉
뻐
뻑
뻔
뻗
뻘
뻙
뻠
뻡
뻣
뻤
뻥
뻩
뻬
뻭
뻰
뻴
뻿
뼁
뼈
뼉
뼌
뼐
뼘
뼛
뼜
뼝
뼤
뽀
뽁
뽂
뽄
뽈
뽐
뽑
뽓
뽕
뽖
뽚
뽜
뽝
뽠
뽤
뽱
뾀
뾰
뾱
뿅
뿌
뿍
뿐
뿔
뿕
뿜
뿝
뿟
뿠
뿡
쀄
쀅
쀍
쀼
쁀
쁄
쁑
쁘
쁙
쁜
쁠
쁨
쁩
쁫
쁭
쁸
삐
삑
삔
삘
삣
삤
삥
사
삭
삮
삯
산
삱
삲
삳
살
삵
삶
삷
삸
삺
삻
삼
삽
삾
삿
샀
상
샂
샄
샅
샆
샇
새
색
샊
샋
샌
샎
샏
샐
샑
샕
샗
샘
샙
샛
샜
생
샞
샟
샠
샡
샣
샤
샥
샨
샬
샴
샵
샷
샸
샹
샼
샾
섀
섁
섂
섄
섓
섕
섘
서
석
섞
선
섡
섣
설
섥
섦
섫
섬
섭
섮
섯
섰
성
섲
섳
섴
섵
섶
섷
세
섹
섺
섻
센
섿
셀
셁
셈
셉
셋
셌
셍
셎
셐
셑
셒
셓
셔
셕
션
셜
셤
셥
셧
셨
셩
셬
셯
셰
셱
셲
셴
셸
솃
솄
솅
솈
소
속
솎
솏
손
솓
솔
솜
솝
솟
송
솢
솤
솥
솦
솧
솨
솩
솬
솰
솹
솻
솼
솽
쇄
쇅
쇆
쇗
쇙
쇜
쇟
쇠
쇡
쇣
쇤
쇳
쇵
쇼
쇽
숀
숄
숍
숏
숑
숔
숖
수
숙
순
숟
술
숨
숩
숫
숭
숮
숯
숰
숱
숲
숳
숴
숵
숸
숼
쉄
쉅
쉇
쉈
쉉
쉌
쉐
쉑
쉒
쉓
쉔
쉘
쉙
쉡
쉣
쉤
쉥
쉨
쉫
쉬
쉭
쉰
쉴
쉼
쉽
쉾
쉿
슁
슄
슆
슈
슉
슌
슐
슘
슙
슛
슝
스
슥
슨
슫
슬
슭
슴
습
슷
승
슺
슼
슽
슾
슿
싀
싁
싄
싈
싐
싑
싓
싕
시
식
싞
싟
신
싡
싢
싣
실
싥
싦
싧
싨
싪
싫
심
십
싮
싯
싰
싱
싲
싳
싴
싵
싶
싷
싸
싹
싺
싻
싼
싾
싿
쌀
쌂
쌈
쌉
쌋
쌌
쌍
쌑
쌓
쌔
쌕
쌖
쌘
쌜
쌤
쌥
쌧
쌨
쌩
쌬
쌰
쌱
쌴
쌸
썀
썁
썅
썌
썍
썎
썡
써
썩
썪
썬
썯
썰
썸
썹
썻
썼
썽
쎀
쎃
쎄
쎅
쎆
쎈
쎌
쎔
쎕
쎗
쎘
쎙
쎜
쎟
쎠
쎡
쎤
쎳
쎴
쎵
쎼
쎽
쎾
쏀
쏘
쏙
쏚
쏜
쏟
쏠
쏨
쏩
쏫
쏭
쏱
쏳
쏴
쏵
쏸
쏼
쐇
쐈
쐉
쐐
쐑
쐒
쐨
쐬
쐭
쐰
쐴
쐽
쑈
쑌
쑝
쑤
쑥
쑨
쑬
쑴
쑵
쑹
쒀
쒑
쒔
쒜
쒝
쒞
쒭
쒯
쒰
쒴
쒸
쒹
쒼
쓀
쓈
쓉
쓋
쓒
쓔
쓤
쓥
쓩
쓰
쓱
쓴
쓸
씀
씁
씃
씅
씈
씉
씊
씋
씌
씍
씐
씝
씞
씦
씨
씩
씪
씬
씮
씯
씰
씳
씷
씸
씹
씺
씻
씼
씽
씾
앀
앁
앂
앃
아
악
앆
안
앉
않
앋
알
앍
앎
앏
앐
앓
암
압
앖
앗
았
앙
앚
앛
앜
앝
앞
앟
애
액
앢
앤
앧
앨
앰
앱
앲
앳
앴
앵
앸
앺
야
약
얀
얂
얃
얄
얇
얉
얊
얋
얌
얍
얏
얐
양
얒
얔
얕
얖
얗
얘
얙
얜
얠
얨
얫
얬
얭
어
억
얶
얷
언
얹
얺
얻
얼
얽
얾
얿
엃
엄
업
없
엇
었
엉
엊
엋
엌
엍
엎
엏
에
엑
엒
엔
엗
엘
엠
엡
엢
엣
엤
엥
엦
엧
엨
엪
엫
여
역
엮
엯
연
엳
열
엵
엷
염
엽
엾
엿
였
영
옂
옃
옄
옅
옆
옇
예
옉
옌
옐
옘
옙
옛
옜
옝
옠
오
옥
온
옪
옫
올
옭
옮
옯
옰
옳
옴
옵
옶
옷
옸
옹
옺
옻
옼
옽
옾
옿
와
왁
완
왈
왐
왑
왓
왔
왕
왖
왘
왚
왛
왜
왝
왠
왤
왯
왰
왱
왴
외
왹
왼
욀
욋
욌
욍
요
욕
욘
욛
욜
욤
욥
욧
욨
용
욪
욬
욮
욯
우
욱
욲
운
욵
욷
울
욹
욺
욿
움
웁
웂
웃
웄
웅
웆
웈
웉
웋
워
웍
원
웑
웒
웓
월
웗
웛
웜
웝
웟
웠
웡
웤
웧
웨
웩
웬
웰
웸
웹
웻
웽
윀
위
윅
윈
윌
윔
윕
윗
윘
윙
윜
유
육
윤
율
윰
윱
윳
융
윶
윷
윸
윻
으
윽
윾
은
읁
읂
읃
을
읅
읆
읇
읈
읉
읊
읋
음
읍
읎
읏
읐
응
읒
읓
읔
읕
읖
읗
의
읙
읜
읠
읨
읩
읪
읫
읭
읮
읰
이
익
읶
인
읹
읺
읻
일
읽
읾
읿
잀
잂
잃
임
입
잆
잇
있
잉
잊
잋
잌
잍
잎
잏
자
작
잒
잔
잕
잖
잗
잘
잙
잚
잛
잜
잟
잠
잡
잢
잣
잤
장
잦
잧
잨
잩
잪
잫
재
잭
잰
잴
잼
잽
잿
쟀
쟁
쟂
쟄
쟆
쟈
쟉
쟌
쟎
쟐
쟘
쟙
쟛
쟜
쟝
쟞
쟣
쟤
쟨
쟬
쟹
저
적
전
젅
젆
젇
절
젉
젊
젋
젎
젏
점
접
젓
젔
정
젖
젗
젘
젙
젚
젛
제
젝
젠
젣
젤
젬
젭
젯
젰
젱
젲
젴
져
젹
젺
젼
젿
졀
졈
졉
졋
졌
졍
졎
졏
졐
졑
졓
졔
졘
졨
조
족
졲
졳
존
졵
졶
졷
졸
졻
좀
좁
좂
좃
좄
종
좆
좇
좈
좉
좊
좋
좌
좍
좐
좔
좜
좝
좟
좠
좡
좢
좦
좨
좬
좸
좽
죄
죅
죈
죌
죔
죕
죗
죙
죚
죠
죡
죤
죧
죨
죰
죱
죳
죴
죵
죷
죸
죹
죻
주
죽
준
줃
줄
줌
줍
줏
줐
중
줒
줓
줔
줕
줗
줘
줙
줜
줟
줠
줩
줫
줬
줭
줮
줯
줰
줱
줳
줴
줸
줼
쥐
쥑
쥔
쥘
쥠
쥡
쥣
쥤
쥥
쥬
쥭
쥰
쥴
쥼
쥽
쥿
즁
즂
즈
즉
즌
즐
즘
즙
즛
증
즞
즣
즤
즥
즨
즬
즴
즵
즹
지
직
짂
진
짅
짆
짇
질
짉
짊
짋
짌
짏
짐
집
짒
짓
짔
징
짖
짗
짘
짙
짚
짛
짜
짝
짞
짠
짢
짤
짥
짦
짧
짪
짫
짬
짭
짮
짯
짰
짱
짲
짳
짴
째
짹
짼
쨀
쨈
쨉
쨋
쨌
쨍
쨎
쨓
쨔
쨕
쨘
쨜
쨥
쨩
쨰
쩃
쩄
쩌
쩍
쩐
쩔
쩖
쩜
쩝
쩟
쩠
쩡
쩢
쩦
쩧
쩨
쩬
쩻
쪄
쪅
쪈
쪌
쪔
쪕
쪗
쪘
쪙
쪚
쪼
쪽
쪾
쫀
쫃
쫄
쫌
쫍
쫏
쫐
쫑
쫒
쫓
쫔
쫗
쫘
쫙
쫠
쫩
쫭
쫴
쬐
쬑
쬠
쬬
쬭
쬼
쬽
쬿
쭀
쭁
쭈
쭉
쭌
쭐
쭘
쭙
쭛
쭝
쭞
쭟
쭤
쭥
쭵
쭸
쭹
쮜
쮝
쮠
쮭
쮸
쮹
쯉
쯍
쯔
쯕
쯘
쯜
쯤
쯥
쯧
쯨
쯩
쯪
쯫
쯰
찌
찍
찎
찐
찓
찔
찜
찝
찟
찠
찡
찢
찣
찤
찦
찧
차
착
찬
찮
찯
찰
찱
찴
찷
참
찹
찻
찼
창
찾
찿
챀
챃
채
책
챈
챌
챔
챕
챗
챘
챙
챠
챡
챤
챦
챨
챰
챱
챴
챵
챼
챽
처
척
천
첝
첞
첟
철
첢
첨
첩
첫
첬
청
첮
첯
첰
첲
첳
체
첵
첸
첼
쳄
쳇
쳈
쳉
쳌
쳐
쳑
쳔
쳘
쳠
쳡
쳣
쳤
쳥
쳦
쳧
쳨
쳫
쳬
촀
초
촉
촌
촏
촐
촘
촙
촛
총
촞
촟
촣
촤
촥
촨
촬
촰
촴
촵
촹
쵀
최
쵝
쵠
쵤
쵯
쵱
쵸
쵹
쵼
춈
춉
춋
춌
춍
추
축
춘
출
춠
춣
춤
춥
춧
충
춪
춫
춬
춯
춰
춴
췁
췃
췄
췅
췌
췍
췐
췟
췡
취
췩
췬
췰
췻
췼
췽
츄
츅
츈
츌
츔
츕
츙
츠
측
츤
츨
츰
츱
츳
층
츼
칀
칄
칑
치
칙
친
칝
칞
칟
칠
칡
침
칩
칫
칬
칭
칮
칯
칰
칲
칳
카
칵
칸
칼
캄
캅
캆
캇
캈
캉
캌
캍
캐
캑
캔
캘
캠
캡
캣
캤
캥
캪
캬
캭
컁
컄
컈
커
컥
컨
컫
컬
컴
컵
컷
컸
컹
컼
컽
케
켁
켄
켈
켐
켑
켓
켔
켕
켘
켙
켜
켝
켠
켤
켬
켭
켯
켰
켱
켷
켸
콌
코
콕
콘
콜
콤
콥
콧
콩
콫
콬
콰
콱
콴
콸
쾅
쾈
쾌
쾍
쾐
쾡
쾨
쿄
쿠
쿡
쿤
쿨
쿰
쿱
쿳
쿵
쿸
쿼
퀀
퀄
퀘
퀙
퀭
퀴
퀵
퀸
퀼
큉
큐
큑
큔
큘
큥
큨
크
큭
큰
큲
클
큼
큽
큿
킁
킄
킅
킈
킝
키
킥
킨
킫
킬
킴
킵
킷
킸
킹
킺
킼
타
탁
탄
탇
탈
탉
탐
탑
탓
탔
탕
탖
탘
탙
태
택
탠
탣
탤
탬
탭
탯
탰
탱
탸
탹
탼
턀
턍
턔
턕
터
턱
턴
털
텀
텁
텃
텄
텅
텆
텈
텊
텋
테
텍
텐
텔
템
텝
텟
텡
텤
텦
텨
텩
텬
텰
텻
텼
텽
톄
톈
톔
토
톡
톤
톨
톰
톱
톳
통
톹
톻
톼
퇄
퇘
퇙
퇫
퇬
퇴
퇵
퇸
퇼
툇
툈
툐
툥
투
툭
툰
툴
툻
툼
툽
퉁
퉈
퉌
퉛
퉜
퉤
퉥
퉵
퉷
퉸
퉽
튀
튁
튄
튈
튐
튑
튓
튕
튜
튠
튤
튬
튭
튱
트
특
튼
튽
튿
틀
틁
틅
틈
틉
틋
틍
틐
틑
틔
틘
틜
티
틱
틴
틸
팀
팁
팃
팅
파
팍
팎
판
팓
팔
팕
팛
팜
팝
팟
팠
팡
팢
팤
팥
팦
팧
패
팩
팬
팰
팸
팹
팻
팼
팽
퍀
퍄
퍅
퍈
퍌
퍙
퍠
퍼
퍽
펀
펄
펌
펍
펏
펐
펑
펔
페
펙
펜
펠
펨
펩
펫
펭
펰
펴
펵
편
펼
폄
폅
폇
폈
평
폐
폑
폔
폠
폣
폥
포
폭
폰
폳
폴
폼
폽
폿
퐁
퐄
퐈
퐉
퐌
퐐
퐛
퐝
푀
표
푝
푠
푤
푯
푱
푸
푹
푼
풀
품
풉
풋
풍
풐
풑
풒
풓
풔
풜
풰
풱
퓌
퓡
퓨
퓬
퓰
퓸
퓹
퓽
프
픅
픈
플
픔
픕
픗
픙
픞
픠
픵
피
픽
핀
필
핌
핍
핏
핑
핓
핗
하
학
핛
한
핝
핞
핟
할
핡
핢
핣
핤
핥
핦
핧
함
합
핪
핫
핬
항
핮
핰
핱
핲
핳
해
핵
핶
핸
핻
핼
핽
햄
햅
햇
했
행
햊
햋
햌
햏
햐
햑
햔
햘
햙
햛
햝
햟
햠
햡
햣
햤
향
햩
햬
햭
햰
햿
헀
헁
허
헉
헌
헐
헑
헕
헗
험
헙
헛
헜
헝
헠
헡
헣
헤
헥
헨
헬
헴
헷
헸
헹
헼
헿
혀
혁
현
혈
혐
협
혓
혔
형
혖
혘
혙
혚
혛
혜
혝
혠
혤
혱
호
혹
혼
홀
홈
홉
홋
홍
홐
홑
홓
화
확
환
홛
활
홣
홤
홥
홧
홨
황
홬
홯
홰
홱
횃
횄
횅
회
획
횐
횔
횝
횟
횡
횢
횤
효
횩
횬
횰
횻
횽
후
훅
훈
훌
훍
훑
훓
훔
훕
훗
훙
훚
훜
훝
훟
훠
훡
훤
훨
훯
훰
훱
훳
훵
훻
훼
훽
휀
휄
휏
휑
휘
휙
휜
휠
휨
휩
휫
휭
휴
휵
휸
휼
흄
흉
흌
흐
흑
흔
흘
흙
흝
흠
흡
흣
흥
흨
흩
흫
희
흭
흰
흴
흼
흽
힁
히
힉
힌
힏
힐
힘
힙
힛
힜
힝
힞
힠
힢
힣
％
##블
##어
##빠
##루
##0
##개
##국
##이
##랑
##북
##운
##동
##도
##하
##시
##지
##진
##자
##를
##위
##해
##살
##고
##인
##사
##건
##접
##대
##서
##콩
##던
##기
##아
##페
##스
##x
##의
##강
##욱
##쓰
##레
##폐
##처
##분
##응
##가
##능
##했
##을
##텐
##데
##렌
##젠
##다
##무
##질
##발
##전
##에
##각
##본
##ㅋ
##제
##입
##한
##거
##요
##닝
##문
##썬
##나
##뭐
##냐
##성
##애
##권
##장
##는
##작
##젴
##탄
##불
##네
##너
##생
##드
##i
##h
##o
##n
##으
##로
##래
##앞
##뒤
##막
##힌
##올
##라
##오
##겠
##민
##세
##금
##월
##급
##받
##탁
##키
##니
##까
##알
##잖
##죗
##값
##있
##신
##환
##줄
##ㅅ
##잡
##반
##섬
##많
##일
##당
##게
##된
##것
##들
##임
##령
##극
##적
##할
##수
##밖
##없
##깨
##닫
##럼
##비
##케
##단
##트
##공
##차
##렷
##ㅡ
##베
##였
##상
##번
##견
##득
##료
##승
##ㅈ
##ㄱ
##못
##경
##희
##퍼
##센
##과
##빙
##벨
##면
##역
##겨
##썼
##누
##리
##족
##꾼
##조
##습
##산
##방
##식
##릴
##께
##명
##화
##계
##법
##변
##은
##증
##소
##원
##박
##여
##같
##쫑
##란
##평
##등
##글
##좌
##표
##업
##률
##폭
##속
##더
##않
##았
##ㅜ
##4
##년
##안
##얼
##마
##체
##만
##치
##보
##린
##야
##배
##됨
##목
##편
##좋
##구
##톡
##부
##럽
##노
##슨
##주
##예
##긴
##찰
##었
##준
##그
##빨
##갱
##락
##룩
##될
##져
##줬
##닼
##겹
##ㄹ
##ㅇ
##쳐
##놈
##절
##돼
##청
##잇
##간
##러
##떨
##재
##맨
##쇼
##유
##녔
##음
##행
##려
##둘
##집
##플
##랜
##워
##천
##태
##벌
##두
##륵
##긋
##괴
##롭
##히
##줘
##쓉
##룰
##ㄲ
##토
##든
##씨
##연
##바
##력
##앙
##추
##량
##믿
##호
##합
##점
##종
##언
##때
##숭
##선
##밀
##설
##염
##롱
##군
##정
##근
##폰
##냄
##새
##코
##프
##중
##광
##충
##늠
##외
##낸
##듯
##삶
##갈
##빡
##칠
##며
##와
##름
##터
##늘
##좀
##달
##난
##첩
##색
##긔
##1
##2
##3
##렵
##뷰
##내
##컨
##팅
##미
##따
##쑈
##타
##쟁
##통
##껑
##덥
##덮
##랍
##확
##빈
##함
##람
##댓
##모
##빵
##쪼
##규
##교
##걸
##뻔
##양
##육
##떼
##용
##채
##우
##말
##놓
##파
##겁
##후
##덕
##k
##텨
##졋
##먹
##높
##볏
##쾌
##택
##품
##판
##6
##꿀
##r
##책
##봄
##빼
##되
##림
##넌
##활
##쇄
##s
##f
##ㅏ
##줌
##최
##류
##옮
##길
##잌
##갔
##송
##맛
##패
##돌
##쩌
##감
##학
##7
##봐
##앗
##석
##엎
##물
##켠
##딩
##논
##련
##끊
##버
##브
##커
##망
##햇
##죠
##결
##직
##멘
##탈
##촛
##님
##쌔
##셨
##손
##끄
##팔
##8
##십
##밝
##혀
##록
##싢
##관
##싶
##떤
##ㅠ
##황
##눠
##남
##크
##빛
##왕
##맞
##른
##검
##쇅
##꺼
##꼴
##벙
##붓
##창
##초
##힘
##쁜
##랫
##땜
##잘
##심
##술
##튀
##잽
##꺄
##죄
##영
##착
##왜
##갑
##슷
##옹
##귀
##피
##디
##존
##머
##넣
##펴
##c
##t
##v
##좆
##앓
##싸
##움
##찌
##륜
##혜
##낳
##실
##켜
##열
##온
##침
##현
##짓
##날
##융
##회
##탱
##줫
##매
##믄
##졸
##뉘
##범
##곰
##찬
##백
##뚫
##닌
##껄
##뽕
##끼
##깁
##괭
##흉
##쌍
##팀
##잔
##딸
##답
##느
##테
##짜
##욕
##댜
##혁
##깊
##솔
##론
##납
##병
##뢰
##취
##닦
##곳
##뿐
##랄
##약
##헛
##투
##ㅉ
##롯
##필
##볍
##꼬
##랭
##뒈
##순
##복
##허
##즘
##암
##냉
##골
##억
##5
##칙
##삼
##낱
##헤
##엑
##흘
##찿
##탓
##눈
##렴
##ㅎ
##읕
##m
##옳
##떻
##꾸
##훈
##쨔
##팽
##셔
##티
##a
##밟
##혔
##뒀
##껍
##킨
##맥
##콜
##담
##출
##겸
##w
##y
##찾
##맡
##쓴
##벼
##메
##꼭
##짱
##먼
##깜
##찍
##삐
##춘
##저
##휘
##참
##홍
##l
##돗
##랖
##욤
##랐
##슬
##씩
##됬
##혹
##녹
##뇌
##르
##셰
##켰
##졌
##듬
##또
##깐
##죽
##형
##렸
##돈
##항
##링
##립
##총
##및
##둥
##얘
##짐
##포
##징
##밥
##엥
##쏘
##악
##낀
##잠
##써
##릎
##꿇
##틸
##낯
##풀
##샀
##탠
##넘
##멋
##몰
##싱
##랬
##짝
##꿍
##겟
##밭
##쪽
##획
##찔
##딱
##즉
##뜯
##쉬
##격
##철
##털
##J
##T
##B
##C
##템
##엔
##큼
##9
##쁘
##액
##컴
##퓨
##ㅗ
##울
##멸
##농
##홧
##힐
##팍
##궁
##닭
##뇬
##친
##놨
##걱
##쌩
##D
##즈
##팩
##읍
##좍
##났
##슈
##껀
##둔
##완
##틀
##므
##율
##겄
##측
##됐
##A
##L
##댄
##끗
##혼
##춰
##멍
##김
##향
##섰
##카
##컷
##봤
##쉐
##맘
##렇
##클
##뉴
##팻
##뜨
##끝
##엇
##ㄴ
##슝
##쉽
##넉
##웃
##런
##뀌
##씹
##봉
##삿
##g
##냥
##ㅂ
##놀
##험
##빌
##뤄
##렁
##앱
##칭
##겐
##뎅
##쇠
##앤
##협
##덜
##껴
##쳣
##딘
##층
##밪
##붕
##봅
##압
##끌
##컬
##깔
##럴
##숨
##낮
##덧
##첨
##잉
##샘
##괜
##찮
##독
##닙
##턴
##핵
##떠
##싫
##픽
##떡
##텅
##듣
##O
##툼
##낫
##땅
##넼
##칸
##쌀
##톨
##덩
##촌
##줭
##례
##녕
##뽑
##컹
##곡
##똥
##쌌
##롤
##b
##d
##솨
##뿌
##쳤
##몇
##괄
##귄
##틈
##웠
##릉
##잎
##척
##녀
##별
##됌
##붙
##뜩
##졀
##돋
##쎄
##늄
##펀
##핀
##챙
##슥
##궐
##쥐
##괘
##ㅓ
##폈
##옷
##밑
##옆
##섭
##곤
##릅
##젖
##ㅆ
##뤘
##텋
##횡
##ㅔ
##e
##췌
##델
##탕
##흔
##읽
##윤
##쭈
##싯
##ㄷ
##밌
##싼
##왔
##축
##갰
##얻
##H
##룡
##햔
##특
##엠
##효
##맙
##줍
##갇
##덴
##캄
##븅
##찐
##찜
##푸
##썅
##헬
##엊
##렬
##봇
##헌
##넚
##ㅣ
##좃
##렐
##잃
##칩
##딴
##늪
##햐
##댐
##눌
##픈
##숙
##쿨
##쟤
##샷
##ㅁ
##턱
##갖
##쌉
##뜻
##뀔
##흑
##둑
##꽂
##휴
##ㅊ
##E
##깠
##S
##됀
##둬
##튼
##즙
##겼
##닥
##엄
##잭
##횃
##픔
##쌋
##혐
##뜰
##쓸
##삽
##륙
##쥡
##뺄
##딨
##끔
##쇆
##짤
##혓
##짆
##익
##챘
##묻
##돠
##셧
##옥
##엮
##쭝
##꾹
##렙
##갓
##ㅌ
##X
##큰
##빚
##벽
##굳
##젓
##램
##낙
##냈
##먄
##퇴
##엉
##빤
##볼
##윈
##묵
##씀
##쯤
##밬
##꿈
##퀴
##탑
##릇
##j
##슐
##굴
##쉑
##짖
##씸
##훨
##땐
##넒
##뮤
##칼
##둣
##샛
##즌
##멀
##굿
##됙
##쉴
##객
##똑
##M
##랙
##뭔
##깃
##띄
##쏭
##캔
##늉
##뚝
##듀
##꼽
##톤
##늩
##펄
##댔
##믹
##념
##흐
##춤
##꽤
##갘
##쑤
##찢
##탬
##뺏
##즐
##닐
##뺌
##넓
##ㅐ
##냔
##킬
##쩔
##뛰
##략
##W
##뒨
##놔
##셈
##낭
##웅
##혈
##댈
##꿔
##묘
##캐
##띠
##뭘
##웹
##킹
##땀
##궉
##똘
##넝
##쒜
##쁠
##캬
##씌
##팡
##엿
##쭉
##놯
##댸
##뿟
##G
##벗
##숟
##앟
##겉
##틴
##싹
##앉
##쩍
##뤼
##렀
##귝
##녁
##쿡
##헨
##녾
##널
##얐
##쉭
##쿠
##넨
##밨
##몽
##뺜
##츄
##룹
##듄
##왓
##늙
##핑
##겅
##덤
##랴
##맹
##꽁
##밈
##뿍
##왈
##닮
##놘
##겈
##퍙
##틱
##셋
##뽤
##옴
##폔
##컵
##랏
##갚
##뜌
##갤
##퓌
##풍
##굽
##엘
##균
##엌
##섯
##툴
##샤
##싷
##씬
##윽
##헹
##깡
##촉
##밍
##u
##V
##텔
##z
##펌
##깎
##룸
##큐
##콤
##펑
##겧
##얬
##윌
##먕
##뜬
##렜
##K
##탐
##몃
##냅
##쟈
##뻘
##웰
##녓
##뀐
##뇨
##됫
##쌓
##욧
##윙
##닷
##깝
##킈
##켓
##꼈
##톱
##꼰
##팬
##탤
##눅
##떵
##땡
##퇘
##벅
##낼
##옵
##션
##듭
##짭
##쌨
##꽈
##뻐
##껭
##윰
##땨
##숫
##떄
##졔
##볓
##럭
##엽
##휼
##쒸
##쯔
##앨
##퍠
##쟝
##럈
##릭
##켙
##몬
##넥
##쪄
##닉
##냨
##샊
##뭉
##쌈
##됄
##걔
##숴
##졷
##멊
##낑
##잦
##흥
##낌
##훼
##쩜
##훤
##뎀
##괞
##얔
##ㅑ
##짗
##눔
##첫
##튜
##펜
##츕
##흙
##뵙
##렉
##뚱
##걷
##됴
##핸
##껌
##p
##럿
##짠
##삭
##됍
##젯
##쏴
##켔
##뽀
##짢
##멓
##딜
##븐
##궈
##뢔
##댕
##삘
##뻥
##째
##슙
##뮨
##ㅖ
##깟
##ㅛ
##슴
##몾
##R
##겆
##훔
##닞
##닿
##뤈
##헐
##꺽
##퀵
##뿅
##츼
##퉤
##벳
##뷔
##엡
##웨
##썩
##넋
##슽
##깽
##엣
##텄
##갯
##뿔
##껏
##뭇
##푼
##욬
##팜
##셜
##슘
##뽜
##웟
##쩡
##츠
##윕
##쭁
##닢
##읺
##탔
##뚜
##I
##젝
##쳄
##흩
##햋
##섹
##햬
##놋
##깇
##댁
##P
##늰
##곱
##N
##긎
##F
##맏
##둡
##썪
##숰
##낄
##땟
##숑
##핍
##쫌
##팸
##믜
##뤠
##흡
##Q
##됩
##걀
##뒷
##잏
##텼
##콘
##넹
##퍽
##퐈
##읎
##q
##쐬
##쫄
##뫀
##셤
##툽
##웬
##텍
##뽐
##뒸
##촬
##찝
##넠
##쓱
##쫘
##냦
##뎋
##곧
##릿
##콕
##졓
##슌
##빽
##ㅍ
##줮
##샹
##돔
##쳇
##뽈
##갸
##굶
##끓
##욯
##됏
##꼼
##닠
##뼝
##긍
##돝
##딪
##엨
##밴
##쩐
##뎃
##햏
##퉁
##쥬
##뺐
##얹
##깈
##닜
##셀
##깍
##Y
##툥
##뽄
##쵸
##쉼
##펠
##봣
##뱃
##텝
##샂
##섀
##겪
##샠
##랰
##펙
##걍
##깻
##쳔
##힙
##쟎
##끈
##놐
##굨
##뚤
##눙
##쒯
##긱
##꽃
##짚
##젊
##멜
##퀘
##펨
##낟
##돕
##뭏
##켈
##겻
##삥
##갭
##겤
##벵
##U
##잊
##꿉
##얜
##흠
##눟
##싨
##롸
##듷
##곁
##뮈
##펐
##쏨
##왁
##벤
##얍
##얄
##뻗
##깓
##쏼
##굘
##홉
##섞
##숲
##첵
##륭
##횔
##듵
##쨩
##줏
##잤
##깬
##킵
##랸
##햤
##펏
##늬
##쾅
##뭄
##섿
##첬
##ㄸ
##왖
##셉
##쿄
##롬
##깉
##둿
##끠
##튈
##껐
##쟌
##얃
##꽝
##딤
##뇽
##넿
##쏜
##쮸
##랠
##셩
##윳
##퀄
##쐐
##쳡
##옫
##뱀
##횽
##넵
##뼈
##믈
##껜
##젤
##쫒
##댱
##꺾
##퐁
##뿡
##쐭
##젼
##샏
##얌
##떔
##츌
##퍈
##톄
##쥼
##랩
##쫀
##팠
##홥
##뱉
##홀
##썻
##쎼
##떴
##듳
##컫
##쩝
##얀
##띨
##솜
##곽
##퓰
##놧
##뽁
##핱
##쌘
##뜸
##옄
##갬
##죤
##킴
##잣
##깅
##붉
##둠
##긌
##윗
##렺
##읃
##쏙
##뭍
##뎄
##ㅃ
##쏟
##죈
##쫓
##쭐
##갠
##궤
##삵
##쭘
##렛
##툭
##쉒
##짔
##댘
##맇
##찡
##꼮
##ㅒ
##늨
##멈
##ㅘ
##뿜
##몫
##깂
##멕
##볕
##괸
##쥘
##쳬
##넽
##챠
##쌤
##궹
##랒
##씁
##룬
##싣
##헸
##캣
##턔
##빅
##쉥
##앵
##쎈
##횟
##잿
##밷
##뺨
##잀
##횐
##읊
##빟
##훅
##홋
##뵹
##늦
##핥
##젰
##쨍
##겜
##쏠
##힠
##솤
##폴
##찻
##셑
##겡
##걑
##뜾
##슁
##쫙
##쬬
##줴
##샜
##맬
##얏
##뛸
##겔
##숵
##캠
##쇗
##짘
##덫
##뺑
##짧
##쒼
##띳
##먠
##맺
##몸
##샋
##셴
##켘
##핌
##랳
##늧
##팁
##냼
##꺠
##푹
##뺕
##곸
##띡
##떳
##슆
##펵
##짰
##팎
##똔
##퉷
##쌬
##먀
##봨
##띵
##맟
##밎
##뎐
##솰
##젔
##핬
##쉰
##욀
##빰
##햌
##랔
##솟
##큭
##킄
##앜
##꿎
##풒
##쑥
##늕
##댑
##뺠
##짇
##읆
##핮
##젋
##돳
##냑
##꿨
##잜
##낚
##꾤
##뱝
##뷸
##깆
##묶
##닺
##숮
##삑
##릂
##쑬
##긷
##떰
##긜
##힉
##궂
##춬
##굉
##긧
##켤
##잼
##졎
##씪
##늑
##좇
##땠
##뤌
##윘
##빕
##뗀
##녈
##넬
##밤
##옰
##뺴
##훌
##뻑
##줜
##돨
##듁
##넷
##끽
##놉
##솝
##띁
##휠
##닛
##쁫
##좁
##밢
##앖
##핧
##츰
##핝
##캉
##섕
##뱅
##셍
##뎌
##멤
##펼
##쪘
##쎗
##췬
##씼
##됟
##ㅕ
##쒝
##넺
##셥
##숍
##뢀
##휩
##큿
##뒁
##쐑
##캥
##꼿
##옂
##믁
##끋
##듦
##햄
##럻
##눕
##왝
##몀
##웓
##쥥
##겝
##됭
##맒
##읭
##뎨
##쥑
##낰
##얕
##빋
##믕
##몌
##벆
##꼐
##햅
##핰
##읻
##귿
##칫
##잰
##숄
##샅
##쟨
##쫏
##뉨
##쉔
##쌕
##풋
##짴
##헝
##쩨
##넴
##샙
##윷
##핫
##좨
##샼
##릐
##씻
##텃
##싀
##팟
##헥
##갃
##쨈
##탉
##썰
##샥
##웜
##뻡
##즁
##셐
##켱
##냇
##딧
##쿵
##콧
##댯
##훗
##읓
##넫
##렠
##빳
##쯜
##넜
##뫃
##튄
##츤
##읰
##븟
##녑
##핼
##멧
##켯
##흰
##훙
##셕
##맄
##뜀
##톈
##뵈
##쇤
##땃
##쫗
##엏
##콥
##딕
##톰
##뺘
##툰
##쯧
##깤
##냠
##옌
##캤
##롣
##ㅞ
##쭤
##헉
##쒀
##찹
##꼇
##짼
##톼
##붘
##빔
##짬
##녘
##쭵
##쨌
##럐
##섷
##췻
##딥
##껠
##밉
##풉
##뇸
##숩
##뺀
##뭣
##캍
##쥴
##즨
##얙
##캡
##찟
##킁
##싄
##섥
##늣
##뎈
##쌴
##밸
##좡
##뤀
##챌
##샎
##낂
##얂
##쁸
##읅
##돞
##뫄
##릏
##켸
##ㅄ
##쥤
##딹
##샾
##쐈
##샵
##밧
##츙
##∼
##굼
##빢
##흌
##짏
##옛
##엾
##붸
##찼
##튿
##듥
##퍄
##쪕
##욜
##룝
##욮
##뱰
##칵
##둉
##쉇
##뼛
##묠
##싞
##쯩
##룻
##펔
##펭
##쎙
##핟
##묭
##렣
##핏
##췃
##쎠
##팰
##쎆
##첸
##깹
##볘
##벜
##럤
##퇬
##덯
##꼅
##뻣
##힝
##흭
##팃
##잆
##튭
##챤
##옸
##컸
##믠
##붐
##땄
##닳
##틔
##폄
##깥
##쁨
##넛
##ㅢ
##봥
##닁
##뎁
##렼
##웩
##썸
##돟
##췄
##묜
##빻
##핞
##뵌
##붇
##썌
##밣
##읔
##쨓
##끅
##깄
##챽
##챕
##컥
##솥
##팝
##탭
##뉼
##츨
##끕
##켐
##넗
##쳑
##샡
##춣
##빗
##궜
##멱
##탸
##딲
##꿰
##곗
##땩
##챈
##죵
##늗
##꿑
##뵤
##퉈
##쯕
##좔
##팼
##씽
##앳
##끙
##힣
##몈
##쑵
##끤
##읗
##뱌
##븹
##쨉
##앚
##홰
##봘
##탯
##롶
##힜
##긘
##왼
##떈
##샆
##홈
##읩
##텽
##뒹
##졍
##샴
##헷
##붤
##돤
##뿠
##괌
##켬
##웡
##쑨
##닣
##밋
##뤡
##딛
##룽
##꽉
##롓
##뮌
##겋
##뵥
##뜅
##폼
##뗐
##챵
##킷
##욥
##맵
##눴
##쪾
##쨋
##몋
##믾
##띤
##씈
##뻭
##즤
##쥣
##엤
##녜
##벡
##딬
##읶
##촐
##튕
##첮
##뀨
##쬐
##폇
##뗌
##덱
##욌
##웁
##멉
##섺
##읏
##앀
##뻤
##썽
##덟
##쟙
##맷
##땤
##떱
##쭙
##냬
##닽
##쾨
##멩
##뚷
##촞
##댭
##쎅
##짹
##봬
##훰
##솽
##놰
##촘
##쿤
##볌
##숱
##샌
##셌
##꾀
##넢
##틉
##뭑
##묙
##뵜
##갮
##켄
##ㅟ
##딫
##깼
##킼
##롳
##볂
##땍
##뛴
##읜
##햭
##듸
##걩
##돵
##쵠
##앴
##잪
##탼
##팤
##벍
##뇜
##걵
##왘
##쮜
##셯
##앢
##찣
##둇
##쥔
##냘
##젹
##싡
##룔
##랗
##쉌
##쇡
##뵨
##뗏
##텻
##몪
##퍅
##싕
##텀
##갗
##햘
##눼
##쨀
##섣
##잴
##갛
##헗
##옙
##탰
##콴
##뉜
##돉
##둰
##핳
##괒
##긇
##맸
##쀼
##룐
##듫
##헙
##젱
##븨
##훠
##칯
##졉
##벋
##닊
##촟
##톳
##헀
##맀
##욘
##탹
##궄
##땈
##넖
##Z
##줙
##욺
##뭬
##맠
##봏
##콰
##댖
##궨
##뱁
##뱔
##곀
##엍
##춴
##쎘
##칞
##귱
##뼘
##잟
##댙
##뎆
##붗
##삤
##낏
##팹
##펫
##륨
##줔
##좉
##섳
##믐
##눞
##즹
##죳
##뮬
##뗄
##먜
##썹
##킥
##삻
##엢
##쉘
##잨
##뀜
##삔
##왠
##덍
##멷
##퀼
##콸
##궃
##냣
##갼
##앋
##욷
##뺙
##텡
##봦
##싵
##홱
##휸
##궛
##눤
##팥
##슺
##굵
##롼
##쎴
##퐐
##앛
##튽
##렆
##맍
##곘
##촤
##놤
##씯
##섴
##푠
##쓔
##굯
##첼
##칀
##몆
##맴
##샨
##꽥
##쌖
##멵
##쒹
##싺
##핡
##젺
##듴
##햣
##빩
##봫
##뛔
##찠
##좝
##낞
##촹
##몼
##듕
##밮
##퇙
##돜
##뭠
##뭤
##껫
##꿧
##멎
##껼
##삲
##컄
##춥
##롔
##봡
##귈
##쨰
##녆
##죴
##샬
##졳
##꾜
##긑
##렿
##앰
##헣
##앂
##쇜
##빴
##샐
##뾰
##굻
##뮴
##즣
##꿘
##쳘
##땋
##냏
##튐
##챡
##긕
##갉
##퀀
##궥
##랼
##ㅙ
##퇸
##읐
##쉨
##랓
##맣
##폽
##읿
##봍
##볶
##쾡
##쓤
##혛
##셒
##뗘
##햑
##젭
##몐
##쫩
##맼
##맗
##봑
##씅
##갹
##뺍
##좟
##쎔
##츈
##굥
##셱
##얇
##혝
##륻
##휙
##곹
##죡
##캭
##줒
##뼉
##뙨
##릌
##몁
##햠
##뷁
##쨜
##칮
##쥰
##쪙
##촀
##싴
##짅
##젇
##ㅀ
##맑
##틍
##맂
##딯
##띾
##쪅
##돛
##꾾
##뻬
##ㅚ
##뮐
##뜽
##쌰
##왑
##냌
##빱
##곺
##씝
##빶
##녇
##궙
##꼹
##듼
##쉣
##얠
##샸
##짳
##짒
##슉
##쏱
##욍
##챦
##놊
##샗
##셓
##옶
##럱
##룍
##멌
##럲
##삳
##씰
##닏
##겂
##땝
##븥
##옿
##맜
##뱜
##겎
##뷴
##닯
##럇
##덝
##삣
##핻
##짛
##숼
##읠
##뀠
##콌
##옘
##떧
##죙
##휀
##샟
##꿋
##낡
##뽝
##밠
##켕
##몹
##짙
##낍
##욋
##왱
##녛
##빧
##샄
##붖
##껸
##엦
##듐
##슾
##뱡
##긁
##귑
##볐
##섮
##깢
##캘
##햡
##긒
##혘
##뱄
##뫌
##핛
##쏳
##쬭
##쎃
##듈
##휭
##맆
##쿼
##읹
##잗
##빍
##헁
##핤
##랃
##틋
##쳦
##돱
##쿰
##깞
##켑
##샣
##쟉
##겯
##쳨
##깸
##뉩
##뷱
##곶
##됸
##쳥
##챗
##쥽
##툐
##샇
##쯍
##뚕
##졐
##헠
##쉅
##짯
##몯
##됑
##댂
##쌧
##됼
##웍
##텦
##왐
##덛
##룟
##귐
##탘
##먿
##뗴
##갴
##싥
##핓
##쌱
##쁀
##읁
##궸
##뎠
##뭥
##맊
##찴
##뎟
##렫
##듪
##콱
##뱐
##쨕
##퍀
##쟀
##뜹
##춍
##밯
##쉿
##옭
##껔
##웤
##놌
##볗
##렂
##잧
##뫠
##캅
##뉸
##윾
##댛
##욛
##캈
##칰
##잕
##앆
##늫
##냰
##뱓
##뵀
##푯
##뱍
##웂
##욪
##봙
##떢
##쏫
##퀸
##뤗
##젆
##뫼
##궇
##넙
##뺃
##훍
##밞
##괼
##슼
##췼
##줗
##렝
##텁
##쳌
##칲
##왰
##헡
##땔
##꿩
##늼
##듲
##뙌
##믓
##얺
##묹
##붑
##횬
##즛
##쪈
##쑴
##벧
##낔
##뗭
##녤
##윀
##솼
##싑
##얽
##렘
##싁
##씍
##죌
##똡
##똬
##뢋
##렄
##왤
##쯪
##즞
##릳
##겓
##봔
##뻉
##ㄻ
##좸
##룜
##쥭
##닚
##쩢
##뽂
##옜
##밐
##팓
##롹
##릔
##뺵
##놕
##읮
##빜
##얶
##춋
##럄
##삯
##쟂
##덪
##좈
##껙
##쟜
##뙈
##폿
##븡
##긐
##쩻
##쉈
##죸
##챔
##뻠
##똣
##폳
##텤
##윱
##끍
##앲
##ㄺ
##읒
##옇
##섁
##앝
##뎜
##걈
##덙
##멐
##륿
##겢
##끚
##녠
##벞
##꾐
##쎜
##릃
##삸
##촨
##풰
##쿳
##걊
##켝
##잫
##곷
##슛
##횢
##쇳
##꽇
##귁
##얷
##귓
##켁
##싪
##땬
##쫃
##ㄶ
##섲
##낵
##퓸
##귤
##뇐
##짪
##롴
##쟄
##댬
##뢸
##픕
##곙
##죕
##줠
##숸
##엋
##횅
##늡
##픗
##쌂
##짦
##쎽
##섵
##튬
##헴
##닻
##쎵
##껬
##쥠
##꽅
##쩟
##짋
##뱨
##챴
##롷
##롐
##껰
##쿸
##돚
##롲
##큽
##멨
##춯
##랮
##픙
##눜
##웄
##쁩
##싈
##눰
##큘
##젎
##줟
##덨
##쬽
##쐉
##윅
##슄
##읉
##붛
##췡
##숳
##깋
##붜
##갷
##틘
##섡
##퉜
##퇫
##힢
##됰
##띈
##뷍
##춧
##랋
##쭌
##잩
##츔
##윻
##졘
##븍
##웧
##룁
##섶
##햝
##푤
##뎍
##텈
##뭡
##툇
##뎔
##뚥
##굷
##쟣
##욨
##겍
##뮷
##먈
##뀬
##곪
##뷩
##츅
##밦
##똭
##짊
##얒
##싟
##뒬
##뗜
##벖
##힁
##섄
##쉫
##뢴
##흫
##롄
##쏸
##퇼
##앏
##흄
##숖
##꿜
##꽌
##탣
##튁
##갵
##뭊
##힞
##딀
##촣
##벴
##옺
##똠
##듨
##솢
##쵼
##됳
##헜
##칬
##줩
##릍
##씃
##륀
##앺
##삮
##턍
##봌
##뎇
##햊
##씐
##벱
##흼
##럾
##쑹
##붏
##샑
##뱩
##쫍
##곻
##겾
##엪
##퍌
##넸
##쳠
##쩧
##꿏
##즵
##졵
##탖
##뮝
##븰
##줱
##츱
##쌸
##껨
##팢
##꽄
##떽
##냫
##홤
##쇽
##힛
##켭
##읋
##뜡
##랲
##봊
##툈
##푀
##괁
##쫭
##옾
##좐
##챀
##옽
##겷
##씾
##싰
##땰
##옃
##뙤
##찧
##솎
##곈
##솅
##볭
##쐇
##벓
##죅
##팦
##뽚
##굔
##옼
##쒴
##듡
##쟐
##궝
##롕
##킅
##칟
##핗
##쳉
##쉙
##뒝
##랟
##쯘
##뎡
##왚
##칳
##앎
##꺔
##즥
##섫
##곌
##앍
##눗
##닾
##븽
##퐌
##씞
##쒞
##벚
##굮
##웑
##핽
##숀
##솓
##샞
##쏵
##틐
##턀
##섘
##캌
##괬
##벟
##낕
##핣
##옝
##궘
##땁
##펍
##끾
##쎌
##볔
##꺜
##뚀
##옐
##헿
##읙
##텬
##쾈
##홯
##죧
##걉
##웈
##첲
##똒
##죱
##돰
##봗
##뷘
##럳
##뜁
##뉠
##똟
##걋
##퐄
##핢
##곅
##홓
##뚸
##췽
##쎀
##뢈
##됵
##븜
##왹
##젅
##틑
##꿁
##닪
##묫
##셸
##밗
##긿
##꿴
##븀
##첳
##딋
##솬
##텆
##꺀
##븬
##뵐
##졨
##홐
##훓
##됗
##젘
##앐
##쪌
##궷
##쪗
##좄
##몱
##덷
##띱
##엫
##싦
##꺵
##쁑
##싮
##졈
##깰
##떙
##뇻
##뭈
##찎
##쫔
##꺊
##휵
##닡
##뚯
##쐨
##췰
##븝
##폑
##걲
##힏
##싐
##뜷
##텩
##퉥
##빫
##븉
##겦
##쓥
##잛
##횝
##뫁
##둊
##몄
##궍
##읫
##뭌
##닸
##륍
##슫
##듧
##뉭
##똴
##잍
##갆
##눃
##젛
##싳
##뚣
##좦
##뼤
##벛
##댠
##뱈
##킝
##갲
##뀝
##쎡
##얗
##삱
##괏
##꺅
##웆
##뢍
##걹
##왛
##휜
##쉉
##꽐
##몿
##췅
##쯰
##얖
##볽
##삷
##낒
##훻
##ㅝ
##훕
##챨
##괍
##팛
##빸
##쏩
##뫽
##좢
##챃
##촙
##뗑
##죰
##횻
##젙
##쟛
##찯
##갊
##깦
##킺
##뗳
##냤
##빆
##뻿
##빘
##띌
##쑌
##옻
##먁
##퇄
##잙
##댤
##닟
##뚠
##꽹
##닰
##겱
##얭
##즴
##젬
##핶
##첝
##곯
##낃
##쇙
##셎
##맃
##삾
##껒
##뼐
##웛
##앸
##숯
##솻
##졶
##흨
##갂
##깩
##펩
##읈
##뇰
##욹
##잋
##쉄
##죹
##툻
##엧
##띰
##썁
##겇
##땸
##둗
##먾
##먽
##냡
##푱
##곂
##빹
##쯥
##놂
##눳
##흣
##몡
##늟
##읖
##섻
##릊
##띃
##쵝
##밇
##둴
##렏
##섓
##엃
##퐝
##뫕
##굑
##튱
##쟹
##갅
##쩠
##줕
##꼉
##왴
##덬
##쉡
##끛
##줐
##뮥
##붔
##븩
##캇
##햟
##됒
##셁
##뭨
##풜
##곬
##엗
##홬
##쪔
##겥
##겊
##숏
##튓
##뀟
##햛
##뻴
##쟞
##훑
##옯
##씺
##춫
##쩄
##쳫
##틜
##콬
##랕
##밚
##큑
##퀙
##퐉
##솧
##놎
##셬
##젗
##뫈
##뤂
##쵀
##먆
##뷀
##윸
##땽
##츳
##웝
##텰
##롁
##쎳
##뒺
##웋
##슭
##쑝
##낧
##솦
##쳈
##뿕
##굣
##뿝
##턕
##웒
##곃
##딍
##쉓
##뗗
##쓈
##뵝
##뙇
##쎕
##탙
##쭀
##읨
##딷
##춉
##췐
##뺭
##끘
##칝
##켷
##뙷
##뙛
##틁
##꾺
##뺼
##꿃
##빝
##렪
##꿐
##붱
##쎤
##팧
##뉍
##엳
##돴
##짲
##혖
##텟
##껗
##볻
##붹
##쫴
##얾
##핲
##싲
##퀭
##휑
##뗠
##밓
##젿
##폠
##퓡
##젲
##꺌
##붠
##볒
##옪
##큉
##튑
##녴
##킸
##컈
##눚
##뻰
##퉸
##붊
##엒
##냊
##랅
##긓
##놬
##뮹
##쫠
##벘
##좜
##뇠
##뻇
##픠
##떯
##죔
##뼜
##꾿
##낗
##첞
##눨
##캆
##낲
##꼤
##뽱
##뀰
##녿
##벹
##갣
##뷜
##띔
##젉
##싿
##륩
##솄
##좠
##솩
##씉
##뻄
##읇
##멏
##컁
##뤔
##됮
##춌
##빬
##쐴
##짂
##뽖
##졲
##칑
##씮
##댝
##줳
##풑
##챼
##껵
##짥
##쌥
##괙
##됻
##쌜
##뫙
##녅
##쎟
##먖
##뮙
##핪
##싓
##콫
##뮛
##앧
##쓋
##돐
##촴
##셲
##뎊
##갋
##ㄳ
##둟
##볃
##횄
##죨
##벎
##벝
##캪
##줰
##쩃
##쐰
##쬑
##꺆
##볜
##옅
##괵
##댚
##튠
##쬠
##쨎
##잂
##혚
##칄
##벰
##겣
##볠
##뒵
##췁
##닲
##븁
##랂
##귾
##찱
##쓩
##뵁
##쏀
##꺙
##촏
##쯨
##픞
##믽
##홨
##홣
##씊
##긂
##붋
##쒑
##닶
##쭸
##뜿
##늇
##빯
##큨
##짫
##솏
##톻
##튤
##씋
##쭛
##잒
##뼌
##뗬
##덭
##팕
##볹
##듩
##폥
##몴
##벏
##똫
##혙
##밙
##맢
##뇯
##갢
##돡
##솃
##쳧
##쎾
##쐒
##쀄
##풔
##젏
##죷
##굡
##릫
##귕
##퉌
##큔
##묀
##앃
##붅
##쟆
##넎
##햿
##벸
##뮜
##욿
##쾍
##짌
##헑
##쫐
##쇣
##췩
##맫
##픅
##씷
##솈
##놥
##댇
##딝
##홛
##띟
##궅
##헕
##꿥
##썍
##뗙
##걌
##붂
##톹
##꿱
##혠
##섦
##끨
##쿱
##쉾
##얋
##쀍
##넞
##퓽
##쮠
##잚
##뺸
##큥
##혱
##줃
##깧
##찷
##훝
##쒔
##첟
##륾
##댗
##씦
##씳
##눍
##먺
##맽
##뚬
##쮹
##컽
##뱸
##쐽
##즬
##쨥
##웽
##숔
##뇩
##뽓
##챰
##짞
##뼁
##읪
##퓬
##캑
##밫
##컼
##춈
##찤
##녂
##떦
##좽
##껃
##훽
##뱆
##븃
##줸
##뀡
##괂
##윔
##갞
##쏚
##긤
##웗
##풐
##읾
##얨
##앁
##몣
##뢉
##쒰
##싧
##슿
##썡
##럅
##뚁
##쭞
##릠
##옉
##솹
##좂
##핦
##뢱
##챱
##뢌
##킫
##톔
##쟘
##떪
##퉽
##탇
##듹
##쯫
##쬼
##푝
##묽
##꾕
##볎
##쓒
##낛
##뙜
##놏
##쵯
##휨
##닩
##쭹
##뺫
##깕
##픵
##먱
##쨘
##뺒
##륄
##헼
##쩦
##좊
##놑
##좬
##쇟
##췍
##폅
##춠
##섂
##썎
##뇀
##뭅
##뱽
##죻
##꼳
##뻩
##늴
##잢
##뒙
##퉛
##횩
##큲
##흽
##똗
##꿂
##썀
##휄
##샕
##딮
##읂
##놜
##횤
##뒥
##낝
##붌
##뎽
##윜
##뵘
##덞
##붃
##뵵
##욵
##얿
##먗
##뜼
##됔
##웉
##휏
##뗔
##멫
##얊
##촥
##믇
##뫘
##맔
##엷
##짉
##싾
##넏
##첢
##쬿
##몊
##짮
##쵱
##봟
##꾁
##귯
##훵
##뙥
##쩖
##뀩
##훱
##먛
##윶
##넑
##엯
##폣
##횰
##넊
##쉤
##줓
##펰
##끜
##졑
##풓
##죚
##멥
##햰
##똨
##맻
##웸
##젣
##칡
##껕
##퇵
##촵
##뛍
##굫
##걘
##붍
##엵
##볖
##찓
##갏
##뵬
##썯
##뽠
##훜
##쮭
##훳
##뗍
##쁭
##젚
##욲
##얉
##졏
##첯
##묷
##찦
##붚
##즂
##햩
##쥿
##훡
##빏
##뎝
##쓀
##퉵
##뇟
##쪚
##졻
##쒭
##볾
##꼻
##쇵
##꽊
##꿕
##뒞
##묏
##뾀
##롈
##훟
##춪
##쮝
##쩬
##뛧
##늚
##퓹
##쯉
##갶
##끟
##쾐
##쁙
##흴
##휫
##쭥
##훯
##홑
##줼
##웻
##떫
##텊
##쵹
##뾱
##꺕
##쀅
##뇝
##퐛
##쵤
##몉
##쁄
##쭟
##뭫
##넔
##혤
##옠
##흝
##껶
##덋
##틅
##묾
##뇁
##뒛
##뻙
##삺
##놁
##뜱
##뭰
##뢐
##줯
##첰
##띻
##뻈
##땧
##췟
##왯
##쟬
##풱
##훚
##촰
##딞
##쌑
##싻
##꽦
##햙
##얫
##둋
##으로
##하는
##들이
##니다
##하고
ㅋㅋ
##에서
##는데
국민
##다고
아니
##이다
##들은
사람
##라고
문재
나라
##는거
##으면
우리
##하면
##해서
이런
생각
진짜
일본
##이라
문재인
##다는
하는
##통령
##하지
##까지
중국
##세요
##니까
지금
##나라
##하게
##렇게
##이나
##리고
##한다
##대로
한국
##하다
민주
##ㅋㅋ
대통령
그냥
##지만
대한
##인데
##에게
##해라
##네요
##해야
정치
조국
ㅋㅋㅋ
정부
북한
##한테
인간
##구나
##민국
있는
##면서
##레기
이제
##이고
##같은
##부터
##00
문제
하고
대한민국
그래
##보다
아닌
정신
##습니다
##는게
##라도
정말
모르
민주당
##들어
##사람
그런
무슨
정권
##합니다
##야지
##려고
그러
같은
##주의
##이지
너무
검찰
##들아
미국
##인가
##적으로
##으니
세금
##입니다
##이냐
##겠다
지지
##소리
하나
기사
저런
댓글
##로나
##어서
자기
##처럼
경제
##리는
##것도
##들의
하지
아무
코로나
##이가
없는
##하네
문재앙
##적인
##자가
##들을
##이네
이게
##지고
얼마
##는지
우리나라
##인이
국가
##겠지
##들도
제발
##라는
그리고
##아서
쓰레기
안되
어떻
그렇게
##말고
어디
##문에
##이라고
좌파
있다
잘못
들어
당신
한다
아직
누가
없다
##잖아
다른
어떻게
##지도
##가리
##하냐
아니라
나오
##정부
##이야
##정권
##갱이
그럼
##의원
##놓고
##해도
##인지
##다가
##자들
##없는
많이
##하나
이렇게
##어야
국회
그만
조선
##한당
자유
사회
##가는
##한거
##시다
##하는거
##더니
이상
##있는
언론
얼마나
##지는
소리
##시키
##에는
자한당
##근혜
이번
##어요
국민들
##거리
ㅉㅉ
피해
##이는
서울
공산
사람이
##을까
##기는
살아
##어도
##국민
빨갱이
대깨
보고
##보고
세상
##는다
제대로
수사
아니고
거짓
##돼지
##스크
##된다
수준
##천지
##자는
해야
##하는데
필요
##봐라
나라가
ㅎㅎ
##었다
정의
친일
##에도
만들
##겠네
아이
##가서
보수
10
모든
##이면
##주고
##는건
##나요
사실
이미
이해
만들어
##정도
박근혜
내가
모두
##구만
다시
선거
말고
계속
하면
근데
여기
아닌가
니들
미친
누구
니가
대깨문
돌아
선동
20
##마라
##정은
이건
좋은
마스크
##했다
##와대
##가지
조사
좋아
##하기
아직도
##리가
##없이
해라
##아야
책임
##이라도
신천지
사람들
보면
##하라
말이
##러운
이유
언제
##시켜
아주
##다니
##하니
한번
탄핵
역시
##같이
한심
개돼지
여자
범죄
많은
청와대
##하시
##아니
당연
##만원
그래서
##이랑
그게
알고
경찰
##텐데
##하자
##하면서
##기를
조작
##어나
자식
##거다
##어라
##없다
##것이
부모
##기에
무능
##먹고
##인들
국민이
바로
##보면
##새끼
##던데
그렇
100
이러
결국
##사가
##한다고
국민의
국회의원
##이니
##수가
절대
뭐가
##하는게
니들이
재앙
##무원
##해주
좌빨
국민을
국민들이
##아라
##더라
##성이
##것들
빨리
없어
아베
가족
##치고
##거지
##지않
##당이
##와서
때문에
더불
사기
위해
완전
##중에
자신
##는거지
아니다
새끼
기업
권력
어떤
떨어
##겠냐
요즘
장관
반대
##대체
##되는
의사
세계
정도
있는데
같이
인정
나라를
##이란
정책
##기가
대구
##동안
##시민
##지말고
##거나
기자
너희
##고있
상황
도대체
먼저
지들
전라도
공무원
가짜
##려라
이거
##전에
김정은
##이상
##주는
##시고
이용
없고
##체가
적폐
##치는
독재
##이라는
처벌
합니다
##사는
다음
마음
거짓말
##스럽
있었
보내
전부
사과
사람들이
토착
##기업
받아
##장이
시작
##때문에
##ㅋㅋㅋ
##동산
아님
##놈들
여론
##조건
##다면
##건데
구속
##대통령
아니면
##일보
##시간
보여
##장관
그래도
세월
##하여
지원
##지가
어느
윤석
이젠
부동산
검사
시키
##자리
총선
##라이
현실
무조건
정상
어쩌
##기도
대단
본인
##스로
어찌
걱정
##하세요
##되면
##것이다
교회
못한
##들에게
얘기
##려는
##가고
더불어
그걸
##하며
##건가
사고
응원
시간
얼굴
##주세요
앞으로
남자
그리
30
되는
황교
##해야지
하는데
외국
집단
##리지
힘들
머리
##왜구
세월호
있을
##수있
해도
행동
엄청
##리면
모르는
내려
문죄
안보
##당은
나도
뉴스
##밖에
##했는데
하루
삼성
가능
지지율
##려면
##한데
지역
사건
것이
나쁜
기레기
##운동
서민
아무리
개인
##보니
##개혁
다니
니네
가장
##경원
이재
중요
시민
하는거
##머니
##국가
##생각
ㅠㅠ
난리
법무
아니냐
가지고
##것들이
전세
것이다
##뉴스
대통령이
##남불
저렇게
##도록
ㅡㅡ
일반
gt
먹고
나경원
##건지
##로남불
대가리
사이
##려서
##하겠
##민주
##라지
##대가
달창
##끼리
역사
##기고
18
##대는
##되고
진정
##조사
##력이
정부가
입국
##인간
##았다
##들만
해서
##었는데
살인
방송
최고
##아먹
##받고
##아요
토착왜구
오늘
같다
미래
##하던
##드는
만든
##르고
##럼프
부정
증거
없이
문재인이
우리가
50
##자들이
부끄
따라
##수도
불법
이나라
지랄
##대가리
##자를
##거야
이야
이래
집값
나는
윤석열
촛불
무식
##간다
##시장
공수
##한게
##나오
된다
##명이
##나서
##내고
해결
트럼프
##미애
관심
더러운
##난다
##에서는
양심
나온
가서
같은데
외교
##들고
##는거야
맞는
##기사
있나
##을때
사는
##드시
##라면
전쟁
##마다
가만
있네
##심히
애들
##리를
공수처
화이
불쌍
있으면
##일이
공개
의료
공정
인권
지켜
개소리
일베
못하는
내로남불
여성
##봐야
교육
종교
##대한
그런데
진보
##이러
안되는
개혁
정신차
확실
제일
넘어
스스로
##인은
거지
월급
사람은
뻔뻔
##지마라
##지면
위한
조용
##이들
추미애
##프로
없애
팩트
##대표
말을
진실
사형
##것은
멍청
친일파
황교안
있고
##원이
##란다
##스트
##할때
바보
열심히
시켜
않는
결과
확진
어디서
##차피
감사
공부
##라서
당장
##선거
반성
인생
솔직
##것을
해외
다들
이름
문제가
국민들은
문빠
##보네
지나
어차피
그때
##마디
##이버
##던가
여러
무시
##파트
매국
있어
시장
중국인
안타
##해보
##식이
돼지
##있다
백신
밖에
알바
##명박
##영업
##려야
##국에
군대
##진다
##아치
##했다고
##으면서
밝혀
않고
너네
평생
학교
잡아
민주주의
##부분
인간이
##문제
공산당
정신병
말도
##경제
##아닌
##정신
않은
##조작
투표
거기
처음
무서
##라리
것도
반드시
##만큼
조금
##는거다
##겠지만
해야지
하네
##린다
일본이
##워서
우한
##가요
보다
##적이
이명박
##단체
치료
##상이
##할수
못하고
노무
대학
##금지
않았
대체
공산주의
하면서
궁금
##거라
##들과
간첩
##져라
##철수
운동
있으니
안하고
하시
그러니
##겁니다
##ㅡㅡ
##고싶
올라
나가
##지지
안된다
것은
대표
뭐냐
짱깨
당연히
있냐
인간들
검찰개혁
유시민
어린
##져야
차라리
기본
사퇴
##이러스
의원
##에서도
나이
자살
능력
마라
##시대
##기로
보니
자영업
##나는
반일
과거
어려
원래
서로
네이버
모습
사진
알아
##같다
봐라
##랍니다
받고
법무부
##수준
##지요
혼자
생각이
##구요
##은거
아는
모르고
##다는게
정치인
방역
솔직히
##거든
노무현
조국이
이기
평화
장난
##으니까
사랑
##하라고
판단
니들은
판사
##바리
조선족
사람들은
자꾸
비교
##해요
국내
정은
아들
지키
사법
지들이
결혼
보는
##자나
##없고
정부는
진심
##지를
##보자
하지만
40
틀딱
##는거냐
##세먼
##히려
한심한
지가
##르는
학생
젊은
사라
##식으로
사회주의
국민은
##어야지
문죄인
##까요
놈들
##이었
임명
회사
##인다
감염
싫어
야당
##호사
일부
오히려
화이팅
맨날
그럴
있지
피해자
##말이
##하다고
##가지고
##놈이
##총장
엄마
이유가
##인거
가짜뉴스
무엇
없네
하여
하냐
싶다
##나면
##가면
자격
##조선
그거
찾아
##이라면
##우고
##시키고
##지마
전문
한마디
거의
때문
감옥
좋겠다
아파트
항상
나서
기회
위해서
##들한테
비판
조선일보
문재인은
하는게
개판
집회
##했던
선택
그나
그동안
현재
있습니다
이제는
저러
나와
고생
했는데
##님이
국정
있다고
다르
##야한다
##로운
지금은
양아치
##시길
##지원
알았
너는
도와
##집단
존재
대부분
투기
되어
##도가
##성을
관련
##국이
한다고
##에요
종북
아냐
일이
문통
##겠다고
헛소리
##먹는
##하는건
##자고
##군요
자리
병원
그것도
불매
박원
최소
나왔
미세먼
나올
신경
##정희
한국당
기억
없는데
안철수
##에선
##나고
##한다는
##되어
부산
그건
재산
응원합니다
가지
##가라
보이
어이
남의
주둥
정당
##들이다
##한건
##주면
돈이
일단
눈치
##더만
##수사
주변
끝까지
##상도
##범죄
분명
무섭
일본은
비리
주장
##시는
기다
가는
##던지
라고
사용
되었
자빠
##듯이
##사람이
교수
몰아
##보는
이야기
있음
##우는
##한국
##정이
##바로
##했으면
##지게
누군
내용
##아도
##0년
##하지만
전혀
세금으로
##분이
태극
물어
친구
##걸로
사망
대선
목숨
최악
##인줄
##냐고
##만이
너도
##제로
##봐도
##내는
전세계
것을
드러
직접
자체가
15
고소
바이러스
똑같은
주사
##겹다
##분들
도움
돈을
말하는
역대
그랬
나중에
수도
##하지말고
광화
이것
힘내
##을텐데
##순실
##사건
아마
박정희
방법
의심
무능한
##노총
함께
##줘야
여당
내년
위험
애국
하니
심판
아닌데
미통
고통
하늘
상관
##사일
논리
괜찮
##자로
입니다
매국노
사기꾼
안전
##하는지
이해가
기대
ㅉㅉㅉ
##세력
##여서
아닙
가만히
최저
노력
##더라도
상식
##이로
##나게
철저
독립
것들이
국개
더럽
것들
##기만
강남
##정책
악마
바뀌
##정치
기생
일을
쓰고
ㅎㅎㅎ
##거냐
심각
##든지
##주택
##하네요
##때는
기부
특히
##장을
했다
어쩔
그저
이정도
##학생
위선
바랍니다
공감
건강
##자들은
##수록
##쓰고
하다
안타깝
그러면
말로
사이비
가격
없음
알아서
하세요
부터
##사고
##시아
온갖
답답
믿고
이럴
우리는
이재명
처럼
##이라니
똑같이
##상을
대책
##돌아
노조
##습니까
##당히
사람을
물론
힘든
##세금
싶은
조용히
국제
뭔가
##지말
자랑
준비
##온다
끌어
##어버
말은
보호
이걸
주식
오래
##많은
##할까
판결
##하려고
##교육
비난
억울
에휴
##정을
##이든
연예
되고
##됩니다
최순실
##느라
더이상
받을
##해야한다
200
대해
당신이
##합시다
인터
시대
##져서
아닐
보기
##하니까
재앙이
확인
##겠나
똑같
민족
##었으면
##줘라
##가족
이익
무너
이놈
만들고
##라니
##추행
이리
애초
느그
생각하는
태극기
아니지
하자
##미향
광주
할머니
그대로
북한에
페미
##생활
쪽바리
투자
##중동
동네
아니라고
가진
의미
##인가요
##자기
##두환
##물이
##독교
##는가
인사
여행
많다
검찰이
##위해
##부대
있다는
##스럽다
과연
##수를
일제
일자리
우파
모자
법을
에라이
##사람들
##있네
##겠다는
25
##명을
##만에
본다
수준이
##겠네요
사업
##만한
윤미향
##자도
표현
##18
대변
의혹
위안
##을거
원전
지난
##어가
##을듯
미국이
전국민
##이를
이상한
벌써
박원순
전화
가라
##단다
##놈들이
전두환
아무것도
기가
##두고
모른
기술
집권
##되지
##졌네
##심이
아예
##관계
1년
사태
##잖아요
분노
미세먼지
주사파
출신
하나도
##해봐라
한국인
대기업
##할거
대응
광화문
쓰는
되지
##리네
##가가
통일
2년
##문회
##그러
들고
않는다
민주당이
운전
신고
바꿔
##했네
강력
그나마
노동
놈들이
미쳤
저지
남편
##보내
진정한
하지말고
##진국
지금까지
##선동
중국에
주고
뽑아
올려
##사회
관계
영화
##개월
조중동
##방송
지금도
##받아
잘못된
금지
여기서
바꾸
집에
깨끗
인간들이
가해
못하게
##만명
문씨
짱개
##임금
조심
거리
##려나
##가야
아프
까지
통합
##겠습니다
저게
우선
##시켜라
##한것
되면
본인이
확진자
국방
만드
성추행
웃기
지도
위안부
해주
봐도
##수는
미사일
지방
한심하다
상대
##하러
##ㅎㅎ
기생충
받는
ㅜㅜ
##으며
##겠죠
몰랐
관리
가져
때려
부족
그래야
입장
범죄자
목사
##시오
뭐라
어휴
##인의
10년
극우
##인듯
##력을
##받는
없어서
저거
빼고
##레임
##팔이
행복
없지
하는짓
생겼
문재앙이
포기
나오는
원숭
주는
이래서
##진핑
발언
두고
죽은
##공산
한테
한국은
##가락
##없어
살고
생각을
대한민국의
##인을
미안
영원
대놓고
단체
돌아가
애들이
##으려고
놈이
북한이
##그네
말씀
제정신
없었
그렇지
문정부
경험
애초에
갑자기
정확
부끄럽
##당한
민노총
##나보네
장사
##공자
시위
기준
중국이
택시
##고도
##하겠다
도둑
부탁
발전
직원
바라
민주당은
생긴
싫다
이딴
보도
짜증
옹호
##어준
진중
할수
##주도
빨갱
##머리
##따위
##민주주의
임대
재판
##잡고
##서는
들이
자국민
공공
생활
왜구
죄다
##검사
중앙
막말
수출
##가능
12
없으면
훨씬
나베
강제
##폭행
##폐렴
##인들이
대한민국을
치매
죽여
일본에
##없네
당선
미쳐
충분
똑바로
자가
##질이
##하는것
제목
물러
##시킨
안나
받았
소득
있을까
이러니
청문회
##자의
구라
##자식
##립니다
##같은데
##짓을
대한민국이
##언론
기사를
설치
아버
청원
##까봐
없다고
아가리
만드는
##댓글
##하려
꼬라지
청년
문제인
전에
있어야
무식한
##떨어
따로
##위에
유튜
##하더니
희생
##싶다
남탓
정권이
##체를
많아
않나
세상이
말아
불안
지지하는
##있고
##했냐
수십
##하신
발표
이낙
살아라
3년
돌려
##되었
##달라고
이번에
##지역
아닙니다
진중권
서울대
##있냐
##제에
혹시
시진핑
##좌파
##부모
##에만
짓거리
정은이
##지로
나라는
쪽팔
등등
고민
당신은
운영
놓고
아닌가요
있는지
집안
매일
자기가
##쓰레기
문정권
변호사
밀어
개가
유치
환경
대출
멍청한
##간에
다행
나라냐
##는구나
어렵
국민들을
언제까지
##한번
##하지마라
##먹을
희망
##일까
##그래
처리
자유한국
##학교
##당에
비슷
기독교
##장은
안된
돈벌
##했지
##화가
이런거
인민
유지
##나간
##줌마
무죄
노인
##먹은
##도를
알려
호구
##구리
##부로
##치가
들어가
##구먼
##조차
발생
쓰레기들
공매
##애들
신뢰
재난
##니깐
##ㅉㅉ
##할듯
##해주세요
60
##저리
죽을
감방
더듬
인구
저질
가슴
아깝
맞다
돈으로
##사태
이낙연
점점
##19
분열
적당히
##득권
뒤집
##광훈
개발
##이트
우리도
후보
악플
좌좀
하는지
찬성
남한
##ㅠㅠ
최저임금
선동질
##부가
##도로
##이네요
##기관
물타
##지네
ㅈㄹ
전국
있어서
없으니
한국이
##장에
입만
나라에서
이중
썩은
##있는데
수입
사람도
지옥
##좋은
##였다
받은
고맙
부르
특검
우리나라는
일어나
생각해
협박
##000
##쟁이
##오는
##치를
광고
경우
##님들
미개
##일을
##하다가
##었나
##것들은
##가를
바란다
민주화
##아닌가
못할
##독재
만약
##미터
##용이
공격
##리자
감성
전광훈
##하지않
##루킹
안가
##했고
##사람은
##사를
##말로
느낌
##본다
##트남
##대중
나오면
대통령은
법무부장관
아니야
고발
하던
꼴통
잘하고
취급
어이가
쩝쩝
저기
어려운
하나님
당시
##악한
가면
##어리
19
##리기
누굴
##으라고
불러
##집회
성공
가르
그러니까
웃긴
하기
뇌가
##보기
헌법
법이
용서
##기들
##입니까
##이도
##준표
무서운
##보수
배달
혜택
##구석
대통령님
##겠어요
답이다
이제와서
미통당
##도는
저리
대통
기득권
쉽게
요구
믿을
##진짜
예전
됩니다
마세요
벌어
하지마라
의료진
너같은
세상에
나와서
느끼
이후
소설
싸움
##년이
결정
비례
씨부
일어
##있나
##라인
정보
##주기
옛날
##공개
##돈으로
##레이
있는거
어제
##슬람
집에서
##만도
지구
##대고
의견
냄새
##지막
##일뿐
굳이
중국은
빨아
철저히
프레임
##들이나
정치를
생산
##렸다
경제가
확실히
##상에
늘어
##보다는
손해
나라의
폐지
아나
이지
폭망
##여행
둘다
대깨문들
나라에
##겠어
##놓은
##때까지
동물
정작
대해서
##러워
자신의
살기
한번도
자기들
##하길
지껄
홍준표
##재앙
##보단
하긴
##한다면
미군
그러나
##받을
##까운
없나
가정
선생
오르
뭔지
성폭행
##소득
규제
좋아하는
##mp
게임
모양
##의를
착각
##바닥
참으로
##하셨
몰라
##때문
입국금지
없습니다
##말을
국가가
개념
많은데
자유민주주의
70
힘들어
노예
##상은
이성
##이지만
생기
물고
ㅅㅂ
보인다
고마
##수수
##거면
문대통령
죄가
북괴
총장
##되서
달라
베트남
lt
소비
최소한
불매운동
##심을
않을
실패
똑똑
또라이
아무도
답이
대단한
문제는
조직
##쳐서
벌금
안돼
마찬
맞지
##권을
바람
정권의
##리게
대한민국은
##하겠지
강간
존경
없을
##반도
죄를
##출신
대신
평등
##지어
많네
갖고
방사
##졌다
한명
##아버
##우면
##화를
조국은
승리
직장
##상황
바른
부정선거
했던
왜이
##안하고
##었네
##적이고
유럽
철수
국민들의
한다는
기관
##준다
풀어
정신나간
##거고
##리냐
필요한
손혜
amp
취업
뭐라고
했으면
한국에
시원
##는것
죽어
받아야
눈물
운운
근거
임기
##때도
비싸
문가
##짜리
인터넷
밝히
마지막
다를
##없음
##보지
발악
주세요
여러분
##책임
일으
##했나
인성
무기
전염
현대
외국인
다녀
존나
##으로서
물타기
친중
빠져
삶은
정의당
##타령
보상
##워라
유튜브
역겨
##길래
##을까요
##십니다
핑계
##복을
수가
##았는데
##이기
##시켜야
##테니
기분
합시다
힘을
한달
##시절
진행
드루킹
##씨가
거다
##행위
사면
##갔다
자빠졌네
정부의
없냐
음주
갖다
보자
말만
##일은
노래
찍어
정경
##조리
도덕
대단하다
정치적
격리
아줌마
뭐하는
감싸
말아먹
인물
군사
##났다
##상으로
여자가
##비가
직업
새끼들
책임을
##것같
##했다는
##시키는
우한폐렴
##느냐
우린
크게
믿는
코로나로
도망
##나가
대처
##시에
미국은
자본
신문
생각하고
##한테는
월세
##아니냐
우습
힘내세요
기소
##빨갱이
뽑은
##필요
##운전
감정
프로
##있으면
보유
518
어른
마치
정신병자
리얼
##민주당
##쓰는
자동
##넘들
##원은
##아니고
떠나
##시면
못해
자녀
##셔서
##하다는
##영웅
취소
##속에
##분에
##그릇
교활
통계
##아지
통과
거부
##로지
라는
##그리
##시기
이것도
##들에
마약
타령
대다
##원에
봐야
##새끼들
맞아
일은
겁니다
으로
여론조사
문제다
##스러운
파업
러시아
시절
되는데
수구
##농단
##신도
정권을
##연금
##한거지
해체
##스템
올리
저도
초등
##인도
##아니라
생각은
##받은
더욱
##짓거리
실망
##으나
연구
맘대로
##있어
##땜에
짐승
최악의
가야
아빠
세금을
이루
##버리고
좋다
##었다고
이시
어리
자연
전문가
또한
나온다
주민
청소
한거
마누
##은데
뭔데
##이에
중요한
감사합니다
##여자
성범죄
##되는데
맞고
미리
눈에
나눠
##수로
##예요
이민
아웃
세력
정권은
짓을
국개의원
역겹다
영원히
물건
그지
포함
##아냐
1도
화가
##원장
통제
전체
괴롭
##었지
표창
가고
합의
예수
마찬가지
일본의
괜히
변명
명단
문화
있다면
버티
##공산당
##았네
##업자
서울시장
##다운
##놈의
##원도
대박
칭찬
쯧쯧
##대를
단순
사법부
##감정
좋다고
##교회
##내서
공급
남북
1억
##민족
오로지
자유한국당
정부에서
관광
죽음
##께서
무지
조국을
싸우
쉴드
중공
##말은
##모양
공짜
##아가
180
##지사
방사능
뭐하냐
상태
소대가리
운동권
김대중
당연한
영웅
##는다고
##금을
##치기
거기에
##르게
내고
##럽다
뇌물
ㅂㅅ
두번
##질을
##으세요
##하는구나
창피
개돼지들
안될
혈세
적극
하게
##오면
##물고
이유는
##는데도
한국의
지하
##달라
##당하고
무리
##잘못
##하는거지
##참에
하라고
그런거
팔아
부패
##사실
20대
나타
기도
##누리
##으려
##감이
11
부모가
자영업자
나쁘
대법
몇년
늙은
정상적인
외치
마이
##검찰
##로는
국민에게
해봐라
##청산
챙겨
간다
##이자
완전히
별로
##스럽게
##빠진
##법을
문재인과
##겠니
##디어
와서
만들어서
생명
예배
불편
##무시
##놈은
경쟁
등신
효과
미치
설명
되는거
##든가
##이들이
천벌
이다
다시는
##비리
300
만나
시험
##놈들은
##것만
##네들
부끄러운
##하고는
순간
##되냐
##주지
하여간
이만
나불
##통수
죽창
##했는지
##ㅜㅜ
자존
##활동
##드립니다
전기
봅니다
선진국
우리의
##했을
##친다
##와라
큰일
초딩
나머
구분
##해놓고
김일
자주
##많이
영업
##었냐
지능
##나네
벌레
홍어
##지에
함부로
불리
재미
검찰은
##줘서
축하
##세상
##관이
일본을
지급
##시요
경상도
징역
우리나라가
소름
너가
##안이
##쳐먹
않으면
유공자
##장에서
차별
합리
##이며
분들
##원에서
##림픽
있지만
##겠는데
##성은
단어
되냐
원하는
##일에
이참에
충분히
##재산
하라
동의
##사람들이
##조가
욕먹
만큼
있어요
##보험
동원
현정부
너나
휴가
이념
안하는
임영웅
움직
전형
명예
##위가
윤총장
배우
##좋아
불쌍한
##꺼다
진실을
신도
먹는
의무
##있음
일부러
##었던
살려
##원전
폭행
80
한두
##식을
아깝다
##벌레
##셔야
##하시는
##스런
윤석렬
이전
고위
공매도
##쓴다
##스가
애들은
##씨는
양반
이어
참여
잡고
혐오
배신
뭐야
거기서
추천
모르겠다
위에
홍콩
알지
하더니
결론
허위
##임을
국민들에게
##보세요
나라꼴
유승
내부
##았으면
저딴
##즈아
활동
듣고
영향
##제를
##하려는
##이죠
##일본
후손
적용
유니
좀비
아이들
##잡아
좃선
국민세금
##앞에
끌어내
없다는
보통
##꼴통
##개발
##수수색
##리나
챙기
조만
있는게
경찰이
동맹
갑질
한국에서
이분
##해봐
하는구나
모지
변호
그만해라
이라고
원숭이
최대
개나
법무장관
하지말
20년
##수의
아동
자체
모조리
스트
언론이
작년
##거리는
느껴
오른
모를
겨우
##부는
##고있다
##방에
##안에
##할것
마음이
##회사
##서야
재수
소리를
##투표
##라시
지금의
자한당은
마누라
##상태
연예인
주둥이
김종
너거
이해찬
손혜원
김어준
대화
##마트
북한은
복지
##나온다
##위기
근무
돈은
##아리
욕하는
고려
조민
새로운
산다
건물
난다
##죄로
찬양
했다고
계획
남은
##아님
줄어
이란
예산
##대에
##기나
말한
##제가
##하긴
머리가
모두가
폭력
##입국
사장
##판에
##리라
##기전에
달려
사실을
지겹다
##하지마
특혜
한일
놀아
에이
##따라
들아
아이가
90
##차별
##줄알
##쳐라
장기
속이
치고
자한당이
지지합니다
잘한다
##치면
해주세요
수백
김경
심지어
참고
목소리
애비
##위를
##단계
멀쩡
언젠
어째
보이는
##이유
정도로
압수수색
##되는거
##대한민국
팔아먹
##저기
##에게는
틀린
권력을
##는건가
김정은이
##더냐
##곳에
5년
문슬람
높은
꺼져라
##석이
가지가지
한반도
##하거나
그만큼
엄청난
안해
##BS
그렇다고
일하는
##교수
##레스
추종
##지나
먹을
세뇌
된다고
##님은
뒤집어
시급
하여튼
##하시고
대통령을
같아
##제도
##져도
피해를
사죄
##아이
아침
비정
설마
##그만
##이구나
주제에
좌파들
당하고
가득
##후보
절대로
왜곡
타고
이런게
안다
ㄷㄷ
##의가
코스
##세를
음식
##국의
아이고
대중
공약
대변인
입으로
평소
검색
이만희
동안
그렇고
##리도
생각하면
성장
데려
당당
##선을
이혼
##버리
힘들게
무섭다
##bs
저는
##10
반도
##인들은
##봐요
##했음
이용해
500
임금
한국을
정책을
민생
바닥
사회적
갔다
실제
시끄
하려고
##건가요
해당
옳은
하지마
##만들
북으로
##주가
그것
후회
단식
일본과
안되고
적어도
조만간
중에
하야
##자인
##상공
떳떳
##음이
쓸데
봉사
##만들어
중국에서
정치인들
몰려
안맞
##원을
접종
안나오
욕을
무뇌
몰라도
증명
이정부
없어요
지시
일도
나대
##였는데
입에
##는건데
이정도면
연봉
다니는
정신차려라
올랐
##리아
가자
겁나
더듬어
##롭게
퇴출
충성
##으신
##위로
아베가
고용
##정당
##이여
담배
이정권
##마니
상황이
교통
하며
뛰어
청구
이득
고작
전교
이슈
썩어
##패스
이것이
정리
##겨서
여기저기
너의
되나
부자
김학
##만으로
유니클
이쯤
##려도
201
##계가
꺼져
##히고
맞는말
연기
##타고
대한민국에
빨갱이들
저건
아버지
추가
키우
않다
안정
##함을
보복
뿐이다
##격이
깜빵
예상
웃기는
중소
##라스
##내야
##되나
구조
않냐
##하나요
지네
##가도
##이터
##빨리
##는건지
##지원금
원칙
##신이
앉아
##사기
내놓
훌륭
경기도
말이다
##처벌
죽이고
보여주
##덩어리
##제품
걸린
잘하는
파악
이명박근혜
놀고
생각합니다
밥그릇
##하지도
##세대
너희들
놈들은
유일
유명
모른다
안달
위조
낫다
연금
민심
올해
##발전
코로나가
죽일
##법이
사상
##라마
##전쟁
재벌
내는
장애
졸라
##하다니
박영
각종
##석은
지원금
인간은
공장
##문이
##발이
##장난
##있지
문재앙은
해야한다
이재용
##봤자
유리
있어도
쳐먹
한게
##느니
잘못을
잘살
##하죠
##의식
인증
오직
아닌지
하니까
하나같이
그러게
##럽게
##지키
작은
환자
##해주고
##지못
거래
죽어나
시간이
데모
##리로
투기꾼
시민단체
확산
정유
버스
감히
##해지
정신이
특별
인간들은
##리는데
폭등
##에겐
같습니다
경기
##때마다
4년
##해줄
남아
알면서
김일성
위협
앞에서
뜯어
공천
생각한다
기록
알게
##시나
비싼
##20
신기
##동네
뻔뻔한
민간
##이라서
##오고
##할수있
정치적으로
문재인의
좌빨들
중도
##르기
매우
##당을
##것처럼
박그네
현정권
못된
##아들
##장으로
박근혜가
시키고
문재인을
##을수
패거리
##었고
안됨
##경이
떠들
두려
1000
제2
있게
##사람들은
이런데
경제는
거야
주면
지적
지지율이
신상
##정보
은행
##시설
기사가
##처리
제외
##한가
박살
##세가
망해
##여야
같아요
안하면
##자체
우려
##시죠
한미
##노조
데리고
죽이
많아서
##위한
제가
너무나
##하겠네
##래도
분이
꼰대
태양
##부장관
당신들
##했으니
##가며
##고있네
2차
살아야
민폐
흔들
##점이
주택
##르면
정의로운
그만하고
##국으로
##비스
제품
##공화
가게
하는건
남자가
해놓고
말라
오지
있나요
진작
안들
살다
건설
가치
막아
부담
안됩니다
다가
##한척
것들은
##30
##권력
티비
##이니까
보험
##경찰
반미
자신이
유니클로
마시고
다른나라
##당의
건드
정경심
버리고
주인
##래기
##과는
남녀
##르스
##관련
군인
돈도
약속
가즈아
##리다
통해
최고의
하셨
박영선
##망신
1위
##일도
어쩔수
보면서
##성애
##함이
인도
공평
업무
도로
때문이다
중국몽
가난
##했어
##사업
만세
자위
수많은
죄인
모르나
무시하고
문제지
사전
##병원
##대의
할말
힘이
남을
##한지
추진
##대도
어떻게든
현금
개돼지로
##됐다
이라
행사
##시킬
음주운전
이승
##단이
##가네
되겠네
참나
계약
추방
싹다
##었음
##바른
할까
올림픽
##할게
##알바
베네
클럽
시스템
실수
##만을
##으론
##시켰
산업
##대강
총선에서
##가자
앞에
##정도로
도움이
좋아요
이번엔
못한다
여론조작
시국에
##통합
정답
자본주의
상대로
##도소
인해
ㅅㄲ
##군이
한남
천안
고집
반박
개미
##석희
달고
##히는
오죽
이래도
##었다면
시청
일본으로
##내라
장악
여자들
##바라
##워야
##른다
##장도
인재
##었어
불가능
논문
##없으면
##전히
떨어지
##거임
180석
이겨
총리
악질
질문
끝나
##자체가
##버렸
하는것
##있게
조폭
##기지
출산
살았
국정농단
기자가
##재판
가해자
눈이
방해
중국의
엉망
자격이
오늘도
달창들
세상을
떠들어
실력
##제한
ㅇㅇ
##할려고
위반
간신
탈원전
##하에
인상
청산
##때가
이사람
더한
집어
##으라
##간첩
당신의
목적
##하시길
북한으로
##시지
편가
##기자
부들
##도안
자식들
##리들
##고싶다
트럼프가
추잡
한마디로
##개가
경제를
##쪽으로
세금이
끼리
보네
##일세
황교활
##것다
김정
14
남성
##아는
##다는걸
머저리
차단
근본
국산
##방역
##50
할줄
들은
##내려
##후에
행정
개입
##구멍
서민들
##줘도
##하든
거냐
교사
공직
##기면
검찰총장
##되어야
##부를
##답게
개뿔
깡패
##율이
구역
##대응
과학
역할
##매매
##때부터
관종
있구나
21
##여라
신천
##비를
손가락
16
##치한
##였으면
##신문
식민
언급
##합니까
김학의
##인드
누구나
##대상
떠나서
지지자
개학
소상공
끌고
욕심
홍보
##어주
##좌빨
##엘라
싶어
지금이
고등
17
##리스트
##새키
안쓰
상승
아닐까
자동차
##날이
##반대
방탄
지들은
기사는
아닌듯
미개한
불쌍하다
보이지
집행
##프레
삼성이
친북
이미지
##안을
늘어나
폐기
##라라
##일베
역대급
##다는건
##치지
하고싶
금융
망할
##권이
그것이
##는거임
유치원
부분
뭐니
##으로는
조롱
때는
조장
##로서
부추
##생이
시행
제한
스트레스
30년
##버려
어지
넘들
##되니
##다시
검증
논란
진심으로
보지
##버린
##위원
##준다고
미국의
식당
덕분에
시킨
파렴
화장
찌질
리얼미터
많고
맙시다
##구니
명복을
##리세요
##해봐야
하네요
어울
성과
것입니다
안좋
자료
구매
##애들이
징징
##리에
##in
##박이
판매
써라
애가
도시
##잡이
염병
정치에
이니
탈북
출마
##업체
행태
지들끼리
죽어라
수치
이사
맘에
있어라
알아야
전염병
##없는데
국가의
궁금하다
해보
영상
적폐청산
##님의
##가는데
불과
국가를
어떠
같네요
또는
에서
비서
나오지
보세요
처음부터
강화
나랏
우습게
열받
비상
이웃
##bc
거품
##충들
##끼들
특징
##국민이
뒤에
##랜드
대만
전형적인
생각도
##은게
##싸움
ㅈㄴ
##인으로
국익
죄송
##가게
하다가
계산
평가
조작질
비행
##하도록
빕니다
노릇
##마냥
못차
오만
경북
보소
처먹
##빼고
지하철
온라인
대한민국에서
##중에도
##모르
##비로
일당
##싫다
##구로
##데로
선전
재인
##남아
지령
##하던데
자존심
안타깝다
할일
하겠지
##아니다
##부들
##피해
안한다
##하하
##년도
##결과
털어
##다리
실제로
##인게
보수가
못살
애플
##나와
니들도
참석
##탄핵
없어져야
태어나
##비는
같음
애미
중소기업
아래
아들이
테러
이런걸
##잔아
##에다
역겨운
유승민
ㄹㅇ
북한과
말자
코로나19
10억
미래가
##나라가
바라는
##마리
이하
##하는거야
##인척
지금이라도
##청원
메르스
대충
상처
##성장
##주민
##다니는
##났네
##년은
##부지
뿌리
##실이
핵심
어쩌고
소신
전교조
문닫
인데
반도체
##았나
죽어도
있던
##인사
불구
뒤에서
네가
##이스
못하면
독재자
시켜라
퍼트
##규직
문죄앙
비핵
둘이
능력이
그들이
부모님
##해주는
##하지말
언제부터
그딴
어디로
교도소
##수있는
모든게
##마저
##계를
##겠습니까
멍멍
세금은
지식
집을
인터뷰
소속
반대로
##십시요
##러움
앞뒤
환장
##제동
학폭
나서서
인간아
니네가
짜파
국민연금
##감을
어린이
##맞고
##는거고
북한의
##가다
##들이네
그러냐
해명
##통이
위로
수술
##재인
5천
##보도
##시네
실험
##양반
사드
올리고
손석희
필요하다
내세
##하는거냐
##소미
개같은
욕하고
##못하는
찌라시
마련
##의사
대형
민식이
당신들이
미국에
실업
한나라
40대
기존
같네
##된다고
거짓말을
##기다
##대변
배운
자유당
대상
13
국가에서
힘들다
좋은데
것으로
수사를
##집에
할수있
이순
##스타
##거라고
##걸고
##저씨
##격리
여자는
존중
포장
망하게
##국을
##자금
매번
##겠군
너희들이
##했습니다
다만
집중
##위는
전략
##인건
서울시
강요
수천
사실이
갈수록
끔찍
뭐지
않습니다
끌려
##가면서
##리는게
##정부가
조금만
드라마
망신
비례대표
##거같
어케
그러고
모여
##으러
작작
정권에
뭐하나
재앙아
절반
##있다고
##어진
혼란
한걸
폐쇄
아무런
모아
되어야
##선이
##세로
##하려면
##시간에
일이다
경영
나아
##가나
##을것
저능
차기
정부를
##취급
##혀서
놀러
폭동
할배
천박
다주택
비용
검찰을
않아
##안되는
안되지
지소미
##소년
##구가
소중
##나니
쏟아
##곳이
##봅니다
전라
니는
태어
##좀해라
##화자
1인
버닝
##하더라
##분열
기사에
견찰
했지
##너무
대우
##정권이
입학
우리나라에
수익
제주도
##0년대
보낸
##하노
이를
족속
소송
##다른
올린
아니지만
사람들도
통합당
##였네
내일
##보호
##둬라
독일
##있으니
뭐든
않을까
그네
##만의
마땅
입맛
망가
##할지
요즘은
##코로나
수고
상식적으로
##경영
##물에
대가리가
##시작
##답다
영국
모르냐
사람의
스타
정의를
결국은
갈아
##처먹
그들의
##매국
##on
싸이
의도
같냐
짜고
안되면
일관
##집니다
독립운동
중앙일보
왕따
중국과
##리니
싫으면
된다는
인지
했냐
추경
분들이
4월
##한거다
이길
안하냐
아는데
##만하고
##보이
##점을
##지기
여태
##모습
개그
##물을
국토
하겠다
##센터
##법으로
##되게
건데
##BC
단속
##없지
들여
빨간
김제동
##통일
이런식으로
사라지
##했지만
##분들이
##지않고
그정도
필요가
##고생
##직원
카드
고향
##벌이
파면
##저히
한사람
##인간들
했는지
##만하면
##말에
바쁘
기업이
한가
악의
현실을
2주
개인의
##관리
이시국에
##못한
한겨
##리즘
##겠지요
알았다
바퀴
##시마
그러면서
동참
글을
허구
울산
정도면
시켰
##화자찬
줘야
##적폐
그렇다
몇십
살면
##보소
남이
앞장
오세
##을거다
##치네
수도권
대북
김치
사유
저걸
##그런
싫은
##폭탄
저지른
끝이
감시
선수
1등
보니까
시키는
특정
##주의자
호남
찍소리
들어오
##년에
##사에
죽인
##못하고
반복
베네수
##마음
##긋지
나간
##하라는
부디
개독
동성애
택배
협조
몰고
최근
명분
##없다고
30대
증거가
말이야
연장
애기
꼼수
##바뀌
감옥에
살아있는
북한을
예전에
이넘
##당과
##하자고
##줄이
발광
##명은
합법
##하겠냐
##추고
장학
##미디
말인가
날이
##한테도
받아서
가족이
누군가
##었는지
자화자찬
누구를
##적이다
몰래
##차가
##거는
알아라
맞네
나오고
강제로
쓰면
##십시오
##an
##한걸
역사를
싶으면
태양광
##이래
찍은
저정도
없네요
걸려
인간의
##성에
검찰의
행동을
##들이지
반대하는
분명히
파괴
##사랑
어마
집구석
##미가
삭발
신천지가
웃고
죄값
기어
대비
문재인대통령
##쳐먹고
정부에
김경수
이기적인
세대
게다가
소리하고
##겠구나
##정의
해산
다름
고유
라도
머리에
밝혀라
뭐하러
##받아야
##용으로
나머지
##살이
공산화
속보
##정에
가능한
주변에
박탈
이새끼
야이
지는
##쳐야
##답니다
얻어
##투기
##갑니다
저것들
##자에
거리두
##긴다
이언
##번째
유학
자식이
나가서
말라고
##서를
압박
애를
일상
조선시대
살게
##네ㅋㅋ
만만
우덜
법적
##리는거
지나가는
##영상
##자에게
애쓴다
않게
더럽게
건가
말로만
날뛰
근로
##수석
##야말로
양보
##겠는가
가관
언론에
##id
하던데
##드만
의사가
이단
진단
명령
죽는
지역구
##성도
어서
착한
건지
투명
다같이
##들이랑
이것들은
##알고
읽어
당사
##보다도
99
저런게
좋았
##중이
사람들을
몇명
마인드
면상
말하고
##지다
##서도
위기
구역질
갈등
##거래
인천
구린
양심이
동양
전파
가까
영어
##진이
받아라
잔인
그쪽
제재
무능력
장모
생색
감당
학대
##회에
##진당
피의
##해야할
오세훈
민정
##기술
한참
##행동
어딜
걸리면
요새
##줘야지
##선수
KBS
절라도
서초
웃긴다
##폭력
무료
##이라는게
떨어진
의대
##나도
좌우
버닝썬
차려라
감성팔이
부부
##하구
할말이
##거품
##인것
결과가
##들여
목표
##시켜서
말할
##내가
돌대가리
##의로
##전문
성매매
마녀
대권
##겨라
모르겠
하수
미래를
안그래
짜파구리
##먼저
여야
심각한
나무
퍼주
##하는거다
안할
그러다
##기간
##듣고
적화
커녕
##라며
블랙
살면서
새키
돈만
타이
하려
하는짓이
##아주
##끼고
##얘기
자국
전수
댓글이
##지도않
이쯤되면
갈라
##었을
##지니
##쳐도
모여서
넘게
재난지원금
##지마세요
##사도
##없어서
우리국민
해먹
제2의
나라도
아픈
##무리
##사로
하늘을
더럽고
새벽
줘라
저래
종식
대통령도
인기
당연한거
소리가
진영
##여도
토론
암튼
##했다면
당한
##십니까
강력한
집합
##제는
노답
유투
##격을
신청
헬조선
##징역
##그램
무엇을
닥치고
개선
맞춰
정부와
##님을
보장
인가
정인이
어느정도
##청장
비핵화
경고
24
진상
생각좀
##다는데
그놈의
심상
전정권
공포
놀랍
조센
4대강
도와주
공산국가
##인걸
##국은
베네수엘라
한데
언제나
하는거지
이따위
##므로
맞게
낭비
순수
댓글을
제도
##자유
반응
길거리
##만원씩
왜이리
##서서
##적은
것이고
##북한
놈은
아이를
큰소리
댓글들
##시가
의해
중국을
##운데
##마스크
상상
명백
해석
후진국
##보복
말하면
걸고
의식
새누리
공작
자유를
##크로
##어놓고
##자연
##능력
걸레
피해자가
문제를
무역
할때
##가냐
끝났
넘쳐
##르신
더불당
##법은
##꼬라지
##하겠다고
망한다
##받았
역겹
나라로
##수호
자유대한민국
입고
국민과
간호사
밑에
나만
청와대가
할것
##구라
없애고
##긋지긋
이루어
오지게
##로만
##정부는
상황에
무서워
보고도
인종
문어
##내면
코미디
이유로
비열
##으셨
수꼴
박사
아부
##종석
법원
대국민
동남아
##자들의
좌파들은
비겁
##올라
드디어
##이구만
엄벌
##걱정
억지
미국과
##얼굴
면허
불만
올바른
표창장
##유공자
아닙니까
##바이러스
훠훠
일베충
어느나라
전자
기름
나라다
##말도
개무시
권력에
국짐
고맙다
법치
여전히
코스프레
있었는데
중립
달라고
당대표
##마나
우리나라도
##률이
없구나
보내고
그들은
수령
##총선
##자다
##해야함
막고
못하면서
좌표
비슷한
##리카
법은
##마자
않았다
방향
이익을
없애라
대갈
입을
있었다
##ns
받으면
##자와
##앞에서
똥꼬
어디에
먹고살
김현
##행을
국민의힘
##어죽
##이런
##25
모습이
끝날
아이들이
해봐
여가
말장난
##놔라
##이란다
없었다
배려
이나라가
##이라며
붙어
잘해
것처럼
어딨
박수
##걸까
연합
아닥
##이팅
왜냐
법안
삭제
상황에서
##써라
기초
모습을
자리에
##파악
현명
영혼
##을려고
아닌거
조치
말아라
자기들이
초기
신경쓰
##순간
무릎
공항
이성윤
##못해
이모양
##봤다
지긋지긋
탈탈
어떨
##아파트
프랑
걸렸
연락
들어서
##꺼야
##등등
##는거죠
안들어
##겟다
잘난
대통령의
질질
쓰지
##하잖아
매출
##이익
##드라
##틀딱
대다수
##기네
바다
##다녀
모욕
먹여
##조치
##까지는
공동
이유를
정확히
조건
##내용
공무원들
세종
기레기들
##뿐이다
마음대로
##투자
##산업
이런건
말해
옹호하는
태극기부대
매달
말에
분위기
와이
이러다
장관이
##적을
이라는
##버려라
##차는
민낯
##라는게
공정한
##공무원
이순신
##할텐데
돌아다니
사무
옆에
문빠들
동일
좌익
클라스
정치권
처단
모지리
상황을
##비용
##회견
##였음
##의도
편하게
##양이
사서
시기
폭탄
##된거
부대
않음
##사진
웃기네
배상
##종교
시켜야
그에
어쩜
제1
##지영
핵무
마구
어쩌다
훈련
벗어나
같으니
슬프
##으로써
국민들도
부작
##지말자
죽고
##린다고
봉쇄
##넘이
원인
이나라는
##일듯
딸이
자발
##년간
비호
얼굴에
지소미아
사실상
##몰이
적이
##자만
열면
나라망
후쿠
나누
키워
##힌다
##감염
##명의
기자야
인류
여기에
##내자
##드려
유전
도저히
중간
무서워서
떨어지는
이끌
##량이
뒤로
##닫고
조국의
특수
박멸
든다
##드폰
확보
공공의
탄압
일주
정치는
자영업자들
##들로
뽑았
좌파는
증가
수호
제대로된
인정하고
허용
똘마니
얼른
사회에
안된다고
파탄
했나
시체
자제
문재앙과
이간
##을지
어짜
##기야
아무나
이나
없지만
먼지
##그냥
##사냥
##선언
##공항
##빠리
언론사
있는가
##다음
국회의원이
##가는구나
소통
그돈
일본에서
강경
고인의
##하느라
##겁니까
물가
독도
##하는것도
휴대
집값이
기레기야
##운영
앞으로도
말아야
##잖어
정수
때가
##이란게
##살인
##질은
분리
##하자는
살지
투쟁
사는게
폐렴
댓글조작
정치하는
할거
##신고
얘는
정유라
친문
좋겠습니다
##었으니
미국에서
비롯
한다면
잘못이
이것들
바뀌면
대답
##라지가
##냄새
특권
있네요
맞는데
서서
공식
개검
요청
가족들
시대가
불공
적자
##질러
분양
강한
##왔다
댓글에
##ㅅㄲ
차지
##만은
인식
##너스
의문
가려
천안함
믿어
수업
##리며
이꼴
비하
웃음
했네
확진자가
수작
##이지요
위선자
##애들은
똥개
##하겠다는
자칭
하루빨리
보여주는
무기징역
부인
외면
아쉽
못해서
오염
##친구
##들이야
##일로
##치료
##든다
재밌
커피
##금이
몇번
##문화
월북
하지않
학원
##주냐
##같네
이용해서
아름
북조선
##하고있
강하게
침묵
남자들
인물이
다이
매년
한표
서비스
아니네
##였던
멀쩡한
##인생
부끄럽다
##정하고
일개
사회가
되었다
치는
지지자들
장제
##하구나
모르겠네
바퀴벌레
##엄마
##아나
음모
##민이
법으로
이럴때
##총리
기자님
저희
사리
내편
그러지
야당이
사망자
한쪽
썩을
역사에
아시아
##er
##15
시대에
아우
정신좀
좀더
중단
마트
어르신
사시
##강간
구경
살자
북에
평균
000
##주를
싸이코
양심도
##해야합니다
왔다
내리
마음에
그자리
무엇이
객관
##xx
안철
걸어
##이게
##사퇴
정체
민주당과
자극
범법
##기위해
##산다
##중국
하도
##방이
미국도
##색히
##공감
피눈
구나
글로
장자연
이자
구입
꼴보기
싶어서
탈출
식으로
##적도
광우
방문
영구
극혐
단일
아녀
여경
차이
정책이
답변
프랑스
##한거야
후쿠시마
하락
##겠구만
##것같다
다스
퍼뜨
##노릇
간단
살인마
올리는
##에게도
##대학
##는거네
##꺼면
태풍
사례
어처
질병
박근혜는
보건
권한
##놈아
맞다고
김진
모임
자가격리
발목
대학생
##무슨
감빵
정의가
어떡
오는
빠진
ㅁㅊ
꼬리
##이크
전국민이
법대로
##자들을
개돼지들이
##였어
그런가
표를
리더
의사들
두둔
##맘대로
정직
안믿
수단
##점에
이탈
##아니면
일으키
먹은
귀족
몰라서
총선때
안내
##치소
수시
##모두
거기다
배웠
윤석열이
보냈
에효
징글
죽이는
미투
성인
빠는
좋게
대가리에
##해준
좌파가
단지
중국인들
들어간
새끼가
##카페
진료
출근
##넣고
##당시
##시네요
##나지
어짜피
선거법
너희들은
얘네
가증
##아버지
##오지
##배는
##수저
역적
##실히
##놈들아
##정한
삶을
죽으면
될까
부들부들
의전
##아프
##신교
검토
모든걸
환영
능력도
##불가
정치가
##으려는
##판사
##점은
물려
외치는
협상
##신을
지경
식민지
##스러
도입
주둥아리
빼앗
시도
웃기고
동생
##차를
말대로
것인가
중심
냄새가
##최고
소방
끝나면
나경원이
소득주도
재앙이가
잘했다
미성
##소년단
인건
더러
더블
여기가
제공
##평등
미친거
좋겠네요
진짜로
할려고
##둥이
누가봐도
##구속
핸드폰
답답하다
못받
그림
202
제거
긴급
입시
인간을
시간에
카페
입양
TV
##서가
작업
정치인이
##스터
업체
연결
중국으로
자들이
##부러
##인데도
##주니
정신을
수석
만들어라
##조국
##번에
없어도
협력
##수당
추한
##지르
폭락
어머니
이지경
##공화국
행위
##대기
기자회견
학생들
더불어민주당
##외교
##마이
어처구니
죽을때
##모로
잘한
주범
##었습니다
스마트
나오네
##당하는
##소나
##주자
##우리
팔고
더더
##테고
이와
신발
적은
본인들
잡아서
##치게
천지
후원
고스
항의
한글
목숨을
##했어요
제시
##인영
색히
하느
##곳에서
했으니
있도록
비정상
으이
##랍시고
통신
LG
지배
아니잖아
광신도
안되나
알았는데
편의
필요없다
##시위
슬슬
이것들이
대깨문들은
보수는
끼리끼리
수장
불륜
##할래
맞을
##리오
고민정
회복
지속
##하고싶
보내라
뭐고
김종인
금방
##중대
많음
밥먹
황교안이
공익
조국과
앉아서
장학금
주지
똑같다
엉뚱
견제
##하는가
##한거냐
##개입
모르면
주한
말이냐
판사가
유죄
##만해도
교체
못믿
다죽
##졌으면
똑같네
방탄소년단
##수밖에
치우
총살
##지않은
의미가
##알아
느낀
##기준
틀딱들
정말로
안해도
인성이
##경북
뒤통수
발악을
##점에서
공유
중국산
아마도
있었던
자신들의
아까
##노동
아저씨
할듯
확실한
일본인
##ㄷㄷ
숟가락
세금도
##나다
##분은
내려와라
안하
방위
##년전
무능하고
맞습니다
국힘
된장
불가
##렸네
일본도
##간이
비하면
감동
지내
##라구
차고
누구는
##메디
확실하게
짓이
대통령으로
엄중
안보고
멀리
##안되
없는거
구상
생명을
처벌을
좋고
##분들은
##중인
##보여
##년을
##리면서
낮은
위장
안먹
세워
정확한
##승리
##정권은
들먹
나라꼴이
며칠
자기네
##끼는
##두순
이런기사
##대책
박원숭
명절
보다는
자진
##개를
본인의
넘어가
##사이
##세는
그니까
##경욱
##소가
현장
사세요
주도
충격
한겨레
##비에
##같으면
재인이
##인권
마녀사냥
아이폰
##목사
문천지
살아남
##40
##ㅈㄹ
뭉가
곳이
##효과
##는것도
거덜
방치
철회
##어마
망언
사표
주가
고만
##하기도
안되는데
잘못한
멋진
나면
침략
##터리
쳐다
어쩌라고
좌파들이
잘라
받지
##조직
훌륭한
싸그리
권력의
사악한
어리석은
이러면
범죄를
추악한
제조
만들어야
##폭망
유가족
좋지
근혜
임대료
##지않나
안간다
한강
국회에서
일방
머가
일자
##MF
##거부
국민청원
가입
걸로
않나요
##수준이
보고싶
##것네
여기는
##수있다
##이후
##새끼가
50대
권리
가능성이
너희가
##였고
한건
##으로만
문재인정부
실천
휴대폰
##면피
이놈의
다를게
어디까지
온통
일삼
일제시대
부활
차량
본인은
인간들아
최강
천국
##화는
백수
어용
했을
작전
안걸
쓸데없는
공무원이
막아야
보게
##걸이
##개념
도데
sns
내야
##시키면
막을
낫지
졸업
##징글
끝난
새로
휘둘
싫어하는
##입고
##새기
##셔요
각오
없는게
투입
이대로
문죄인이
열등
우리나라에서
##돈이
해줄
금액
생겨
민경욱
자신을
한걸레
##았다고
떨어질
##스럽고
전면
화웨
입법
되니
##인에
아쉬
##스트라
##비도
아파
조상
##나라도
##환자
누군지
허허
##속에서
안한
이동
아니니
안받
##드러
##조원
##주로
매도
잘도
역시나
##모가
평범
모르겠지만
엄마가
##겟지
기회에
맞음
조두순
반납
넘는
개신교
##곳은
있다가
##시험
지진
##장님
해요
이간질
##연히
깨끗한
##위해서
땜에
##간히
직무
석방
인턴
##이요
문재인도
허가
##토록
싸가지
##거리고
공짜로
##지랄
공기
모르지
나름
조사해서
민주당의
##량한
##꾸로
우롱
민주당에
##었다는
진작에
정권잡
던져
조금이라도
당신도
마음을
##여론
부탁드립니다
다는
이승만
##해진
##이들아
##막고
##여러
합격
덮어
아프리카
위대한
##조를
여자들이
다음에
##할거다
##고있는데
공지영
전과
##바꾸
##하고도
돌아가는
위험한
##성과
따지
##통에
강행
##졌는데
롯데
전원
세금만
결과는
아니라는
##년들
소릴
##버려야
이제야
편가르기
경찰은
##원들
걸려서
개정은
기가막
이네
사람에게
경호
##사람도
양도
어쩌구
무고
방법이
##내지
안철수가
##원봉
자세
매장
소유
##망이
##소를
너네가
##할줄
검찰에
##정권의
내려오
사람만
시비
##성공
꼴이
취재
##사상
##오르
남자는
행동이
있잖아
모범
##린거
아직까지
책임은
##태우
좋아서
정도는
성적
있겠지
제출
##께요
##집권
미성년
극복
##노무
기업들
##납니다
##플레이
급여
비행기
사라져야
##86
##해주면
하나요
문어벙
돈에
##았냐
##것들아
##속으로
국가에
##협회
무책임
##보내고
힘드
부끄러운줄
##살아
마냥
대안
받게
병역
구멍
##상에서
눈치보
구걸
##구려
##대변인
몇백
필리
하다니
김명
청와대에
##인간이
찢어
##수하고
상식이
싸게
##분을
사과를
김영
선관
소상공인
무소
##하실
##들면
##100
한두번
거리두기
##거든요
주장하는
당당하게
##렸는데
##우지
트집
인한
도데체
대로
댓글부대
목포
##판결
억지로
먹어
기자들
kbs
##부도
##갖고
##발언
철저하게
##부정
파렴치한
##적이지
##치도
가야지
코메디
맞나
수수
##맙시다
그만좀
답다
대구경북
제정신이
오랜
싫어서
철면피
가슴이
주댕
수구꼴통
시기에
두렵
IMF
##없으니
준다고
##였나
기원
법의
체포
완벽
##절한
##상관
국민들한테
나오는데
망쳐
##일텐데
이완
해골
##단을
##혼자
##메라
읽고
알겠다
못난
다해
세입
하나만
차이나
하든
##했을까
했고
다양
원자
찌그러
뻔히
선거때
따뜻
비밀
어마어마
명심
아니라면
당하는
까고
##세기
써야
조센징
수신
한방
사는데
##추어
##없나
유사
##준비
고문
##왔는데
뒤지
##선생
만원
했다는
##으려면
일본한테
학살
징계
##하겠습니다
즉각
조사해라
전세계가
##같아
##떨어진
##서에
안타까운
손잡고
방어
##지않는
믿음
대해서는
학부모
쓰러
대접
대가
등교
이인영
##동맹
31
##들이고
입이
##사무
담당
낙태
시골
되는지
해대
걷어
오면
6개월
나오냐
##우기
들어가서
잡는
저녁
##봅시다
빨갱이가
우상
##랑이
대법원
각자
가까운
선거에
일반인
지도자
갑니다
민주주의를
진실이
노인네
##리트
침몰
##경우
화이자
이번에는
치킨
국가와
##자격
##국회
##펀드
징글징글
나발
좋으면
말이지
##지오
은퇴
끝나고
##우파
##아먹는
##미군
부정부
##시급
##력으로
들어갈
##래요
죽어야
##겠음
관심이
동조
100만원
많아요
때려잡
하다하다
신념
강력하게
사탄
그때는
만들면
마스크를
##에서만
자슥
기다려
##2시간
숫자
나은
넘이
원내
##세계
##옵니다
사냐
남들
##찍고
걸러
준다
될듯
##처먹고
고통을
장례
언론은
후에
쳐먹고
비웃
##or
부칸
빠른
모자라
양성
새끼들이
만들지
22
정부탓
방구석
##어디
##갈등
##층이
##위반
여당이
민주당만
오바
최소한의
안사
생각해보
흘러
배급
##나온
잘했다고
##하루
##민들
혁신
##개는
예의
못함
이땅
없던
보이는데
있어야지
맞냐
쿠팡
현실은
문통이
다음은
##놀이
썩어빠진
##났는데
##희롱
##까리
##자료
됐다
안남
변태
잡을
##되었다
청와대는
##생겼
소용
##사항
짖어
##유지
공기업
집주
이쁘
슈퍼
못하냐
##없냐
깨어
##달창
엘지
##집에서
장군
결론은
##퓰리즘
##으로도
보좌
지자체
##것이고
##욕을
손을
기획
나빠
사람들의
돈주고
망하는
너그
무한
##었지만
얼굴이
신천지는
손바닥
파헤
##훼손
##분의
##가진
지은
라면
##기와
##배상
유일한
피곤
##질에
지킬
대대
희망이
까는
걸리
##구는
공소
할머니들
##페미
양산
즉시
상속
나갈
그대
하더라
못하지
##논리
좌파들의
전부다
##인거지
일하고
아내
##싫어
##국에서
##간의
있으
힘들고
그의
시발
허경영
짜증난다
있으니까
##ct
##뒤에
전범
싶네요
##들어서
해외여행
통화
조차
상위
생각하지
##거늘
##되길
아들은
##문재인
##수에
차명
##해질
##인멸
##같음
살아서
##세끼
##달고
저럴
날려
실체
넣어
잡혀
##복지
아스트라
단체로
##다니엘
##놈을
혹은
##정으로
##하의
최대한
의한
반역
때도
설득
3억
수요
남조선
극단
편파
아니죠
하는가
이언주
하겠냐
##사관
##올려
듣는
##셨네
##가격
우리를
1호
사과하고
미래통합
자금
##취소
문제야
빨갱이들이
국회의원들
서류
것임
이재명이
공범
민주당을
살해
많았
잘해라
기사로
##실패
##회담
주작
연애
하고는
들어갔
주머니
##스를
추락
쉬운
같으면
##보로
다른데
좌파의
내란
##세에
지어
저능아
것만
##두면
개돼지들은
##하진
죄인이
차이가
##내기
고쳐
들어가는
마이너스
##대면
모름
##자라
수상
##거니
생겼네
군대가
어쨌
##동원
##전부터
자체를
관심도
비트
패스트
2천
백성
##하고있네
그러고도
##차고
가치가
최초
맞아요
##립시다
망치
##사람을
박지원
서울에
##안보
##리려고
추하다
발견
만족
살길
무상
뭐하고
누구냐
없으면서
탈을
청와대에서
먼저다
##하는걸
정신차려
해외로
올릴
터진
깨진
김정숙
##무능
죽게
저런거
개인이
국민세금으로
욕할
뉴스에
놓은
집이
나팔
기어나
##많다
안좋은
소수
김진태
##봐서
페미니
오리
맞는거
피해가
##고만
대통령과
주차
고대
##전이
똑똑한
헌금
법적으로
##센트
하던가
정권바뀌
##교체
글고
##문서
연관
악플러
베댓
##영화
한자리
강다니엘
한국당이
글로벌
한국인이
분들은
있는것
못배
눈깔
##당으로
##만들고
근처
피눈물
있긴
세균
##스는
그땐
작성
수용
강아지
머가리
##소리를
대리
앞잡이
##못차
##넘어
##대해
##산이
사회에서
##조금
골프
수두
##없애
동급
한녀
개정
본인들이
##수작
북한에서
국무
더럽다
채용
증거인멸
교회가
쩝쩝이
웃겨
사이코
하신
부정부패
##자라고
##간다고
##던거
부끄러움
##이름
이렇
유족
입장에서
한국당은
##와도
현실이
##규모
##면허
카톡
날아
오를
숨어
##짓은
##지냐
##풀이
이뤄
##변호사
받는다
따라서
##였지
##되네
정의연
##력은
##자들에게
##맞아
형평
많습니다
##봤는데
여유
복귀
야비
명확
##버리는
##청구
하시는
성희롱
마스크도
##학대
공산당이
망치고
##통을
##형이
눈물이
##향이
35
싶네
산불
다닌
##할것이다
그날
새끼야
이번에도
##려구
안찍
김성
신분
실질
바뀐
##보유
유투브
어릴
##한것도
##낭비
##죄를
나와도
유흥
인간도
그릇
울나라
##내내
##권분
##부터가
곳에
##이란걸
가세요
내보내
##친일
자빠졌
##병이
지역감정
##이들은
##총장이
기회를
광복
퍼주고
지키는
아시
##릅니다
사모
나갔
##근성
허락
것이지
등록
공화
저런걸
지나가
좋을
##주사
쓰레기들이
일만
남편이
힘든데
뜻을
또라
있기
회사가
##님도
인격
##인양
당신을
정치검찰
거임
##고기
사건이
진실은
억울한
##사들
하늘이
입다
반일감정
##버는
##식은
##하기는
##박살
채널
시설
키우는
물러나
##보니까
##주라
줄줄이
##대지
##년동안
꿈꾸
##집은
초등학생
##질환
동영상
##니가
문재인씨
이때
배가
박범
##에대한
##만든
##이겠지
전직
잘해서
##한텐
앞세
##사냐
사건을
##했겠지
나몰
인생을
맞추
부채
공안
순진
개도
##거운
##했다가
정의롭
열어
##받아서
##명도
하나는
무관
##파탄
사람이다
계신
##치다
저항
거고
##애가
##사리
위하는
##거리가
하려면
##이군
잘못은
편향
##까진
##원으로
바꿔라
##르지
길을
##꺼냐
넘들이
쳐넣
지정
정의는
##질로
하는거야
너를
똥을
##저분
손절
시킬
의도가
##에나
민좃
##주나
물어뜯
심판을
##대갈
어려움
잠시
조카
까불
부역
주위
민정수석
깜방
##죄가
도박
봤는데
하나로
파는
밀고
유포
수두룩
찍고
유출
##었구나
안에
고객
있죠
아기
다물
것에
안중에도
들을
곱게
503
토왜
안봐도
##억이
##권은
##부인
##받아라
##부족
##평화
마당에
##지는데
날라
책임지고
##하던가
임종석
오해
##배로
##인지도
내용이
1차
지키고
##순위
##것지
딸은
안되니
##자빠
못잡
표현의
끝판
하루에
아무말
까발
출연
##인민
##이오
다르다
##리스
안타깝네요
##가니
지금처럼
욕도
##나올
시나
오죽하면
넘겨
##항공
##이드
전라도는
청탁
이용하는
전남
심상정
다닐
삼가
싶지
한숨
장제원
악랄
##고싶은
##들끼리
국고
되서
전수조사
죄없는
벌을
##디언
너희는
안희
2019
##장군
23
자는
믿지
##력도
성경
작살
진동
입원
주제
댓글알바
사람들에게
더불어공산당
달러
##소에
빤스
싶은데
##실한
##살다
소리는
생각해서
방법을
인종차별
##쓰면
주한미군
국민도
625
대부분이
비리가
가끔
##놈도
트럼프는
##되야
조국딸
있겠냐
청소년
뻔뻔하게
##2년
##재가
합니까
서초동
같고
##있는지
국민혈
잠깐
##카드
사퇴해라
##행이
분석
부작용
어디갔
##장사
##안한
네일베
##연구
국적
종북좌파
##궁창
드는
좋겠네
퇴직
##정에서
그걸로
책임이
##al
##되는게
빼돌
##절히
재인아
등에
##껀데
생각해봐라
##어로
탄핵이
제주
조씨
이런일이
##미는
겨울
만들려고
그려
용기
##하는것이
그렇다면
못하니
잡으면
포퓰리즘
정치판
발사
비해
틀니
선별
명품
개나소나
어때
##부에
유공
정도껏
##종일
##해보지
항공
##주는게
코로나는
폐업
싫고
나중
사고방
폐간
세계가
##될듯
개똥
똘똘
##배가
##공장
눈을
감독
민주노총
이러고
##안하면
##소에서
##난리
상품
구상권
우리나라를
말아먹고
의협
10만원
##문을
##한줄
책임질
조정
마시
일찍
일본여행
몇개
폭발
뭔소리
##ou
##하듯
##해야된다
허위사실
알면
##권분립
참고로
사고를
언론의
목숨걸고
##있을
처먹고
##넘들이
중고
상대방
##보인다
소주
##이잖아
오지네
재정
쓰레기같은
모르니
신상공개
있는거지
높아
법조
다녔
드립
만나서
당신들은
하이
법도
짜장
우울
수준의
##혐의
아랫
떨거지
##의혹
에게
해주고
거지같은
##안된다
어려울
와중에
스마트폰
눈감
사람으로
##하던지
구속수사
안타까
##로써
몰락
듣보
##과의
수수료
##바람
떠나라
누구도
사회악
##신은
바보로
했지만
뭐래
##환경
정신들
심한
된거
##것입니다
부러
늦게
##전을
##군데
죽는다
말든
입에서
##위병
달리
광화문에
법과
##지금
일에
##상승
듣기
작품
이제부터
자기편
안쓰고
기각
설레
할텐데
다니고
비트코
##동이
##식의
동아
싫어요
전환
도발
사고가
아작
기간
##대국
##냅시다
인원
##tbc
##ar
##계는
물러나라
##아야지
생길
되도
같지
옳고
보여주기
##탄압
##나봐
##아래
프로그램
단독
스포
도쿄
길이
하시고
##감이다
##배를
알아야지
카메라
괴물
화장실
수사권
언플
공수처가
생기면
##여러분
차리
해야할
##로부터
선물
##지라
평양
나가는
##들만의
##돈을
##해서는
##드네
##아웃
생각함
아픔
궤변
노후
##그렇게
##처분
##으시
버려
##구를
안함
선생님
정은이가
죽을때까지
편히
연설
##시키자
##차례
인공
정규직
형사
지켜야
공중
세상에서
붕괴
무장
권력이
납득
##게이트
##안해
직원들
##00만원
##했구나
먹으면
개돼지들아
##우선
자산
선진
한국도
뒷통수
##디오
##60
##시도
요금
가격이
##조는
그치
##일이다
윤지오
저질러
내년에
미국을
때리고
폭로
마니
##대통령이
삼성은
정치인들이
##기기
궁금하네
##있어서
워낙
아는게
이름을
대기
개거품
##것냐
이들이
들통
없애야
검사가
##겟네
무시하는
교회는
##깨문
되게
득실
이상하게
그러는
수는
정치꾼
역사의
이런데도
그들
주체
말과
별거
좌빨들은
3천
은폐
생존
##만명이
##열면
어디다
가까이
토나온다
댓글은
이름으로
##대출
결코
노망
원내대표
신중
##키들
##방해
##더나
노출
뭘까
생각만
아닌것
ㅡㅡㅡ
성별
훠훠훠
아휴
##소서
세상은
하나가
죽었다
탄생
알수
자라
어려워
스펙
무덤
##성으로
##퓨터
하던지
##남용
정신못차
나라와
없게
##스러워
알면서도
##어야한다
##사의
정신승리
종전
##세여
일어난
##집이
##당에서
막상
##찬다
몰랐다
문재앙의
보낼
지저분
##졌다고
##양아치
추구
##그럼
여긴
##있는거
안그래도
불구하고
소리하네
선언
실컷
##덕에
고마워
제발좀
대깨문들이
여가부
끝내
##들지
요양
돌아간다
증거를
##더군요
##같지도
교주
모독
지랄을
필리핀
자들
기준이
쓰레기가
안되냐
나의
문준
이번기
소환
많으니
예방
한통
바쁜
모자란
망치는
많을
고의
##아내
진술
저것들은
웃겠다
서민들은
했을까
크다
##줬으면
내주
에혀
부품
##속도로
점령
힘없는
따져
##려니
유통
걸릴
온다
했음
정수기
저렴
일어날
여름
추모
##규제
##길이
니도
세계에서
##한사람
못가
원망
지지한다
독재정권
기사화
팍팍
중국도
한계
##업자득
##스라
##보면서
장애인
측근
##선에서
##할머니
우방
형량
왜케
사랑하는
##었을까
아까운
개혁을
##급한
##모르는
집사
정부도
하나님이
##일때
이것들아
질본
쪽발이
경제도
잠재
시궁창
2억
꼬라지가
이것은
희대의
##할때는
최저시급
살인자
이나라를
##예산
##시원
감수
##는걸
신호
팔아서
##도없는
몇달
##세력이
독감
싸워
와이프
마다
조구
퇴임
따지면
영장
##저런
문자
시켜서
##이용
##드냐
부류
##없게
되는게
##해줘야
뻔뻔함
비유
##화로
실행
마귀
우와
##못하게
어디가
##ㅂㄷ
놀라
##나오네
한마디도
150
치사
모인
같아서
버린
얘기를
##혁명
##일만
생각나네
##까지도
있는건
정권에서
입맛에
역쉬
그것을
생각하니
등장
박근혜때
##한듯
받아야지
##국인
자식을
##쩝쩝
안됐
유시민이
하려는
##인이라고
##가로
##봤냐
아베는
되야
되길
##좋다
영원한
##전환
##색이
##하더만
언제고
쥐어
개한
말이되냐
##사나
드럽게
##투리
##시스템
조사를
##국민들
몇천
민주화운동
안뽑
인민재판
##포기
없잖아
##순이
##번호
아오
##미로
##입학
##것임
얼마전
역사가
사람한테
합리적
세우
##트랙
##체크
가덕
##보가
저러고
##이면서
계좌
자업자득
봅시다
시각
맘충
보이냐
안심
국군
믿음이
사회를
최선을
뭐라도
지겨
과거에
##월에
김호
##구녕
하라는
지롤
손에
좋냐
##어버리고
##자마자
조국수호
대책을
되어서
생각하냐
모델
벗어
##빠는
박쥐
제로
직권
##훈련
확정
떨어져
입은
축구
부럽
무주택
증언
넣고
이완용
영감
ㅠㅠㅠ
올리지
##누가
입증
##답시고
결과를
##기전
인생이
국정원
##히면
##프레임
전달
수능
올려서
선동에
##랬다
의혹이
내용을
웃을
기울
것과
기여
않지만
##그라
천박한
##낸다
##말종
##카오
천벌을
공영
국방부
망하고
쪽빠리
앉혀
##이제
##회장
사건은
##중인데
실현
고유정
모르게
추미애가
우동
이기주의
부도
멋대로
되니까
##치냐
오르고
할지
빨고
고개
나이가
줄이고
##입장
저러니
##한거고
##하시네
##만하는
있다는게
사전투표
##려다
똥싸
많지
두려워
공통
안했
##편이
했더니
아침부터
있다니
써서
수신료
노동자
김현미
한방에
##생긴
경우가
뜬금
지나면
한대
어쩌면
좃국
##테니까
##맞는
교묘
##반하
보내야
무너뜨
콩밥
##렸으면
목적이
##보게
최종
왜이렇게
##한건데
골로
존경합니다
##년아
##주제에
##라는데
감소
않아요
떠드는
못하네
잘사는
어벙
나옴
나라경제
##주네
조현
##인해
##공격
##영이
반성하고
##듣는
##집어
모르면서
##데타
애국자
##투쟁
##11
야동
##그렇
바이든
건보
문재인이가
댓글로
필수
##남자
##해가
##리지말고
자유가
손실
막장
찍소리도
코로나를
##조심
정책은
##달러
엉뚱한
여적
##버릴
고정
경제적
중국한테
당이
평범한
##쪽에
바른말
거꾸로
단일화
듣지
##급이
지휘
##관광
하더라도
선거철
##요일
##시대에
##값을
내려와
정신차리고
호주
##장애
##해지고
그놈
언젠가
가는데
##개돼지
##매국노
선량한
해방
정도가
훼손
잘먹고
호소
초등학교
##안무
평소에
가수
개탄
##하기전에
짓은
개인적으로
위치
내면
국민에
니미
##임이
서울시민
아무튼
더더욱
회장
애는
##넘은
촉새
불행
등을
##본데
##라나
##공직
##정말
안락
남았
대부분의
말종
고급
협의
모르지만
다하고
장난하냐
어린이집
##이었다
수준으로
꼬박
살림
뭘로
기타
선거에서
주문
건너
##히지
좋겠어요
##일가
##읍니다
이해를
##해야죠
알바들
선택적
숨기고
전쟁을
##도한
##게요
사태가
했어야지
살수
##공부
노란
##공작
문재인정권
몇몇
배부
##만하다
이렇게까지
##가는게
맛이
구제
군대도
짜증나
파기
전락
학생들이
목을
말도안되는
##묻은
따른
묻고
새삼
##국당
기념
선심
##치는데
##태섭
지지하고
확대
동양대
예비
##와는
든든
텐데
##것인가
##팔아
제기
##가는거
은근
대깨문들아
##된다는
##할땐
##관을
떨고
디지
당신같은
유행
손님
이는
우리나라의
쇼를
화웨이
노인들
##파는
##나라로
시민들
유튜버
애들도
더러워
감추
평화를
##렸다고
태어난
##값이
국론
생겼다
사생활
나와야
촛불집회
어이없다
끝판왕
말하는거
보이네
##파이
##또한
명백한
토착왜구들
버리
적반하
##지켜
의견을
이탈리아
해고
홧팅
출동
##기레기
##패거리
사이다
미래는
##믿고
##전자
시나리오
허구헌
##퍼센트
##할꺼
여러가지
##힘들
백번
##법도
##유예
##미래
##까고
불통
느낌이
기저
할아버지
어쩌냐
지금껏
발상
가슴에
챙피
언론에서
이들은
보수의
임신
주말
##미사일
실명
수준을
##형을
줘도
개독교
2번
##받지
##할거면
밑에서
소위
놈들아
새끼들은
깔끔
종특
챙기는
##근무
관련된
사회의
##티비
##실에
어렵게
자식은
중국발
##감은
##들이냐
지지를
##있습니다
##분간
세무
쓰냐
##이만
때까지
##라우
솔까
정부야
명예훼손
형제
불로
틀어
죄지
##증상
아이디
##집안
안나온다
당연하지
재앙이다
말해라
간섭
여권
##다니고
##민당
여자들은
정황
개고생
하는거다
하필
광우병
오줌
오거
밀어붙
나경원은
##바꿔
보유세
않을까요
깨달
너만
##할수도
재건
도둑질
하겠다고
##났다고
ㅂㄷ
2000
다행이다
##할걸
가난한
계엄
팩트는
적게
신뢰가
민주당도
후안무
절차
쟤네
내내
순실이
사태를
대법원장
서서히
##잖은
금태섭
##분별
말하지
살펴
바꿀
교활한
신속
400
행동은
웃는다
혜택을
1번
##누구
##는지도
집단이
36
개는
계시
것들아
운전자
사라질
유학생
##기때문에
봐야지
3단계
닫고
김호중
빌붙
개소리를
##인데요
##안하는
미국으로
##잔치
호텔
아가
취직
나를
일본제품
애도
동시에
미워
하나씩
##판을
낯짝
분야
전통
접촉
##일까요
보이콧
게이
살아온
감염자
이적
##실험
싸지
생각없이
할매
생각하나
비율
매수
로또
접근
##충이
의지
컴퓨터
##줍시다
##소대가리
##도에
##드로
##구조
##대비
또다시
음성
##러니
단단
##리어
국민들만
그런말
쪼개
##집행
이번기회에
##할수있는
##혜택
힘으로
##드니
##5년
김무
사실이라면
##배우
추잡한
중산
후예
##인에게
##NS
##셨나
그돈으로
죽어서
하시길
국회에
인권을
북한도
수습
정당한
나몰라라
설레발
펑펑
##나갈
대마
##차이
##당도
홍위병
미안하다
##드립
부엉
##드나
아버지가
이와중에
비리를
최후
버는
다르게
##ㅎㅎㅎ
##죽이고
동포
하나라도
##평가
강제징
블랙리스트
하나하나
##기냐
만들어놓고
##지는게
저놈
##음을
떨어지고
오픈
마무리
모아서
드러운
이제서야
##됐네
한것
휘두
적와대
인건비
몇일
여론이
##소릴
5억
엄청나게
역사상
세습
침해
보나
최순실이
걱정이다
돌아오
통해서
##트롤
순실
재앙이는
보는데
##매한
하겠네
여자를
하겠다는
없으니까
허구헌날
##소수
신이
무법
잘돌아
##연이
기본적인
이스라
##하십니다
스포츠
##개로
일주일
교육을
##저래
골라
대상이
뒤질
##성향
것인지
##나오면
##유총
어쩐
똥인지
##스럽네
##7년
##이유가
##씨도
했다면
전공
해줘야
##넘게
안민
##더라고
노는
압도
대폭
##거네
##요금
효과가
##들갑
똥만
사유재산
##는거랑
건가요
파이팅
치졸
구체
하루종일
사재
가지가지한다
보입니다
##12
현기
##나와서
그리도
##나오는
##보상
멸망
쓰래기
생각으로
하는거냐
생계
노벨
차례
##짓이
녹취
어딘
한푼
사주
##으라는
##아비
그래요
검새
최선
몽둥
완성
정세
##하겠지만
##데기
##듯한
무단
##더라구요
이스라엘
##교통
올리면
시간을
##나가는
##아파
버릇
##되도
##하지는
공정하게
##이라는데
버리는
##진보
여자도
숨겨
##가에
한동
##들하고
다리
타다
몸에
국뽕
남자들이
저주
##녀가
천재
신도시
##없어요
정준
##아닌가요
잘만
##안다
##같은소리
다루
##갈이
무지한
연평
민심을
##럽고
##국방
강도
귀찮
삥뜯
공권력
역사는
돈받고
다수
코로나에
##할수가
##꾸라지
신종
좌빨들이
집도
##at
##시리
MBC
석열
변화
이상황
의학
정신차리
모를까
26
맞은
자식들이
안된다는
쳐맞
느꼈
철거
나쁜놈
비정규직
##보네요
정권바뀌면
우리집
내수
사법개혁
기억이
배불
들어온
정확하게
이모
고사
자기는
못하
피해는
털어서
##시키지
택시기사
카카오
편의점
신의
##했어야
##모르고
누구한테
안하지
그당시
좌파정권
강조
LH
비열한
문제지만
완장
거시기
뽑아준
##가야지
##하고있다
종자들
넘은
##서로
새퀴
한전
##하니깐
색깔
##80
구치소
잠잠
니네들
##짱깨
##받으면
그래놓고
다른건
모순
공개해라
말한마디
냄비
글쎄
빨개
##심한
하는건지
vs
방위비
생각해라
무엇인지
배워
관광객
작가
경남
##였다고
##ctv
타격
##하냐고
싶냐
##걸린
면제
##당해서
##질하는
않는데
잘하면
조로남불
선동하는
##죽일
시장이
모가지
기자는
##당해
미련
##생산
될것이다
왜들
소름끼
개혁이
치가
빌어
##가리고
정권교체
조국도
부모는
100년
개수작
##어린
못사
##지길
우째
활용
중재
바꾸고
프리
판을
머리는
맞아야
넘어서
##ㄹㄱ
##았지
##나보다
소재
정신병자들
말안
##식에
핵을
사람인데
해준
##인상
개성공
##he
공적
판에
##달라는
만들었
SNS
부를
선전선동
달아
괜찮은
느그들
에라
##무가
척결
문준용
민주당에서
##00원
그런데도
뭔지도
총장님
뽑는
##신분
개를
정도의
맞으면
취임
한유총
##표가
부럽다
##영호
만든다
라이
잡은
현직
비참
떡검
옆에서
오마이
거주
개웃
##줄도
##치않
##로도
갑시다
##겠고
반성해라
##노예
저소득
공사
삼권분립
죽여야
유독
패스트트랙
##증이
##써서
청렴
##바랍니다
##단체가
사과는
##접종
5000
##르르
##도없고
어이없네
소년
##새끼들이
죄는
##쟁이들
##모를
##내요
쓴다
손해배상
처형
따위
하자고
있던데
##뿐만
노트
실화
바뀔
자리에서
주요
##사과
부족한
버텨
##성화
설쳐
##라는걸
바꿔야
국가는
못하나
관여
언행
사실은
것인데
쓰레기는
피해자는
혐한
매매
안하나
##릴수
논리가
내놓고
자중
있을까요
##야당
스토
3대
##도시
이인간
##ㄱㄱ
##회의
모르네
지겹
성향
집값은
##주는데
성역
임마
믿는다
반발
짤라
##행사
총선에
회의
호들갑
##오니
##눈치
빌려
하실
아이들을
만드네
위법
없다면
##중의
떠들고
쓸모
ㅂㄷㅂㄷ
여기도
보궐
아닐까요
인력
##돌이
않았나
회담
##억씩
그립
##하시면
##끼야
##대에서
채워
##출산
남겨
앞서
##백신
##자랑
위하여
기능
본인도
굉장
맘카페
##했을때
당해
아니겠지
충청
기사도
조선일보는
증여
하지도
사람이냐
##돈은
##덩이
숙청
##만개
성격
올려라
기상
벤츠
##잡는
##HO
##다닐
##별로
짱께
사안
떨어뜨
가리
##금으로
줄서
##리는건
일등
대상으로
인정하는
##댄다
허수
호도
배워라
이상이
##건강
보임
원조
##om
9시
잘한다고
어떠한
예측
공산주의자
기사라고
##제재
앞으로는
많으면
유엔
일본에게
틀림
안팔
##탱이
##랄까봐
당할
보일
가벼
박통
온국민이
그런다고
##될까
노조가
살려고
윤총장님
골라서
이러한
싫지만
무개념
유도
숨쉬
##전한
이름이
##받는다
저번
비아
##종자
ㄷㅅ
##억원
##그랬
##피셜
##만봐도
증말
##는건가요
의원들
의료보험
적폐로
경험하지
ㄷㄷㄷ
경계
##고발
거짓으로
이전에
시원하게
뻔한
팩트를
기계
##고가
소중한
##이는데
##방에서
2월
현실이다
북핵
3번
다른사람
왜놈
황대표
##우니
##되어서
##문제가
다르지
입만열면
죽었는데
##진영
하루하루
지킨
뽑아서
##해달라고
도배
도지사
뒷북
정책으로
3일
##인정
##사용
마음으로
직무유
##뭐냐
##통제
##채로
난민
저것도
술집
##그로
처벌해야
실업자
주호
해봐야
##질만
밥은
##바이
상관없이
미쳤다
##받게
##나라에서
군부
사살
삭감
##상의
바이러스가
전체가
##일당
스티
##면제
제작
가로
창출
엄한
전투
속이고
지들도
한국인들
##것에
##학년
시계
간절히
했어야
정신차릴
법에
##미친
규정
되는거지
장하
않네
나발이고
##다닌
있었으면
방송에서
꺼내
못사는
##주에
##물로
전재산
병원에
아마추어
##건만
너부터
##트가
일본가서
있겠지만
##하다면
고마해라
##다르
했어
27
##였냐
대전
봐주
황교안은
사라져라
그밥
가는게
들어와서
새기
중대
저지르고
##인지는
인간말종
피가
패스
석탄
##나라에
##었어요
나가라
##안에서
##구장
국격
##게임
##물은
끼고
##들인
글구
되잖아
소리만
약한
눈에는
잡아야
##어를
문통은
살리
##인과
고로
할수있는
내지
구별
금수저
김성태
짓밟
종로
검사를
기준으로
##자꾸
##꼬박
국립
하나의
인구가
이슬람
손바닥으로
##해지는
어설
속아
##있어요
있었나
참가
##위원장
수준이다
##자들도
비싸게
수소
유권
따르
##잖냐
##목숨
많다고
없었으면
현혹
현대차
##하기를
분노가
그간
민심이
##했어야지
범죄자가
왕창
##였구나
댓글달
이쁜
##법에
60대
실검
##폐기
개돼
여론몰이
학교에서
법인
어지간히
##안한다
어렵다
차리고
##무새
동료
떨어지면
북한군
##선에
##생각을
평화가
터질
숨기
그린
중국인이
##는거는
##부담
쫓아
필요합니다
검찰개혁을
겪어
안에서
싸울
이런말
찌그러져
증오
안죽
##라면서
박사모
폭파
삶이
고위공직
경험해보지
다신
되나요
주의
개누리
65
##질하고
지럴
그다음
##구야
##지들
##심에
댓가를
받으
##된게
##버리면
단순히
##진게
돼지로
##했잖아
저들이
둘러
한민족
문제냐
그런게
수행
쓰레기들아
문재앙을
할게
니들끼리
김영삼
쳐박
싸고
##마시고
##져야지
또다른
##나쁜
##도와
우기
의사들이
나팔수
튀어나
##많네
쉽지
나머지는
##해줘
응징
##안하냐
흑인
키운
이상하다
실시
정보를
끝났다
##같은거
굽신
미화
2중대
답답한
안고
개소리야
오늘은
##물어
배고
정청
##호식
물리
##동생
##올리고
##질이나
##셨으면
밝히고
논리로
못하는데
##심은
##속이
4차
친박
##un
공인
뿌려
들어가면
듣보잡
김여
싸우고
축소
제3
외국에서
추장관
##세다
있을때
귀걸이
집행유예
##의원이
예를
우익
##더기
퇴근
안통
하수인
고졸
있으면서
김원봉
차가
혈안이
##들에게는
기업은
열등감
개성공단
임시
명박
의원님
문죄인은
##무지
한동훈
찾아서
##당할
##트로
##제네
유재
적화통일
검은
후배
감방에
김명수
악용
##려야한다
태영호
사모펀드
##해진다
안막
##연합
내라
안일
이왕
기업을
##보를
말입니다
그들을
대량
거대
아름다운
간첩이
소각
교통사고
형편
정상이
쓰나
영향을
말투
징그
단계
##끼가
##많아
될거
##명으로
자들은
있니
보이고
54
신앙
안그러
살다가
사퇴하고
앞뒤가
남에게
밖에서
##소리가
자신들이
서해
문제로
내뱉
참모
긍정
##거죠
안가고
시장경제
미쳤네
외부
하태
마스크는
주둔
시민들이
##몰라
바보가
##해야하는
대책이
종부
판결을
##권도
검찰과
이고
##기부
닭그네
선조
##걸리
가볍
새해
##쓰네
될수
검찰수사
구글
아나운
##금은
주거
##되는지
##따구로
일으킨
뉴스를
지긋지긋하다
주적
##인거야
겸손
심하게
남발
색출
3월
##실에서
##대신
약국
다운
칼을
처벌이
집은
둘째
머냐
올라가
이제라도
않도록
치밀
쌍욕
사대
살아가는
##촉새
대깨문이
##자한당
길게
가시
싫다고
##니까요
##린지
##살고
군림
##등급
도움을
##직을
##투사
##위조
##부랭
지고
##런지
뿐만
##종북
북돼지
##아니야
짝이
##식도
하고싶은
보내는
분위
많은지
울고
##중요
##의료
추악
불법을
실시간
김재
##트를
소설을
##제발
황제
걱정된다
적극적으로
##NA
기분이
체육
3개월
역풍
안하는데
신용
언젠가는
##그대로
##이하
##심으로
##해결
백날
이태
2020년
우리에게
역할을
내로남불의
1주택
안희정
중요한게
##책을
##여당
당해도
##해져
45
할것이다
대학교
애완
조성
최강욱
떠넘
똥줄
정치인들은
눈먼
여지
구성
##이던
보며
김문
망한
찍을
속에
한국경제
집으로
꼴을
##불매
선동하고
떨어진다
##들임
##사오
살인죄
끝장
##정지
##같지
소문
나가면
##제일
붙여
##냅니다
##연대
반려
jtbc
불리하면
굶어죽
바꾼
귀신
눌러
못하겠
못들어
흐름
##위원회
##트리
시선
꾸준
경비
그따위
##나라를
다른게
나한테
난리를
28
왠지
##내에
자고
##시적
펀드
이정부는
알고나
조공
파렴치
혐의
모른척
##인증
퍼주기
##새끼야
고3
한가지
##빨갱
잃은
##입으로
모자랄
저들은
##갔는데
메갈
##자본
해주는
##들인데
##저나
##셔야죠
씌우
한결
강원도
하나님의
WHO
책임지
##돌려
##이긴
##사장
가둬
##실장
초반
##지않아
곳에서
개망신
##말든
관심을
박정희가
해도해도
##되기
##스도
가도
##쪽은
종자
##다며
사람들만
발끈
##작업
##나이
머리를
##의원님
엄격
##장악
##야지요
의심이
된다면
행동으로
없죠
계란
##스럽습니다
안간
##하시오
소나
트위
자식들은
##ho
꼬봉
너네는
푸하하
욕만
일이나
상당히
추미애는
##치매
##현실
말좀
줄여
##라는거
세월호는
##하더라도
##대니
##없습니다
00
사항
##감도
자한당과
제명
주둥이로
차려
31번
##es
네이버는
##명씩
반면
##겄다
임명한
양쪽
##당께
##여성
철저한
백퍼
한심하고
열일
집착
없어질
멋지다
##더러
본질을
에어
##이에요
속지
국민의짐
##줄께
통치
##거짓
자손
##나왔
조사하고
##나라냐
고양이
불의
핑계로
##정상
수사는
아니에요
공영방송
##해줬
##할까요
브랜드
중독
부적
있는거다
횡령
##말대로
개돼지가
현충
올렸
##시를
##선택
민좃당
놔두
##가보네
##파괴
##도아니고
답없다
일해서
문쩝쩝
야당은
tv
아이돌
있구만
멋지
##하는건데
한명도
내리고
독재를
선출
경향
##나네요
##하지마세요
경제에
기다리고
대통령이란
얘기가
##ec
재건축
##돼서
만들자
##비어
##생명
가중
부모도
##바란다
양도세
##ㅡㅡㅡ
향해
##구에
인신
지켜보고
대구시민
임차
##벗고
고기
당을
얘기는
일산
장담
반영
##이야기
부끄럽지
##읍시다
성폭력
방법은
엉터리
동원해서
중산층
제압
짓거리를
오거돈
##TBC
으이구
무력
진정성
풍년
사퇴하라
##였다면
한개
##나라는
영입
##염병
##해줘라
##이냐고
이냐
대표가
편법
국민한테
##것이지
##사에서
되겠다
##프로가
##란히
소리냐
##케이
늘려
주위에
인스타
거라고
압수
살다살다
저것들이
##바다
챙기고
땅에
국민만
##되니까
막는
속도
##데요
어이없는
유승준
아동학대
의존
기안
##오게
조선일보가
가르치
아이러니
##쩌고
##하곤
##간을
외출
할말은
여군
검찰개혁이
봤다
강연
이중성
##도못
아빠가
욕나온다
할일이
일가
찐따
몰수
일자리가
오버
##한다는게
골수
망친
많냐
싶습니다
자격도
맞지만
##일으
좃선일보
청와대와
나왔는데
##단에
자율
했습니다
1인당
했겠지
##운운
지능이
낙하
예약
너무하네
덕에
올인
##정도면
조금씩
정신차리지
그런건
세력이
##째로
공공의대
##았어
가관이다
기가찬다
국제사회
환수
놈을
민주주의가
호구로
##애비
##역시
고등학생
천만
##미달
부처
##함에
조사해
##했니
자리가
가져다
##조기
출입
##가루
##의미
초기에
이새
##어지
##유착
강제징용
그분
개표
정청래
즈그
##보며
예외
멈추
가족을
잘못하면
##국적
##모델
좌좀들
본질
##번방
단단히
##화된
고스톱
##급여
##3년
##포함
##망정
여기까지
##보이는
##해보자
##았던
작정
무사
식구
너네들
싸다
어거지
##교사
옮겨
은혜
##로당
##부부
수정
강용
##위의
허접
확신
다시한번
##정책을
##국민들이
개구리
물량
깨닫
골빈
##되겠네
정의와
밝혀야
깔아
사냥
거짓과
경찰에
cctv
70년
언제는
xx
가능성
보수를
세계적으로
버려라
##자리에
짱깨들
##독립
##팔고
곳은
배민
여론을
극치
기반
대깨문은
건강보험
잊지
##시키들
저질렀
##만으로도
법정
새끼는
##린게
##말아
안철수는
##틀러
쿠데타
먹고사는
백신을
인과
욕하면
중요하지
##제목
이런일
들어야
자리를
터지
##서울
남한테
아니란
원흉
##하기가
죽었
마스크가
##자너
원자력
의원이
잘하세요
새끼들아
##소는
맹목
이상은
현명한
차명진
모르는데
##았으니
##ㅇㅇ
잔뜩
다니면서
##집을
주는게
주먹
발언을
##en
##수지
##들어가
놈의
데이터
##설치
100만
굉장히
##경쟁
문대통령님
삶은소대가리
나와라
무소불
와우
영탁
오리발
이나라에
##말씀
우병
종교가
바랄
일할
총알
##연장
##릴려고
##딩이
사지
정체가
떨어졌
광화문에서
확률
수밖에
불쌍타
거짓말로
국토부
##거리며
느끼는
##위에서
##등을
##너지
찌질이
##깝다
먹여살
##혀라
위해서는
손으로
3000
개박살
##뜨고
난리치
##퇴근
감찰
##기록
들어도
기성
##아줌마
##기싫
##좀비
##국가가
선한
없나요
##억을
전국에
평생을
외노
##시라
##했어도
아따
종교의
감옥에서
##주사파
소독
##아빠
두고보자
뇌피셜
배치
##하는건지
아이디어
##일수도
혈세로
일본이랑
지금부터
건보료
민식이법
시키면
정권이다
예술
도둑놈
대구시장
내돈
단기
우짜
북한한테
##이라곤
안들면
토지
말고는
괜찮고
선배
홍준표가
##선은
##인격
##없다는
유발
거죠
이놈은
##아이가
##정도는
댓글다는
JTBC
공평하게
##이야말로
사형시켜라
않았는데
문제임
싸우는
하는것도
저런것들이
신재
##드리
한편
트위터
##인다고
이나라의
##수칙
어쨌든
쓰네
##때문이다
예정
##TV
거론
비방
돌아가신
이거지
태국
##차로
교수가
##나는데
개만도
숨어서
나왔다
불로소득
##이라고는
부끄럽지도
툭하면
안좋아
지나가던
통수
후보자
미통당이
##먹기
뽑아야
저사람
##1위
##들이라
속은
저것
생각보다
##놨네
말이나
의심스럽다
상실
기원합니다
인권이
님이
mbc
배울
기가차
벗고
##월급
몸이
##오냐
얼굴을
많구나
진보가
##하단
##보드
막아라
정세균
우주
노무현이
저승
##기능
돌리고
이들
박수를
안되네
들어라
##무를
##먹어
발로
사정
##움을
##도없이
나고
##리니까
이야기를
죄값을
며느
##시게
다르냐
거절
저인간
##했더니
헬스
천막
추측
나오나
군대를
##차에
사회생활
지인
희한
꼴갑
##두각
보이나
개한민국
될텐데
##시나요
외치고
불교
꼬투리
따르는
알고있
비겁한
##문제는
터트
사이비종교
##상식
쓰레기야
##연한
##일지
밀어부
바글
책임져야
사랑합니다
놈아
판단을
설치는
생각해도
외모
찍는
호의
뭐든지
##진거
하더만
##mf
작년에
말라는
법률
미쳤구나
감기
경제폭망
닭대가리
##리만
바가지
않지
##질않
그나저나
##발표
관대
전쟁나면
신라
##방법
ㄱㅐ
놀아나는
##주길
##개표
##힘든
주접
예능
남자들은
주옥
슬프다
##정하게
잠수
1명
그런지
##트는
##준거
##해보세요
체크
보편
창궐
##확인
##임명
부르는
##정부의
##이라면서
생기는
##게하고
첨부터
##스쿨
##하겠나
합리적인
오지랖
##제대로
저따위
##것으로
배우고
수학
100프로
알겠지
##씩이나
##짓고
인권은
##할까봐
##시장이
고등학교
보태
연대
근대
채우
그지같은
억압
좋은거
볼수
##제네카
##말이다
##계약
##봤으면
사실이면
갤럭
지원을
자발적으로
야권
넘어갈
대구는
쪼다
먹어라
인간이다
버릴
삼청
털고
알겠는데
용돈
##좋게
한달에
##신청
##지않게
각성
꼴깝
니들의
도전
보여주고
좋네
심심
도시락
##수술
적으로
##견이
납니다
시바
만들기
안하무
전세계에
방송에
52시간
##네가
절라
##랑께
자폭
회계
한통속
현상
해쳐먹
##다나
##목으로
##랑은
##어버린
##확진
##듭니다
이용한
##70
조국장관
##이었으면
다니냐
믿냐
인간이냐
표본
살어
준표
양육
##주는거
표정
벼락
군인들
줄어들
하청
받아들이
핵무기
##문재앙
내린
화력
언론과
있을텐데
안속
이가
까라
거리는
피를
적어
120
##대네
머릿
화이트
되겠냐
##광고
##관은
##하는것은
저런것들
##았고
복수
##대냐
안다고
억울하게
건강한
환경단체
교과
##원의
딸랑
받아들
##CD
국민성
지지율은
##색을
행복하게
인간쓰레기
뭉개
미친듯이
막가
##시켜야한다
뻘짓
정신적
좋아하네
##주교
##한국당
게이트
수준하고는
쪽발
컨트롤
##1년
될지
이기사
퍼줄
한나라당
##호가
##만큼은
해야함
임진
그만두
##세연
하고있네
알겠네
승인
전역
죄송합니다
시국
소식
감싸고
맡겨
##재난
뭡니까
주인이
검찰개혁은
##강산
##아베
##넘들은
아니랄까봐
##임대
전시
친척
윤석열은
##았음
헌신
치료비
수사해라
느낀다
##겠다는데
전두환이
##그룹
5인이
##국가에서
알지도
공무원은
무식하고
##사라
1조
연예인들
팩트체크
구독
할줄아
뒤로는
##무죄
##보낸
시세
범죄자를
##난거
여성이
##아닙
유일하게
유착
빡대가리
에구
잘한거
해야합니다
반일선동
정준영
아무래도
그전에
황당
##모임
##직도
굶어
부엉이
당당히
오류
조선이
##난다고
sk
용감
##으냐
##많고
##치자
의전원
##생들
길로
안해서
빼박
재산을
종이
따까리
혼자서
빨대
포기한
유촉새
국짐당
##키는
##해지면
국회의
안되서
알고도
댓글도
가는구나
단합
빨갱이는
내놔
사립
##손손
##테타
심히
입다물고
선고
알겠냐
조국아
일인데
촛불을
단어를
##됐다고
달인
##님께
이리도
바래
목사가
세비
##기까지
부하
##국민을
상종
심각하다
뜻이
가나
29
치면
꿈도
디자인
##전으로
조원
정권과
중요하다
공시
소름돋
북한이랑
대통령이라고
내용은
어리석
믿습니다
##면이
##천원
줄이
뭔가요
비롯한
##따구
##찾아
나오니
상징
##건이
미루
##말만
큰일이다
보단
당원
매크로
해주면
##세금으로
보는게
괴롭히
낙선
왜그러
맘이
날조
##조장
##음에
##버리네
ㅅㅋ
방관
뻔하다
넘기
생각했는데
##공동
##멋대로
##형으로
##두로
##쳐먹는
니나
##함은
조치를
문씨가
포기하고
경유
범죄가
##꺼리
낙하산
##아닌데
##개소리
##쳤다
흥분
공수처는
쓸어버
##에다가
기사만
##블릿
친구가
이틀
약자
생각없는
##이라는걸
제조업
말로는
부르짖
배후
있는거야
니덜
볼모로
##죄인
언어
이세
멍멍이
철밥
꼬박꼬박
뻔뻔하고
기껏
유리한
니네는
몰카
주디
못보
##씨를
기재
##하시네요
##가봐
간신배
없는지
하죠
##유공
꼭두각
모르쇠
##새끼들은
안락사
쌓아
아무렇
하잖아
##ut
##새끼는
싸구려
만약에
##레오
하태경
ㅇㅈㄹ
비공
##출마
당분간
어이구
언론들
##꼬리
김연
삶의
2만원
종합
##입은
##했네요
있는거냐
끝은
얼만
##ㅉㅉㅉ
복잡
이주
거울
##같으니
북미
##등에
창피하다
##안됨
얼굴도
##분도
박원순이
않으니
##선수범
누구보다
##보지도
잔치
자를
배구
기본적으로
일으켜
1월
일정
##중이다
정신줄
##개들
##급으로
##을걸
반대를
붕어
##아픈
##화점
촛불로
차릴
##린데
누구의
검찰에서
도우
##고대
##케팅
오르면
빠르게
##이건
##oo
안되는거
진보는
##대요
처벌해라
##하구만
이에
후퇴
낳고
취득
잘못한거
정상이냐
자주국방
군대는
깜짝
##왜란
중국입국
터지면
찔러
##지지율
욕심이
세운
##사한
##까는
지불
##사님
믿을수
돌아갈
보궐선거
지오
유시민은
벌고
타협
해외에서
망상
##자들만
586
페미니즘
보라
시민이
문주
##화에
##하시죠
##바지
10대
해줘라
우리민족
기부금
정치적인
미필
##동물
정계
쓰세요
##부장
들어와
##료를
귀족노조
불량
이걸로
##is
정의당은
##이탈
투명하게
지혜
##메달
##당초
시작해서
##무서
전라도가
##족을
버티고
정신상태
누군데
않아도
1년에
아이들은
맞죠
달라지
##약한
이러면서
대한항공
마음은
쯔쯔
##안함
강의
한반
파티
##있는게
##있던
조종
내릴
안했다
문정부는
심리
눈가리고
##으로부터
거두
이빨
최고다
된장인지
될것
압승
걱정이
가냐
고맙습니다
##등이
밥맛
정으니
##대깨문
좌빨들의
##시로
가르쳐
증세
##국가로
많다는
끼들
굴러
버렸
##자야
위에서
##란게
논의
교육부
주호영
검사들
기회가
##천만원
지지자들이
죽창들고
있는듯
한미동맹
가식
두들
아니었
아스트라제네카
개꿀
져야
##층은
##함께
씁쓸
음모론
3차
아재
출세
##타는
사상이
안지키
5G
어그로
언론을
얼마든지
뭐해
##관계가
애비가
##일수
해보자
지켜보
버려야
모르겠고
악화
##세포
연방
죄앙
재발
예쁘
##하는건가
양승
##re
오토
유명한
문제인이
올라서
사찰
##드는데
미래통합당
차를
뒤져라
선거운동
개념이
솔선수범
##해야하는데
맞서
모자이크
수사해서
##단은
빚내서
추적
이상해
##식구
주어
육아
업적
못받고
다양한
만날
탐욕
##동강
훗날
##주면서
천주교
간다고
안전을
사이트
미군철수
##능력이
오고
##벌어
##인거다
##대왕
발정
방송국
게시
줘야지
슬픈
##걸려
출생
쓰라고
안한다고
응답
##였습니다
될거다
탄핵을
애낳
독점
한국사람
하는것이
꺼지
##마는
파산
##은거냐
뭐만
##실을
##사유
욕은
##대통
##했구만
박범계
수사가
정부다
##곳으로
같은거
##지는건
돌리
아갈
극좌
빵에
##치로
허수아비
##와의
의원직
##하는거임
정당이
화를
역겨워
무작
죽음을
부산대
전체를
##을까봐
##중독
빼면
백배
좋을듯
##부채
심하다
외신
그랬냐
민족의
파란
##토막
정신과
언론도
말아야지
짝짝
최우선
이글
강성
으휴
속으로
추종하는
꼴랑
##올림픽
##수있게
들었
부끄러워
##부끄
깊이
귀를
전체주의
김씨
꼴도
국익을
좋지만
않은가
들어오는
##지처
##하셨습니다
##겟냐
책임져라
더욱더
가덕도
중요한건
##ㄱㅋ
본보
발의
두개
잘들
일본보다
##증거
가재
뒤져
해줬
조국사태
##신천지
국민여러분
있었네
##치는거
지극
재개발
놔두고
##살아라
그럼에도
레임
기다려라
안민석
싸이코패스
##래미
문서
아이는
한마리
앞두고
##있어라
글쓴
타이밍
씨를
뉴스가
있겠나
이양반
소리나
다물고
##길을
거는
정숙
가질
에고
유기
##쪽에서
쌍판
정치인은
##할건
##게이
##값은
구석
소멸
몰표
이런것
김무성
고양
모르겠네요
개인정보
##바글
##을것이다
##악을
쓸데없이
북한만
부패한
허리
계속해서
간호
자전
한번씩
체제
어디가서
배제
##한적
태워
##용지
##되네요
##봐야지
직전
##계속
##감독
##민은
##줄은
않아서
할거면
느낄
키울
##일뿐이다
희망을
후진
##셨어요
기만
##어떻
안녕
##생을
추석
출국
깨시민
##인디
##치면서
K방역
##파가
따뜻한
깊은
외제
##악질
깨끗한척
ㅆㄹㄱ
남았다
무릎꿇
지껄이는
다주택자
구청
다수의
주둥이만
##클럽
기를
대규모
국정운영
덩어리
##구도
불러서
패배
족속들
교수님
사이코패스
퇴진
멍충
상당
##편은
재검
도라이
##환이
##화폐
개념없는
##지말라고
받으면서
##라는건
만들었다
그야말로
##리는구나
##구장창
네이버에
##져요
여럿
사나
필요없고
철도
자원
이후로
작작해라
##지르고
##심판
진중권이
삼청교육
##구역
2030
월급은
##싶네
##놓으면
군복
윤미향이
이준
애들을
현재의
빨갱이들은
비극
##관계를
겁니까
##빨아
보기엔
때리
아베의
가치를
저들의
하는걸
거짓선동
잡아라
댓글러
중개
뿌린
봐서
참담
공무
##범이
고생이
여성단체
나라망신
##상한
고령
곽상도
기회주의자
잃고
선택을
##치며
100억
촬영
건들
기래기
##강도
하자는
자숙
80년대
미통당은
질투
##주시
##뉴스로
##로가
와라
2018
끼어
뭐임
설사
##셔도
##쓰냐
ㅇㅈ
세탁
##모음
##들에겐
망해라
##명이나
##다니면서
몽땅
안타깝지만
신뢰를
정당화
생각난다
한복
##토론
최악이다
##피아
했다가
일본놈들
사진을
가스
기업들이
대고
안잡
무혐의
##뜯어
##폐지
##한채
나타나
떳떳하면
아베한테
버젓
상대가
##이신
##생각은
놈들이다
놈이다
뽑고
김건
죽어가
힘내라
응원하고
내버려
선관위
##조차도
쇼핑
대단해
처넣
있는건지
##는대
쳐도
높다
조사해야
죽기
거잖아
엄벌에
포항
##금도
##못할
압력
불법으로
충견
##쪽이
##새퀴
안오
##수다
지상
점심
##둘이
경찰들
조선은
받는게
놀이터
전부터
타도
##라가
##던게
움직이는
헛발
##단말
그런걸
##들어라
잠재적
탈세
중국이나
직권남용
출산율
외교를
쥐새끼
맞나요
뭘해도
서양
저정도면
##나오게
묻은
형님
ㄱㄱ
싱가
불공정
어따
##늦게
##금의
##장의
문화재
##등록
마음의
일본군
##불쌍
##분야
##자녀
위해서라도
천만원
우병우
우기는
##해보면
일본차
다를바
##포로
있으나
피부
당나라
기웃
##직에
##경기
##들이여
국회의원은
##이틀
장관님
가족은
손학
위대
장난질
##회찬
##났으면
##있어도
짧은
날씨
벌벌
구한
살고있
대구에
진핑
장관은
그외
##보냐
쪽팔린다
지성
정상적으로
주구장창
소득주도성장
가족들이
있었고
##손으로
##침에
그가
안하는게
말던
원인이
##하고있는
##지않는다
시장에
쓸어
수준에
##는거잖아
##뿐이
##현이
우물
임상
공부를
다까
시끄럽게
문을
##인물
##ll
##종이
딱봐도
써도
##줘요
목적으로
젊은이
교활이
줄도
아웅
용납
페북
박근혜대통령
정의의
##진다고
아이구
망나니
너무너무
살인미
##전문가
양심은
우리한테
없겠지
##학과
##있어야
사악
독립군
판새
선거가
##드려요
처참
서민을
생각할
살만
노골
백두
넘들은
악마같은
완화
##기사는
어딨냐
##무사
가능하다
김남
##경을
딱히
##마가
시부
착취
후려
##내에서
##인대
##안돼
아껴
교회를
아프다
##고시
##킵시다
치료제
재활
이러니까
공개하고
양념
장본
학력
##통과
##00만
행복한
##인간들이
임진왜란
청화
의사는
##놓는
##발광
망가뜨
검찰조사
모셔
동정
이재명은
좆선
##됐는데
아침에
누구든
따지고
안타깝습니다
방식
혁명
종족
행정부
이상의
정책에
몇푼
이재용이
총장이
어깨
살아갈
잘하는게
일상생활
그깟
##가기
경제성장
##사는데
##지경
##폭등
##미를
MB
노력을
토착빨갱이
유감
##한다는데
하지마세요
놀랍다
##서니
식량
없어지
순식
조구기
응급
부분이
미국한테
##만이라도
##석을
##함과
있습니까
1시간
짜고치는
태평
나치
##얼마나
분은
판결이
치워
##수진
결국엔
방법으로
##줄게
표가
거짖
촛불들고
##할건데
거들
비판하는
##이해
하길
##판단
삽질
##크랩
자한당의
말인데
찬양하는
사실이다
##생각이
아니가
##것같은데
그렇게도
민원
줄서서
##키로
애쓰
돌아서
##가세요
외국인들
보증
##차게
즐기
히틀러
수령님
##하지않고
내밀
50년
새누리당
하는건데
착용
100명
가해자가
여당은
내려라
##국민은
시달
나이에
헛소리를
사람들한테
뽑을
##공사
그렇지만
##잡아서
##사기꾼
조작이
지랄도
지켜라
##을때는
##노인
조심해라
##건은
끝이다
##건설
마루
할려면
##면서도
나가고
담보로
통째로
꾸준히
미세먼지가
망하면
시전
똥칠
레임덕
##빠지게
낳은
수사하라
전기차
기자양반
부모의
서민들이
21세기
금강산
빙신
##키우
##궁금
##갑시다
사라지고
한때
사학
타이틀
김부
니네들이
말았
징용
##때매
세무조사
캐나다
##거같은데
##아니라고
욕하지
맞춤
쓰는데
길이다
##목이
울산시장
##락으로
시대의
쳐들어
건물주
쓰레기를
##계획
해소
##차원에서
어버
이러다가
비상식
##고요
장관을
##핑계
피의자
일본산
노친
일년
이라도
국회가
입으로만
나쁘다
분탕
한국으로
하위
살리는
##고있는
미쳐돌아
때마다
자처
OE
급식
이긴
##고를
벌써부터
땅을
가봐라
바둑
##버스
##보라
##지급
해달라고
엑스
못알아
이끌어
아니니까
서울은
##00명
실패한
답은
자살한
윤리
타는
못했다
김의
##만나
정유라는
경찰서
이명박이
되기
면역
##좋겠다
분단
추접
이중인격
보여준
##산물
안가는
국산화
일좀
한채
귀한
치자
##더니만
##무식
##속까지
나랏돈
케이
##국회의원
##사서
기밀
##데이
공정과
비트코인
과잉
비굴
있는데도
부실
##ed
징글징글하다
노태우
축제
머라
밤에
닥쳐라
##해주지
DNA
사람이라면
문정부가
차원에서
이면
갔는데
##말아먹
##놔서
##싶은
##아녀
##박고
치루
학습
기저질환
있을지
수법
편안
종부세
들여다
부과
칼로
뉴스는
##먹으면
##저러
이런것도
소대가리가
지지자들은
필요도
다하네
똑같아
작자가
돈많은
답글
회피
할래
##지않다
##없네요
##불러
모더나
자세히
종사
##독한
고립
그와
인수
설립
노래방
지돈
언론플레이
무엇인가
소굴
먹지
향후
##유치
관계가
보좌관
보조금
##행위를
천황
공부좀
국가원
##줄까
이런글
그것은
화재
##아니지
불리한
##전은
삼성을
나라다운
싶어도
터지고
보유국
명박이
올려놓고
##값도
예전부터
힘들지
한번이라도
종전선언
토해
뇌에
중간에
방가
의혹을
싸질러
##들까지
출발
노숙
자유롭게
##이거나
승진
##갔네
한미일
될것을
백신이
직시
문빠들은
##드리고
시키들
##셨네요
##체제
오너
##나오고
애들한테
사케
괜찮다
물어야
AI
이거는
##UT
강남에
##직전
##부탁
조져
분노를
지금보다
니돈
아닥하고
##죄는
중국공산당
국민분열
하고있
찌질한
민변
성형
공정하고
출퇴근
한번에
보안
지들만
##나옴
없어야
##수입
무증상
없는듯
년이
아놔
##비서
지도자가
받았다
보냐
존재하는
중증
탈영
##지않냐
남로당
전쟁이
##편향
휴전
비아냥
자식도
대표적인
소리야
사이에
아나운서
부정하는
무효
##약을
##가족이
더블어
그들만의
##해체
선거를
##십쇼
쓰는게
개그맨
균형
청년들
사법농단
꼴페미
하하
대단하네
안주
박근혜를
개솔
암살
피땀
##만드는
때부터
##언이
##하듯이
야비한
##꺼라
홍남
##차반
##계층
개헌
일들이
##인가보네
찾는
##교육을
힘들다고
망해도
##볼까
받아도
##하는거고
##나가서
헷갈
자멸
양승태
부여
##자로서
5인이상
집값을
못쓰
쫒아
버틸
아직은
경기가
##불능
일반인이
##상품
##자들이다
##더라면
##인들의
##영장
못배운
괜찮아
철판
소방관
멀어
원한다
SK
관심없다
놀이
만한
되도록
##찬성
초토
##고에
손학규
안전한
##자들과
이사람은
##니꽈
무얼
##료가
강남구
우스
이석
##다하고
##최악
##인이다
##되는건
##목을
##을수도
유입
##오네
로스쿨
술먹고
교회에
고마운
못하는게
써먹
##구절
보고싶다
한거지
천하의
불평
기상청
보내서
깜도
무식하면
남에
실체를
주특
##모아
##을거고
##지에서
##문학
##찍어
에이즈
잘하네
죽여도
대면
됐고
너넨
##햇다
코로나도
##해졌
막았
친인척
난독
##들한테는
소가
수사하고
으이그
##계에
집회를
유흥업
코스피
어머
않았으면
문희
전세계에서
반중
왔다갔다
똥물
이런것들이
##선다
##들보다
나오게
고속도로
누구에게
건방
녹음
##조로
불태
안써
김상
만도
##않는
철새
##ing
무슨죄
달창들은
바글바글
##6년
도와주는
재명
철밥통
없었던
##원칙
무마
환자가
이정도로
상호
커서
##자동
밖으로
증거도
돌리는
신체
욕먹을
운영하는
동부
분류
그토록
미쳐도
선포
##들인가
이익이
국가로
열폭
거네
좌지
돈과
살릴
2019년
영토
지극히
이름도
까도
노회찬
##개판
OECD
차리세요
유능
역사적
속국
##었겠지
자발적
떳떳하게
2명
모금
뽑으면
쓰는거
쓰레기네
판사들
민간인
##유럽
디스
서울에서
맞는지
붙어서
웃긴게
##치나
지겨워
미얀
##될지
공직자
##수없는
둘중
바미
볼만
거짓말이
뭐여
할인
모으
키우고
##불어
##비판
안듣
##들게
##기사가
##키고
정신차리세요
계엄령
##갑다
##고집
##새기들
##만세
얘들은
##정권을
##버리자
태도
이유도
선거개입
좁은
막히
##버림
속상
##거에요
ㄴㄴ
일삼는
피같은
이랬
##유학
오빠
##모독
싸돌아
신천지에
##조정
##찌라시
깨끗하게
##이미
##땜시
검찰도
경찰도
자한
TK
##리지마라
이용하고
현장에서
멘탈
홍영
##명령
이외
개개
인정하지
의사협회
당하지
하시지
나라야
##들처럼
조회
##여자가
마시길
어떤지
빠지
가기
세끼
금리
니편
선정
부풀
##저것
공무원들이
사망자가
##버렸다
사라져
##터진
사재기
왜이러
대해선
그때도
어처구니가
치명
먹어야
바라고
사람입니다
##잡을
순수한
##대며
사리사
뿐이지
할까요
배송
##소송
덜떨어진
##경은
##계의
노예로
순서
개방
사람과
수시로
시다
미성년자
적대
살짝
국가적
트라우
몰라요
부당
외교부
##멍청
하느님
##거리지
사는거
신천지를
우수
##삼아
쉬쉬
맥주
##실하게
##짓만
말했다
사과도
돈벌이
농락
권리를
##는디
세우고
반성은
##라니까
됐는데
됐네
##무기
주기
##셨나요
만화
쓰레기들은
수갑
##쩌구
##사면
내집
섬나라
잘못했다고
미안해
폭도
암덩어리
잔머리
##스럽네요
문제라고
##꺼고
어린애
매입
봤냐
##해를
##오줌
중국이랑
미국이나
회사에서
개천
대선때
각하
쓰지마라
조기
안하니
##답이다
개떡
##강간당
일본하고
쓰면서
##상대로
##일자리
얻은
##물며
전정부
할거다
범죄자들
시급하다
현실적으로
동사무
##재단
나가야
책임도
##청문회
지랄들
양심을
부메
##웠다
꼴값
외치던
패싱
##죽이
##거릴
시진핑이
##곳도
여혐
##왜곡
##한마디
기술이
속셈
헐뜯
겁박
대구에서
번호
##떼기
강경화
알수가
관행
싫은데
##호구
위원장
만난
입맛대로
##정권에
##보임
파견
##소로
##나불
그자리에
구축
안중
저출산
대항
살아야지
초대
진압
##감으로
왔는데
##족이
일방적으로
환불
##혐오
개판으로
해보고
양파
##딸이
##비율
원수
안보는
선동해서
##소리는
유체
사니
간만에
그나물에
이득을
김의겸
##아닐
발전이
변호사가
국내에서
##은혜
정인
기다리
없구만
##왔던
피해자를
깨어나
눈과
##하군
앵무새
대다수가
##쓰레기들
쪽팔려서
낮춰
24시간
연루
너무한다
옛날에
##택시
##심도
메르스때
뿌리고
##자살
개콘
보여줘야
저기서
##같고
같은데요
둔갑
##원숭
주장을
##가구
댓글모음
이명박그네
##쓰기
##시기에
##자나요
밥도
이년
당신들의
좌빠
##란걸
스타일
도적
##할일
##에게만
문제의
지지층
기사제목
사리분별
##줄알고
좋습니다
자기들은
최신
그는
##전화
말하는게
구원
재수없는
매춘
##갈때
반공
엘리트
##가튼
알권
바보냐
친일파가
왜냐면
##합리
##숙한
말려
식사
##티즌
이들의
##감사
불쾌
요리
뒷돈
예쁜
##않고
이게나라냐
##일어나
##서비스
해임
잡아넣
돈좀
##위험
편협
기관총
전라디언
##법안
등골
추녀
제보
일로
킹크랩
버젓이
속시원
##대접
집회는
쯧쯧쯧
##무는
물에
##자신
##다보니
##회를
구청장
생각에
목소리를
만나면
편한
##야함
어쩐지
##타임
##했었는데
실어
창조
확률이
##좋고
세계에
멈춰
성소수
##합의
혹시나
##대서
구속시켜라
진리
북송
욕이
무책임한
짜장면
두달
아이들에게
했잖아
너한테
##간거
암울
해찬
쿵쾅
김정은의
거짓말쟁이
변경
동감
##침을
장사꾼
미꾸라지
하고도
안했으면
##사건은
욕설
애써
진즉
##통은
한기
개혁은
##된다면
##홍어
악성
##소한
제정신인가
수준은
그사람
어쩌나
짓이다
팔면
시즌
일보
더구나
가네
대하여
문프
국대
나오는거
##하시지
개차반
짓고
난리네
뻔뻔하다
거긴
내기
주댕이
##하믄
웃는
##팔아먹
군인이
##천히
##병으로
김문수
조국같은
마루타
종료
순교
넘어가는
됐지
대통령이라는
##경제가
##있다는
없을듯
##후손
##직한
챙겨라
국제적
막말로
남는
##자식이
##따로
조지
자한당을
성범죄자
우리만
조사하면
가동
어긋
##먹지
##km
증상
차관
궁금해서
핵폭탄
있었지
여튼
빈부
편집
##질도
객관적으로
단호
##이한
주로
입당
어른들이
조아
##og
안되는게
공공기관
##사회주의
##모는
대선후보
젊은이들
달창들아
##봐주
비난하는
안지
비판을
외쳐
안보이냐
윗대가리
되었으면
언제쯤
스쿨
좌지우지
녀석
똑똑히
포용
##길로
##적이네
imf
행위를
않은데
북한가서
미쿡
##플레
선거는
앞날이
친미
보는거
순진한
안티
적반하장
인재가
망해야
##하기에
잘알
##세도
나올까
##부터는
봤나
말살
영양
##키트
시체팔이
얘들
강력히
##구마
##없지만
벼슬
다른거
우리보다
명문
중학생
늘리고
##스에
##오는데
##구치소
##고싶어
##파티
방지
이국
제목만
댓글보니
##없는거
골때
##왔네
정시
##한다며
관료
병원에서
뜨고
##지말라
능지처
니같은
바꿔서
교인들
5월
속에서
##어떻게
애미추
오르는
쪽바
##질까
끔찍하다
생활비
저래도
옳다고
부자들
이분은
낮추
##물러
걸리고
작태
잘가라
##수급
전광훈이
경우는
##수업
발뺌
법치주의
##할려면
돼지가
보냅니다
시키지
##말던
도태
귀가
##각이
위원
짱개들
한발
##마련
##야할
장례식
##챙기
문씨는
초토화
퉤퉤
누리고
##하거라
시원찮
모른다고
행태를
##동의
##하지요
총선은
생명이
활성화
증권
얘들아
유언
아들도
원장
고래
독재가
외국으로
해본
갤럭시
나부랭
양극
이론
의지가
금메달
##창출
상태에서
##한심
집어넣
조국이가
기레기들이
핑크
그를
전용
별걸
날리고
다하는
도를
이것저것
서민은
##것과
##이나하고
씹어
축하합니다
등의
##시효
도덕적
아네
##사지
국가보
방역을
소비자
한심해
의석
##행정
살살
위태
유체이탈
교회에서
농담
시인
응원한다
확인하고
##대처
해야죠
##적으로는
후안무치
##증명
실형
할짓
비공감
##분들도
비공개
##떨고
안돌아
몇이나
##한테만
열린
##리지도
##먹어라
이정권은
들으면
살라고
당첨
415
되네
죽였
##수출
이따위로
안했는데
끼워
처분
이런식
보기싫
국무총리
2배
##쳐먹은
몰살
방역에
##같아요
교인
##지검
진정으로
편가르
##ic
당해봐야
##대나
##무니
지민
##스테
##버릇
독립운동가
여론조
##방위
무언
성능
과정
지난번
##대단
##도의
무섭고
이여자
걸려도
##집값
심정
##기의
##4년
여전
직원이
생각하는데
나씨
되겠지
뿐입니다
천천히
당근
집합금지
생긴대로
선의
##의식이
##연봉
##드가
케이스
찾고
##사망
없었는데
살리고
##발로
##시키려고
##대상이
##한거임
##제공
재산이
깨어있는
법관
이놈아
셀프
누가보면
장식
까면
어르신들
지키기
##이었던
외교는
보지도
우파가
기레기가
찍어서
드러난
팔아먹는
##집단이
늙은이
기쁨
##천만
연합뉴스
역사적으로
등돌
진지
입국을
##에서나
앞장서서
인정한다
그중
##면서요
##치니
대장
앞잡
철학
하겠
정신이상
되돌아
왜자꾸
기본이
##느낌
근거로
##법무
해결책
##안해도
##은행
폄하
##코스
알텐데
##국민들은
##거주
사건에
쌍용
당직
문베
##늘어
윤짜
시댁
##파리
##롭다
꼭두각시
비교를
끔찍한
하는말
10명
전에는
##질이냐
##이니깐
대다수의
없도록
주5
물갈이
##속히
인권변호사
수석대변인
만일
글이
앞장서
##있나요
도무지
층간
만드는게
배신자
저쪽
##겼다
공수처를
과거의
주냐
다니지
그룹
불렀
##꼴이
이리저리
부지
방향으로
##머리가
안보인다
간부
그러니깐
마디
선거조작
구속하라
##저자
그름
악랄한
##절대
굴욕
자유민주주의를
선을
사로
나두
대대손손
약간
##한태
그러는데
##편에
38
부부가
구구절
않는가
화폐
단어가
##대전
##망상
민감
##할뿐
같다고
##하든지
잡아먹
##거잖아
##으니깐
입닥
##명단
독선
##할배
많네요
난리인데
조국에
주워
있을듯
공개하라
무너지고
사는지
청와
늘리
약점
상상도
사기를
부르고
살던
해대는
되는거야
민심은
##보는데
조국이나
딸도
기자들이
##출동
사형이
##넼ㅋㅋ
일입니다
이낙연이
싹쓸
오랜만에
김태
묵묵
##토착
하는건가
죄냐
##허가
##렸나
살아도
바람에
##기소
##르네
돈버는
##명한
##같냐
나오는지
##문제로
##세먼지
직업이
방역수칙
10월
문정권은
더큰
여지껏
##님께서
걱정하는
집단이다
만드냐
##났어
효율
##만원이
맞벌이
##력에
벌어서
자르고
하러
잡아다
아무데
이해할
눈치만
보내자
조국처럼
생각하는게
이래라
생겼는데
입니까
##때처럼
##보내라
문다
판치는
쪽바리들
그런식으로
다른가
깽판
뭐했냐
33
경찰을
황희
부동산은
좋다는
연일
무고한
옳다
형태
##요청
혈압
##봤나
##와야
##적용
시점
능지처참
두껍
면죄
잠복
##의원들
만드는데
##잇는
##박한
책임지는
##할라고
떠벌
여러번
외국에
주는데
적폐가
개인적인
국민혈세
##예배
##싶어
종북좌빨
##안고
##르다
고추
엄연히
##죽여
터져
상식적인
있더라
##하셔
일식
얍삽
한다는게
입장에서는
이지랄
마땅하다
격려
딸을
이해불가
하늘에서
##수고
수십년
눈으로
보이면
주식시장
가운데
떠오
그런거지
##동을
##진은
잡았
존나게
너희들의
짝퉁
한국과
지능순
볼때
구호
싶고
우동사리
##군다나
사명
아사
논리는
##편을
얘기하는
윤석열총장
대통령에게
황씨
강용석
종양
장난하나
##오염
##묵고
지네들
수십억
심사
##은건
아니라서
미통닭
##테러
두들겨
원인은
##종의
##두리
한기총
죽겠다
끊어
##기생
재활용
되려
믿을수가
##면을
쓰지말고
가는거
무대
##외로
괴뢰
본적이
##병을
##색기
시대를
앞세워
##바가지
골목
디질
좋은일
##ㄹㅇ
깔끔하게
양부모
##그리고
##지옥
밥먹고
안받고
그짝
조합
삽시다
##아야한다
돈벌어
안되니까
##감에
트롯
판국에
설훈
좋아라
느끼고
내정
적폐세력
드러나
욕하면서
##해보고
사용하는
많으
집합소
정의로운척
때린
미사일을
세치
새벽에
##사이트
사단
이상하네
침뱉
##국주의
돌이
문제고
##만들어서
##기업이
본질은
보기싫다
다음엔
끊임
##내역
##면에서
잊혀
##데가
##금액
권고
지금이나
아세요
##절로
막가파
형성
##인거냐
굴복
##그림
고고
정지
하차
방송을
미국처럼
맞잖아
한것도
##전략
하루라도
상장
##워요
현역
꿈꾸는
2위
유신
하물며
막지
두꺼
심재
집단들
##차단
보이네요
고려대
음악
사장이
세계적인
##오래
the
##보려고
괜찮다고
정쟁
인가요
##몰랑
지구상에서
##때려
일인가
정답이다
박대통령
절망
딴나라
안올
북한처럼
들어올
ㅍㅎㅎ
##한다니
포르
##권에
무작정
호의호식
공연
##겄네
칭송
대통령이냐
이때다
집단감염
##이어
못할망정
감정이
안하네
소원
어우
쓰레기다
품격
##고있고
입장을
##유의
##as
한몫
거짓을
해서는
의료진들
##미국
##님과
긴장
알려주
문제인데
받는데
때문이지
나왔네
핵개발
좌표찍고
말아먹는
이러고도
##이와
##공급
줘서
마비
##음식
##비아
고맙다고
만주
##회가
친구들
해제
##경험
##화하고
노인네들
박지
##진창
조국가족
말야
##민을
김정은이가
죽이기
##거려
조현병
사고로
##때나
##님들이
비교가
##류가
줄을
##세우
이말
이놈들
경제보복
알고보니
안중근
##될거
BT
NO
악법
하아
국채
권력은
쩐다
씨부리
북쪽
환장한
적폐다
가리지
##엇다
화나요
잔인한
결단
##뽑아
갱상도
##여자는
##해온
##재를
써야지
문빠들이
##가보다
##거리네
제정신이냐
##세월
지오영
##표현
##표를
무료로
쥐고
고스란히
니들이나
##이라는거
입도
바뀌고
짐승만도
##든말든
##버렸네
맞아라
##규명
됩니까
재단
##한들
##아무
상가
피해자의
수리
주소
이상하지
공부하고
##애미
##우스
어떨까
느그들이
##줬는데
말던가
조선족들
높이
##면에
문정권이
있지요
##절하게
##인한
보내면
몸을
##졌고
##는지는
의사를
가계
말지
넣어라
##im
흠집
##견을
혼밥
원천
놈이네
하노
##당하지
오냐
##마저도
남탓만
##장구
국익에
과반
그러다가
##값에
못해도
문재앙아
남들이
태어나서
##인트
##연기
오랫
백화점
여의도
투자를
##발전소
모양이네
8월
##또라이
##대면서
##시키는게
흔들어
끝을
##공신
잘못한게
안하면서
앞에서는
총동원
않니
보관
올라갈
상속세
수준이네
흉내
났다
역활
아니잖아요
민중
이북
반으로
부추기는
##무섭
자전거
##던데요
내서
##다니며
마찬가지다
##보라고
먹고살기
정은경
이들을
내년총선
##하는데도
쪽팔린
41
장기집권
틀린말
지식인
찍어준
##방으로
하루이틀
화이팅입니다
못하겠다
##양심
##뻔뻔
메인
이름만
##는다는
##는거보면
##주인
진보의
베이
##하네ㅋㅋ
부려
북에서
3개
앵벌이
반토막
##했죠
##전파
처박
답이없다
면접
민망
것들을
발전을
세금내
덮으려고
치워라
대중교통
더하면
설문
능력은
사야
##중앙
종교를
검경
이건뭐
##프라
##부정선거
대거
##ot
하는구만
봉사활동
들러
임은
##놔야
법위에
당황
빚이
##김에
보여주기식
영세
치뤄
미래의
말같지도
아닐텐데
할꺼
파고
뜬금없이
외국인이
가성
년놈들
마케팅
숫자가
나쁜짓
정치질
미치겠다
짜리
자한당에
##레기들
ㅎㄷㄷ
문재인에게
##자체를
물어봐라
##프로는
뭐다
문재앙이가
##지마시고
연동
강아
육갑
일본놈
##이었음
접수
장교
실화냐
##대선
##해달라
중동
##잖니
덮고
##익을
소득이
3류
첫번째
흉악
무례
##평생
##세워
##을라고
이해는
##더미
3명
##자면
##나나
##까지만
주뎅
광우뻥
꼬우면
규탄
##낫다
궁금하네요
자빠져
의견이
##도하고
내보
판사는
##버리지
않네요
독재국가
본격
##대밭
구구절절
소련
외압
못한다고
세상이다
망했다
자연스럽게
계급
검사는
배현
##하거든
주는거
자유한국당은
있다는걸
편을
미쳤나
##언제
##맞은
놈도
뿐인데
##학원
##네는
너랑
우상호
##하란
##역사
##하셔서
우릴
소녀
심어
##위선
모이는
탈취
##촛불
증거는
눈빛
잘한게
세금폭탄
쓰게
몰빵
신규
안갈
가방
조장하는
민주주의는
##기라도
공안검사
자초
죽음으로
모이지
##줬다
과장
소시오
카더라
살인을
말던지
말바꾸
브라
정상인
욕먹는
감싸는
외식
##자니
장관으로
고위직
개탄스럽다
##업을
날로
출처
경상
알았지
논리적으로
32
음흉
가뜩
##사람만
2개
튼튼
##성한
불이익
조심해야
경력
악마의
업종
##어려
공소시효
##차도
운운하는
달래
못막
찾아가서
무단횡
더군다나
양키
살처분
##자리가
알아보고
키웠
바른미래
이정
자위대
OUT
오후
왤케
머지
덕분
##갔냐
만든다고
적절한
했구만
줄줄
##풀어
똥오줌
##자한
조중동이
##이었고
수당
생각안
##새끼들아
한번만
생기고
볼때마다
고액
내다
##수야
##했나요
우파는
아닌게
우월
죽여라
들어가고
성공한
구속해라
공화국
명분이
##친거
##경화
##신가
##치우고
신경써
##사업자
##성의
니들만
##정책이
##아이들
맛을
급급
버림
##드릴
사고는
패널
나네
중권
##대장
벌레들
구라미터
##졌냐
주시
치를
통한
아베야
닭근혜
안산
일기
##대라
부끄러
알아봤다
공수처법
##주시길
비리는
대책도
레알
패거리들
떨어져서
시장을
과감
스쿨존
경제적으로
##계에서
7억
##문제를
오십
##르텔
달창들이
##영향
어렵고
연속
눈치를
슬퍼
도대체가
나이도
거듭
고딩
결혼을
이럴줄
##빨고
페이스
기대합니다
연예인이
##을땐
판단이
논다
##업이
지지하지
다음날
멀었다
##보이지
거라
주주
저축
심재철
본능
김기
저소득층
있을수
댓글들이
가벼운
5일
저랬
편드는
##치는게
##것보다
##발생
##왔으면
동선
잘못이지
넘어가면
말이죠
나아가
뇌없는
##나가고
가득한
##뿐인
민좆
이것을
있겠다
숭배
빼고는
암만
##이라더니
손해보
설령
##웃음
신나게
주권
보건복지
##고있으니
압색
##꾼들
##동포
한테는
사노
##방지
문재인아
재개
비위
아멘
북한하고
##인구
##스레
##회용
외고
백종
주진
##긴데
분란
다녀라
##할때가
##데리고
궁금해
##주니까
우매한
가짜뉴스로
빚을
##역할
가뜩이나
##우한
노비
크고
회사는
연령
##도둑
똥은
한말
##달아
##움이
물을
하루가
보여주세요
##할께
심각하게
전액
생겨서
사람이면
통일을
자행
빌붙어
양심에
들어오면
못받는
기본소득
##소음
국론분열
추가요
##마세요
뉘우
##하시나요
홍영표
##주행
되는구나
싫음
디자
##되요
김용
했어도
닥쳐
밝혔
먹었
하기사
##가치
만들어진
##렸냐
##국민의
##일수록
꼴에
떠드
먹어도
##같아서
단순한
감정적으로
자존심도
주옥순
상황은
팩트다
민주주의의
부른
감형
더듬어만
있었다면
##을뿐
치부
##집도
좋아하고
한숨만
모시고
##질이야
산다고
하향
불법이
##하면서도
##따리
논리면
가리고
이후에
특기
학생이
##부동산
##버둥
해결할
기업에
##시킨다
돼지들
공정을
스럽다
근거가
살아있
##러스
꿈을
전가
소개
사라진
있었냐
외치면서
잘하지
백인
##기는게
##랐다
##쇼를
난무
모두다
과도한
석유
##청정
##봉쇄
하도록
바르게
돌아가라
죽지
싶어요
그만해
뻔하지
그러게요
김정일
미얀마
밑바닥
##나쁘
들었다
안되요
##론하고
막대한
하겠나
뻔한데
우르르
영광
뜻대로
교육이
##주장
##았습니다
먹어서
하느라
못하도록
##판이
50만원
창원
등이
회수
##럽네
##구멍으로
것보다
당하면
##린가
이룬
남자도
고무
##공약
4대
##갔으면
팔아먹고
##요구
투표로
국정을
##주변
##권력을
나라꼬라지
##지못한
4억
정치검사
##량을
날리
집유
무엇보다
미처
참내
편들
렉서
초딩도
##될것이다
저런건
변하지
검사도
유급
##당아
국내에
하는일
수사하는
##소리냐
##한대
욕먹고
##it
##복귀
무릎꿇고
하고있다
니놈
대립
##물도
신천지랑
등으로
흡연
매국노들
신천지와
주무
범인
급격
다알
##상황에
콜라
잣대로
눈감고
##리는대로
있었음
양아치들
##이었네
가깝
자신들
##공동체
노가다
답없는
마저
개잡
퍼주는
돈이나
##하기만
개미들
빠져서
털면
타락
한국인은
1주
의사면허
수급
개망
발병
화난다
지옥으로
##가는건
대결
되었는데
선처
어울리는
사탕
경인
꼼짝
##망을
풀고
##등신
무능의
헤어
국회는
관한
했구나
월급을
문치매
박근혜도
내리는
실력이
BTS
문의
반칙
합작
목숨이
교묘하게
옆집
##끝나면
부리는
세계의
공갈
법무부장관이
기사쓰
잇는
문대통령이
##마시
아무말도
부모들
작금의
능력을
사죄하고
미애
일자리를
발사체
답을
만에
문가야
##천국
전국적으로
경쟁력
7시
그전
주면서
욱일
아메
너무도
사건의
합리화
성조기
엉망진창
깡통
##찬양
동지
대통령이다
##부턴
##강점
##씨의
대책은
너네들이
이영
총리가
아니면서
지키지
해줘
못하다
##브라
중국인들이
인식이
북한주민
##지는거
멸종
##자네
빨갱이라고
젊은이들이
권위
바꿨
이하도
일어나는
낄낄
##점으로
따름
##해야하는거
##가져
##초에
서슴
님은
##조절
파리
국정조사
저년
삼성전자
##수령
중국놈들
공감합니다
9월
듭니다
혓바닥
동영
##해준다
입장에선
##다오
무기고
얘도
망조
이성을
드러내
지워
##해야하나
가치도
시작이다
해군
##ve
아몰랑
촛불이
##분양
##부리
그보다
그랬다
더민주
문제도
클라
##하기로
##박탈
##많은데
##넘아
기회는
찍으면
##윽시
##부의
한수
달린
불을
##맞추
변질
##거리면서
##ir
##XX
##따박
성인이
말한다
##픕니다
##하는군
인간이네
국회의원도
잘가
시정
솜방
내려놓고
나지
진영논
##진을
##하는듯
바짝
언능
올바
종교는
낮짝
피해의식
이정도는
번역
쇼하고
늙어서
유투버
못이
나옵니다
지잡
쇼는
미군이
##있다가
검열
##커녕
조작으로
발급
훈훈
##유출
논란이
##지네요
언론들이
먹는다
##프트
자국민을
##당하면
입장이
##진않
##밑에
##하기위해
##사니
국민청
상황인데
학교에
##긴한데
##대표가
개소
오른다
##어울
##검증
무려
연휴
낳아
자유민주
못내
하기야
대박나
##다녔
문가놈
이만큼
##다는것
모르겠는데
성과급
감금
정권도
반정부
처음에
곳곳에
성립
총선이
##문은
표창원
임산
##겠노
되는거냐
유병
나랑
##사례
테슬
당연하다
쿠테타
가장한
홍수
우한에서
말아먹은
정말이지
대응을
25때
##형에
##입장에서
##존재
반란
안내고
지출
범죄는
더러워서
##정치를
잘돌아간다
아베를
해결될
##확산
어쨋
확실하다
기업의
부산시장
견디
##못한다
않았을
##벨트
한나라의
우울증
저지르
좋음
##불안
##는데요
##개도
추행
##맞다
신혼
성질
사이버
하나님을
##했을텐데
n번방
법원이
쑥대밭
##줄아나
세입자
사건도
무게
천벌받을
##온다고
유린
안하무인
##한것이
본토
그로
터졌
잘한건
세계최고
배아파
##쇼핑
##인들에게
출신이
취약
바로잡
##전부
자민당
##보나
너무나도
할수가
반대한다
시점에
##트리온
생각해봐
##시하는
국회의원을
이나라에서
고생하는
두려운
전복
한계가
근본적인
##침해
멍청아
비호감
##교육이
끝나는
##대사
##정권에서
윤석열을
10만
일왕
공개적으로
경제파탄
믿으면
인용
자의
정의당이
발버둥
##눈에
책임감
잖아
##대회
부정입학
못살겠다
연평도
낙인
쓰레
##가해
옹호하고
로봇
##치에
내려야
장비
##듣지
##챙겨
##었네요
가세연
따박
낮아
##곳을
##말하는
있기에
권력형
메뉴
##신다
너처럼
내몰
##되었다고
95
##한놈
경우도
주말에
올려야
##사구
차는
하든지
##잘하는
재산세
##는거보니
그놈이
이기는
위생
좋아할
##들좀
기세
없는것
없는거지
지껄이
20억
##댕이
너거들
습관
##문제다
행동에
도찐
구만
뇌는
형이
직무유기
나네요
사법부가
코리아
3040
단교
##겁게
부모를
자유한국당이
##거리냐
##발을
뭐만하면
##어는
과거사
웃기다
있는건가
중심으로
기회주의
분명하다
해보세요
##당하게
사람이네
알바비
##덜이
죽어가는
월급이
날뛰는
생각과
##입국금지
황운
##려요
너보다
정의로
태반
##단속
사실인데
감추고
지면
하시죠
말해도
불만이
전세계적으로
실업급여
##등은
쓰잘
##접대
애초부터
##말의
원전을
진정성이
배출
사돈
개처럼
저런식으로
##전용
주둥이를
마오
미래에
완벽한
불신
잘하는거
나서야
뉴질
과거를
문제앙
탓을
한놈
##롭고
기다리는
안되나요
머니
##전도
의무를
망해가는
같지도
최하
갈라치기
중요하냐
##흘려
##000원
일어났
바다에
없어지고
부도덕
싸운
##주빈
##타도
림종석
대통이
우리동네
거리가
##대통령은
5인
돌고
역겹고
애완견
민족주의
두번다시
표현을
봤으면
혈세를
공간
않습니까
34
##공유
##준이
가족도
전화해서
애매
기사네
문죄인과
안감
연말
유은혜
##버린다
예민
##해산
##력과
세계적
싶은거
위안부할머니
대깨들
말하는데
문슬람들
용인
##직으로
##욕에
우리나
말이네
참수
##답네
인생은
##소니
사람죽
##라고는
##스코
미친개
성관계
싶을
또또
더부러
일이지
빨갱이를
불평등
보수꼴통
##할수록
꼴통들
만든게
##사들이
회사에
부끄러움을
못참
일본이나
##방을
##시켜야지
정신병원
세월호때
일한
##명에
사업을
감사드립니다
##취업
실종
이준석
들면
어땠
짓이냐
##시국에
##고있냐
뺏어
낱낱
##병에
기승
동북
##서민
해야하나
납품
대구가
내게
잘되
에너지
맞았
##하시나
않겠다
##인냥
비디오
하는일이
선동으로
자신은
생각해보면
대화를
얼어죽
##운이
해야하는
억울하면
전도
이땅에
고장
해야하는데
백신도
모르는게
5g
##올린
조선의
아닌건
모든것을
죽창으로
용서를
테이
토착왜구당
##천이
그닥
##겠소
알지만
##해제
차로
코로나때문에
거둬
지속적으로
사전에
클릭
적응
##말라
##84
아니란다
알수있
##인건가
리스트
살아가
세금이나
한줄
600
쪽으로
##거로
웃기지
패륜
##주려고
세상의
신재민
과대
명단공개
##까이
##이상은
##해선
조국이랑
연습
##구조가
결사
##더러운
##연예
##화이팅
##짜증
공부해서
아이의
##렁이
##것들을
인제
바라보는
되겠네요
깽깽
##바타
아니더라도
친일매국노
안주고
CC
##지는구나
##이었지
간에
디져라
바지
해볼
한정
##부르
경제활동
용서가
##하는척
처음엔
6월
하겠지만
##하리
나오는게
물건너
##결혼
환자들
선택한
네티즌
정서
##불통
나을
치욕
되었네
임대주택
단죄
3만
기피
없어지면
##자빠졌네
애들아
##스러울
##모가지
목에
죄책
기사좀
##갑네
곤란
고가
난리가
기준을
알았네
##싸고
##아들이
말그대로
기사나
##등으로
##보고도
지랄하고
##거같다
수록
##미나
국회를
간접
특혜를
헌법을
##지않으면
팩트로
할머니가
##마을
쓸모없는
뵈는게
사회주의자
개판이다
정부나
댓글만
걸리는
돈없는
바램
몇시간
바꾸면
##키야
##히게
못합니다
흡수
수색
이러는
저딴게
그자체
띄워
##군대
가격을
##토리
늬들
##할때까지
##휴가
때문입니다
나설
적을
오락
챙길
중에서
##부에서
친한
##해야됨
다르다고
입금
때리는
##장과
##신경
저런인간
싶음
저새끼
세계를
드러나는
바이러스를
여윽시
살고싶
만행
하하하
잡아다가
난리야
생각한다면
돌파
일조
나을듯
행동하는
자부
##말이냐
표현이
앵커
##내냐
##뽑은
##정책으로
화합
##대구
200만
몽둥이가
##비하
##니들
무능력한
의미를
A4
그들에게
고인
##교수님
##떨어지는
지구를
250
##차량
##끝나고
관상
짤라라
냅둬
보아
##개의
낫다고
불구속
실체가
부모들이
침투
##날에
##내로
서민이
한없이
뿐이
상담
내려놓
여기저기서
##부림
##깁니다
빨아대는
미국인
라임
분들도
대일
##이렇게
색기
갔으면
뽑지
얻을
후원금
백신은
##있을까
화가난다
상관없는
실무
부러워
전북
보살
처음으로
미친짓
실수로
제도를
묻지마
되는거다
##한이
외제차
관계를
PC
문이
문제입니다
할때는
##원지
##깨진
보존
셀트리온
자유는
당선된
하거나
##모든
반대하고
출석
납치
청와대로
동해
##마누
정은아
변이
성추행범
천문학
##교주
동맹국
##넘의
조사도
##그럴
사과해라
이해안
조주빈
왜이래
매주
다르고
구역질난다
대안을
##중심
악마가
상납
좀만
다행입니다
달게
또라이들
국세
##한답시고
과태
김정은은
좃불
##세탁
오지마라
##천명
손자
찍는다
##더구만
##과학
저런데
주민들
뒤늦게
정통
##관에
검찰청
저렇
##응원
강대국
위기를
추구하는
##관심
악수
##끌어
하찮
##맛을
##할때도
갖은
아니었나
가격은
지금와서
귀에
아우성
##잃고
##개찐
구시대
지대로
갖다바
몸으로
오타
텅텅
조리
냅두
발달
말인지
신세
졸개
##도다
##주식
강원
거세
레이
사람인가
##종자들
예배를
##새가
국민투표
2017년
돌아가고
징벌
국어
짓거리가
##겄냐
한거냐
다니면
전화로
누군가는
강간당
일본기업
##이의
남양
실드
##본적
넘치는
##폭동
받으세요
##보는게
링크
##어머니
해야된다
거슬
연명
미사
##안은
불가능한
분별
순식간에
##발의
경각
도요
있으며
##으시고
수감
쟤는
몰아내자
유유
##90
하소
속을
여자의
##거에
모두들
##되나요
전전
깨져도
##기라
잘못한건
전라도에
##le
조중동은
나이를
돈버
난리냐
사료
누나
영부인
적페
법대
##석아
종신
알았냐
한심하네
실세
##내미
배워서
들어왔
##했는데도
권리가
나게
구질
했어요
설리
##든다고
##듯하다
궁금합니다
도와줄
부정하고
권영
##떠는
##지진
해킹
포토
시다바리
입대
밀려
##협정
##극우
##시계
열고
못구
기생충들
드립니다
##선엽
##품을
페미니스트
떠는
막걸리
슬픔
소수의
토착왜구들이
경제나
마주
한명이
##강이
##리핑
##자식은
행세
##살림
설치고
##해봤자
어쩌니
통일이
교육감
도덕성
se
정치판에
데려다
80년
터뜨
##해야한다고
필요없는
막무가
##스러움
##일날
이야기가
살수있
기레기들아
얼빠진
남의나라
좌파독재
##우니까
##죽은
가라고
갔다가
우리편
낫겠다
아끼
##원들이
현실에
공산주의가
가볍게
논리를
개소리냐
사진찍
짱꼴
캡쳐
허술
대변인이
자기의
##만큼도
##세상이
##생에
날짜
##하였
워마
실상은
##고루
바보들
당은
##졌어
저번에
자원봉
야구
열불
##진행
만나고
어른이
##말자
부인이
pc
떨린다
냉정하게
##번이나
##문재
노조는
지맘대로
충청도
귀국
신봉
##래기들
##시간이
기냥
##구름
##될거다
##꺼라고
5만원
문재인한테
신천지나
개판이네
1만
놀랍지도
##군을
코로나바이러스
##같은게
사먹
##셨다
아니구나
암것도
30프로
조사가
능력없는
발휘
##라네
말씀이
넘는다
##하십니까
##쓰지
내놔라
##아아
##줄아냐
##수준으로
봉급
상관없다
똑같음
운운하며
못느
장병
조작하고
##살자
##옹호
나락으로
ㅅㄲ들
목줄
##없어도
국민으로
우유
##무역
지리
들지
합당한
걷어서
미쳤다고
##방문
##바위
라인
문다혜
##타워
씨부리는
##에대해
##자냐
얻고
##안되면
혜택은
충실
##반응
특등
모든것이
왜냐하면
##물건
이러지
물어보고
김남국
가득찬
##아깝다
원하지
체험
헝가리
##작전
생긴거
이슈화
##기구
동학
묵시적
##부리는
이런것들
통하는
야합
##사건건
말해서
알만하다
만만한
통장
##품이
키보드
갖추
몰상식
형사처벌
##시키려
따질
마누라가
백만
피로
##겨야
##죽음
9억
##령이
##저지
우덜식
중화
조작을
아시죠
나라인데
##하는사람
불안해
아쉽다
대가리를
상대를
75
눈도
뒷전
잘되는
##것인지
여성을
저급한
##필요한
받으려고
그래봤자
트라우마
정은이한테
##단지
그만두고
수사도
말이라고
뒤가
출시
안해주
##자인데
현행
##부대가
##매도
미디어
40년
늘어나고
통일부
못차리고
##유학생
사진은
꼬라
다르면
##꼬라지가
공익제
##는거여
##한거는
두배
부리고
앞으론
##들여서
1순위
원본
알어
##졌음
대께
초래
호황
여성의
##정책은
가구
##노래
많이들
방식으로
##시까지
회식
인과응
심신
집에가서
##국이다
##낮은
느껴진다
국민들과
입사
예언
##쪽바리
좌빨이
50프로
위헌
남편은
나왔으면
한적
아프면
유아
일제강점
##월세
##실로
##못하면
처신
인간적으로
바치
##있다면
##대다
비꼬
##해야하고
막힌다
상식을
말하네
막은
상습
투기꾼들
제목이
##쟎아
##렸어
계집
비록
백선엽
신경도
시작한
##앉아
하나를
알고있다
##보다가
대기업이
살피
##산에
청정
빠뜨
이국종
통합당이
##양간
최고로
밥을
##는데는
엄중한
해온
##나무
편들어
목사님
가혹
입좀
##미리
비닐
사기극
줄여라
못하는거
##적이라
국방장관
일자리는
앉았네
더듬당
공주
급하게
프레임을
몰아가는
부르지
부탁합니다
사로잡
도려
천사
##없을
##사구팽
우두
##간섭
후보로
납득이
베스트
제약
흔드는
언론개혁
발목잡
##세력들
##냈다
착한척
안가면
푼돈
##아저씨
##걸레
알기나
아이콘
21세
추운
대가리는
먹으면서
두번째
국민들아
##려다가
##이었는데
동결
빌라
조절
탁상
모습은
##했다는데
##하려나
드네요
안가네
노력해서
분산
##인것을
영남
거짓말에
이라니
때려라
보상금
똥이
다물라
운명
복무
기어들어
누리
널리
조작미터
물이
스스로가
혈안
##놓은거
묻고싶다
좌빨들아
##급식
대륙
자한당도
##보러
신천지도
참신
##자슥
똥묻은
##이전
받기
만들어준
집회에
필요하다고
언젠데
밝혀진
##파업
스위
주목
##마리가
보석
저들
##길에
##탈을
##군은
##친다고
##일거다
나뿐
##릴까
회개
하시네
엄마는
부자가
되는건가
사사건건
신도들
천하에
곳으로
윤석렬이
착하게
##능후
##다구
투표를
김태우
발광을
카풀
##살면
마감
##밝혀
##정권때
준비나
##맞네
차원이
문빨
##중계
##중단
부동산투기
##스스로
ㅅㄱ
##op
방패
스카
응원하는
났는데
무리들
나같으면
이럴땐
부족해서
가거라
탈북자
고위공직자
누구인지
##하겠어
보육
신경안
안보를
##바닥에
잊고
가상
##수만
약을
줄고
것이라고
옷을
끼야
사회주의로
일일이
양반이
불어
딴지
##악마
인간으로
학교도
모지리들
정년
연출
일치
깔고
폐지해라
하구
##신들
대통령에
저러는
없어져야할
정녕
자기도
제외한
국개들
##귀를
##조선족
세게
##하자면
국민이다
##뿐이지
고백
비추
묻어
##체류
문구라
자살을
백프로
빈부격
맞어
##되었는데
신선
한국만
##나야
할줄아는게
##고는
k방역
팔이
##주소
일가족
물러가라
나는데
일본만
오라
딴소리
정당하게
첫째
2년만에
##도없다
예수님
개구라
##놈들도
신천지로
도찐개찐
일이냐
읽는
문제에
##회복
메세
집한채
뇌를
기득권을
보급
다안다
수장이
##하내
##인배
맥락
팔아먹은
보지말고
월급도
문정권의
##겄지
빨갱이들아
경원
##안되고
폐기물
남쪽
##키우는
똘아이
남침
훈장
##감정을
토사구팽
국경
그이상
정국
그랬어
집단으로
##털어
무섭네
단결
##8년
정의롭고
lg
##사자
있는걸
화학
머리로
달성
쪽팔려
땡깡
주관
##는다면
거대한
약속을
##탓을
바빠
동아일보
사자
계층
이해한다
자괴
사고방식
##베이
군면제
속고
어지럽
미달
없을까
기본도
한판
뉴스에서
그많은
맡기
정상화
없더라
생선
되는건
막론하고
인지도
##근로
연방제
시작된
공시지가
총을
##같아도
아프네요
완전한
심장
윤총장이
##넘들아
바탕
무신
남용
차에
얘가
##졌나
##일어
봐주고
되지만
웃음이
##는거니
없애자
##호소
그만하자
##때기
##짱개
이럴거면
지름
##못함
일반적인
북이
늦은
빨개이
늦었다
##한건지
##랜다
며느리
사노맹
것이냐
어려운데
자국민이
걸림
재대로
하지말자
섹스
##대우
##민들이
##끼다
질이
두둔하는
대표님
39
똑같냐
진출
메이
##지능
지향
##는거에
얼만데
슬쩍
떨어지니
저지르는
발언은
쓴다고
##hin
자질
까발려
지저분한
보훈
사기치고
군생활
먼가
먹칠
항복
사실로
장하성
명심해라
보네요
##고있어
압니다
던지고
##슬쩍
머리속에
주제파악
양정
뭣도
밝히면
썩었다
충전
민낯을
녹취록
이제까지
어여
안되죠
30분
뿌리는
##하든가
반성도
북풍
묵묵히
애꿎
선동꾼
나대지
##새키들
반대하면
##시기를
##사형
죽여놓고
꽃뱀
민노총이
##치산
##되는거지
규모
##밥그릇
##탈출
자국민은
##맞지
기도합니다
이성적으로
##밖으로
참패
다섯
부동산으로
폭격
음식점
말씀을
징그럽다
##하지않는
진입
세종대왕
전술
##애는
인내
영웅이
경악
납부
동등
수괴
5천만
조직적으로
하고있는
조문
##간다는
못살게
속아서
##을때도
애국심
떠받
못생긴
인간들도
벌어진
할수도
동반
새기들
청춘
##처먹는
##화수
##경제를
공무원들은
어두
##지니까
의사도
이거야
##일인데
##아침에
##렸지
##해서라도
##남편
동부구치소
돌아올
이벤
되지도
그것만
범법자
##TN
놀고있네
들린다
배부른
시국이
능력있는
승차
끌어내려야
짐작
놈들도
##나베
어쩌다가
##같네요
아베와
만들어낸
##탓으로
ㅈ같은
야기
중학교
한장
국회로
##텐츠
귀엽
이뻐
##는지요
어쩔건데
##사와
이게다
모두에게
교류
##튀기
보다도
뜨거운
이은
시절에
그럴거면
살기좋은
일베들
할머
옮기
불과하다
##이거
##이리
5명
##호는
국가원수
박능후
CCTV
자백
고치
##없구나
정경심이
총출동
ㅠㅜ
경험해
사기꾼들
부서
문닫고
보러
얼굴은
배를
##부리고
죄지은
갖다붙
온몸
##프다
##코스프레
초중
힘들어서
##판매
지켰
대표하는
없는거야
어디있냐
더는
선동질에
##었죠
뉴질랜드
잔당
구분도
못했
늙어
2시간
꼬락
흉기
조선족이
어릴때
페이스북
의도적으로
일본처럼
일주일에
박혀
##ong
솔직하게
탈당
기아
님들
##우나
54조
윤총
주장이
않고서야
스트레
##사람들도
자기만
##어떤
주특기
조언
위험하다
##한것은
##께서는
시집
소리지
호위
10배
15년
하니깐
걸까
현기차
부모님이
느끼게
순위
투표권
불체
시시
더불어민주
들어가라
##없는게
사람에
조사는
불쌍해
냅둬라
문재앙도
##정치인
돈있는
하냐고
지지도
조원진
##민의
##한다는건
##받는게
하는군
##았구나
수사에
중요하지만
떠들어라
백년
신났네
횡단
미칠
사람이라고
언제든
잡혔
남기
영역
##우려
##넘는
있단
시장은
들어가야
황금
소시오패스
##집으로
오늘날
##시민들
학생들은
존경하는
식의
해봤
트럼프도
천년
모시
##함의
빨아먹
가라앉
사대강
##구질
근거를
##빨간
##임ㅋㅋ
재혼
##내리고
##자식들
쫓겨
문가가
##때를
뭔상관
사람이나
군사독재
원인을
받은거
몰랐다고
이길수
주식을
##하겠죠
7년
##시켜놓고
49
7월
##사건이
감염된
무당
##페인
##렀다
간판
##든데
먹히
아시는
나온게
이만희가
묶어
##받아야지
같던데
해처먹
새겨
저급
커버
된게
후보가
7시간
당해서
이번선거
저격
탄핵은
쉴드치는
흔들고
##잇다
##의원은
제네
너두
교훈
##폐쇄
소리도
없으
이사태
층간소음
##열이
##까짓
미치광
잘못해서
##더라고요
죄인아
착각하고
삼청교육대
누군가의
##ㄱㅋㅋ
외치며
##비교
무너진
박힌
3기
청약
악마다
3배
평상
운동을
##화해서
수준도
반성을
##메이
있는한
대깨문아
경인선
시녀
골고루
지만
깨문
비자
때문이
대똥
있음을
##체로
좋아하지
밥먹듯이
중지
상처를
나온거
해먹고
아파서
떠오르
논리도
you
억대
애꿎은
친일이
하다못해
##하는짓
중국에게
있을거
##욕이
현지
대수
발생한
엉덩이
개보다
나불대
딸년
##었잖아
쟤들
##끌고
무슨짓을
다니는데
엠비
선제
운행
아는가
붙잡고
##생기
늘어날
위기에
##고있음
국제적으로
쟤들은
##가능한
##사다
가족들은
이야기는
배워야
이러냐
몹쓸
##개정
하는짓거리
자수
대안이
##나냐
몸통
밤새
있기는
파시
재앙을
김정은에게
결혼해서
반증
##올리
##구매
있는건데
제외하고
재수없다
시키자
일어나지
보상을
비율이
경찰의
봐요
##로로
한치
박근
핵심은
어떨지
속터
##두는
1분
않다고
##형은
국민앞에
통곡
이해하고
##매일
통합당은
죄질이
##살기
사건으로
쥐박이
한건데
##가라고
입주
답게
피해자들
잡히
##할수밖에
박정희는
태블릿
##가입
다르네
여편
유분
##체계
##봉사
너들
##겠단
##보군
##왔냐
체감
외양간
쭈욱
##것인데
예견
똥구멍
##을건데
나베는
문산
저여자
##협박
계기로
손혜원이
됐다고
한순간
자슥아
닮아
##정부를
맘껏
시기가
##1도
언제적
유전자
이래놓고
하셔
##서트
##아는데
##수나
기사들
생긴게
보고만
임은정
뚫린
알겠
있었는지
주52시간
루저
회원
정치보복
그러는거
나대는
스티브
바보야
어디갔냐
마스크나
##줄이야
비난을
48
현정부가
거북
밑밥
따르면
##하는구만
안보여
조민이
쌩쑈
밟아
품질
표시
높게
언론인
##ㅅㅋ
아이큐
독도는
당신네
가해자는
죽도록
안되게
##16
##시끼
##수준의
인정을
문디
자랑스러운
왜놈들
##중에서
아닌척
청문회에서
직장인
순공감
내세워
고정간첩
얼마를
노답이다
거면
늬들이
힘들면
2018년
부장
끊임없이
법원에서
술을
장외
##사모
##소유
집안이
중국처럼
국민적
##할겁니다
##하셔야
##드시고
제안
추정
불안해서
잡지
힘써
##재팬
도가
등신들
##권자
불편한
##오리
추하게
삐뚤
##우가
##는소리
새키들
빼라
KT
뉴스도
올랐다
무단횡단
이마트
##만하지
김정은을
김정은과
자르
저런것들은
내용도
국방의
그입
법이다
써글
반은
모아놓고
##거도
재선
완치
축하드립니다
조국이는
시청료
대형마트
나가지
당해야
따박따박
원숭이가
##귀신
순시리
이르
누릴
##내려고
사직
##완전
##소도
지역에
소급
##주지말고
##둘러
교안
잠이나
언니
##안전
##보이고
이런걸로
지랄하네
나라빚
특별한
통역
신문사
어마어마한
되기를
전반
이미지가
남자를
붉은
YTN
쉬고
일인
되었는지
자녀들
공산당은
수없이
##ea
신기하다
안그러면
받았는데
허허허
##었다가
안타깝고
집없는
명예를
오세요
##때보다
맞춰서
제1야당
처음이다
낫네
##장비
##갖다
##나하고
##정부에
##자들아
방구
찌끄
##니돠
##거지로
##ow
##로워
정치도
우한코로나
1500
탈퇴
마눌
보조
국가보안
학교는
받으며
##던가요
빨갱이라
회사를
##으란
헛짓거리
흙수저
입이라고
방한
먹이
기뻐
근성
##났고
1일
아니까
깨끗하고
미쳐서
버리지
안본다
##인원
##원짜리
세금걷
삽니다
우찌
부동산이
충분한
주민센터
황운하
##장이나
도둑이
선호
퍼부
기대를
##년들이
광복절
##마진
55
##자루
문희상
형평성
모자라서
하야해라
##셨는데
들었는데
암적인
##보이는데
태클
나쁜놈들
불이
자유와
이놈들아
##꼰대
인간들이다
딸래미
##할꼬
##속도
##퍼주고
본적
질러
진단키트
좀비들
잘해야
친일매국
최후의
아니길
800
허구한
변절
장면
할아버
봐줄
##기관이
탓으로
이래저래
적폐를
실업률
##잘하고
실적
##민주화
백만원
중궈
피고
무리한
##맛에
정상적
사교육
수순
손잡
일시
염치
##피스
원숭이들
저분
자기를
어딧
##치지말고
청와대를
생긴다
대통령한테
##라고요
오늘부터
그럴까
바꾸는
시스템이
뭉쳐
이거냐
접대
##강행
반기
##유죄
대모
뽑아라
않는다고
넣어야
중국인은
기술을
솜방망이
빼먹
##기사를
막으면
##렸다는
맞는듯
자격증
##산을
출소
##사건을
안전하게
##티브
##생도
거짓말은
##찍은
총으로
가중처벌
국회의원들이
##본부
##하는거랑
##족속
지원해
도끼
더불어만
극단적
좌천
탈락
자유시장
##다르크
개재앙
전철
행위는
##들인지
검찰총장이
폐지하고
자작
##축제
##례를
하루도
미만
노력하는
명목으로
ㅋㅋ진짜
만진당
##람프
최성
##그제
권력과
되는줄
휩쓸
문제인지
낙연
석고대
##놓구
귀여
실망이다
이겼
##주들
우리땅
바리
##허다
부가
농단
최태
설계
도와주고
떵떵
조또
대화가
뒤를
긁어
##었니
한국남
##햇는데
속는
##왕따
관계자
벙어리
##기엔
존엄
##투성이
잘했
우습다
##덕분에
그릇이
원가
규제를
##길이다
우리사회
죽자
지발
대세
이땅에서
성찰
##시키려는
##엄청
빨갱이로
오토바이
##할만한
이용만
플레이
사형시켜야
사람들이다
##정신차
이행
##쳐먹을
목적을
한창
만든거
그말
##오를
##시절에
과태료
##저라
당사자
어설픈
품위
보수우파
사장님
##맞게
##가짜
보완
아니구
##시키냐
역겹네
잘못이다
##하이
구차
박아
절단
모두를
아는척
있는것도
##거리로
돈벌고
멍청이
인맥
##주차
관심없고
천명
인신공격
##주의에
착각하는
많지만
##소속
테스트
##린다는
##대화
##실수
니돈으로
빠지고
##한거네
이시대
문재인이나
사귀
##과정
##군의
##론을
잘못됐
없앤
장사하는
놀아라
답답하네
정신적으로
##하고자
이세상
미중
뭔짓을
한잔
##대는데
모녀
싫어도
될까요
##것같아
시작하면
자랑질
닭년
##벌고
생명과
개최
낚시
부유
요구하는
나가리
받았다고
보험료
거기다가
##열을
비교하면
적임
해골찬
늘고
연예계
##였는지
치러
비비
말할수
없다는게
생김
희한한
##날을
##필요가
##만드
##힘을
이태원
따위가
중계
생각이나
##하자나
##준다는
aid
##지부지
성실히
저절로
##문빠
##청탁
탁월
의해서
이적행위
두드러
호기
속이는
##시당초
노무현때
##이나마
광화문집회
##범은
한시간
입국금
촛불은
잘난척
국민으로서
문제네
##배기
성도
1절
짓만
위선자들
##하나는
결혼도
든게
한번더
삼류
나참
모릅니다
반대만
##복이
##화학
보수언론
여자들도
젠장
##정부에서
보수도
쿠폰
예전엔
만지
없기
없어진
##지은
철없는
폭력을
out
주식은
거랑
##시스
in
주변에서
냄새나는
##ae
아가리를
많던데
화이트리스트
##대협
주입
결제
약탈
구속하고
##박스
남경
##상종
##하느
내팽
감염자가
광화문으로
고소득
왈왈
김동
마이크
대는
차리자
너도나도
사상을
합쳐
초기대응
65세
퇴보
꼬라지를
쉬는
##래야
##두지
##질듯
##시키네
집단은
시민의
##논문
##인거고
아파트가
위성
주자
가졌
못찾
##거를
아니었으면
부친
됐냐
웃기지도
공과
미혼
이제껏
개털
물가가
미스터
말구
##이유는
대처를
그짓
##보장
##아닙니다
##하여야
2년동안
뭐하는짓
##된건
##약이
나불나불
조사하라
##잘못을
시스템을
모기
와도
방구석에서
벗겨
가릴
누워
##식민
오만방
봉준
##할테니
한쪽으로
서명
##지말아라
나라인가
12월
별짓을
막말을
국민정
정권때
리스크
악한
백제
##10년
생각한
코로
사람들아
청화대
못먹
모텔
##확보
악플러들
##이었어
아프고
필요해
##재는
렉서스
##일이나
10프로
이중잣
##기본
알까
참여연대
여친
이기회에
한짓
##5천
이상으로
필요는
밥이
우호
자치
##직이
갇혀
어디냐
##애를
##치던
종교단체
##매는
##좋아하는
하이에
조작하는
권력으로
##표는
##유입
이낙연은
문가는
여당의
##상황이
감성팔
스파이
풀어라
하는짓은
##청와대
에어컨
국격이
건국
우리나라만
##사정
쫒겨
환호
주인공
##키가
##기밀
대표로
1만원
단두
노망난
주적은
웃김
제자리
각본
않으면서
위선과
이슈가
어찌됐
##어찌
신경써라
건강을
어이가없네
활개
얼마전에
증인
퍼붓
##전에서
개들
영변
하시오
##등의
없었고
하든가
리얼돌
시키는대로
##살을
하시면
비슷하게
AZ
죗값
##올리는
##천하에
모이면
이눔
걔네
가래
##시니
##박근혜
소리로
취급하는
노골적으로
이색
총기
##줬다고
##일치
##열고
수준인데
필터
##발정
국민일보
실효
사기업
문제인은
태평양
뭔죄
##것같아요
그와중에
받을수
눈치보고
안볼
##실은
##알지
##순간에
거른다
민주당이나
한거야
살포
현장에
##당이나
##소환
갈아엎
학창
향한
면마스크
산으로
1개
하루아침에
인간들을
정신병원에
##한다면서
##전사
##방식
##함도
이해찬이
얘네들
끝났어
조은
상도
구질구질
죽이지
##부다
##갔다가
말이되나
대갈통
어려울때
결혼은
종결
개들이
아무데나
##소설
구태
싸지르
##라곤
##재로
중국가서
이사가
아까워
뭐하노
텐트
누른
<
>
§
©
®
°
±
²
³
´
¹
×
ä
é
ö
÷
̈
̣
̥
α
β
μ
а
б
в
г
е
з
и
к
л
н
о
п
р
с
т
ы
ь
я
๑
ᄒ
ᆞ
–
—
―
‘
’
“
”
•
․
‥
…
‧
′
″
※
‼
₁
₂
₩
℃
ℓ
™
Ⅰ
Ⅱ
Ⅲ
Ⅳ
Ⅴ
↑
→
↓
↔
↘
↙
⇒
∙
≪
≫
⊙
⋅
①
②
③
④
⑤
⑥
⑦
⑧
⑨
⑴
⑵
⑶
⑷
ⓐ
ⓑ
ⓒ
─
━
│
┃
└
├
■
□
▣
▪
▫
▲
△
▶
▷
▼
▽
◀
◆
◇
◈
○
◎
●
★
☆
☎
☏
☕
☞
☺
♀
♂
♠
♡
♣
♥
✅
✌
✔
✨
❗
❣
❤
➡
⠀
⭐
。
〃
〈
〉
《
》
「
」
『
』
【
】
〓
〔
〕
〰
い
か
て
に
の
り
る
ん
ニ
ン
・
ー
ㅤ
ㆍ
㈎
㈏
㈐
㈑
㈔
㈜
㉠
㉡
㉢
㉣
㉮
㉯
㉰
㎉
㎍
㎎
㎏
㎒
㎓
㎖
㎘
㎚
㎛
㎜
㎝
㎞
㎡
㎢
㎥
㎸
㎾
㎿
㏃
㏄
㏈
㏊
一
丁
七
丈
三
上
下
不
丑
且
世
丘
丙
丞
中
丸
丹
主
乃
久
之
乎
乘
乙
九
也
乡
乳
乾
亂
了
事
二
于
云
互
五
井
亞
亡
交
亥
亦
亨
享
京
亭
亮
人
仁
今
介
仕
他
付
仙
代
令
以
仰
仲
件
任
企
伊
伏
伐
休
会
伯
伸
似
伽
但
位
低
住
佐
何
余
佛
作
佳
使
來
例
侍
供
依
侯
侵
便
係
俊
俗
保
信
修
俱
倂
倉
個
倍
倒
候
借
値
倫
倭
假
偉
偏
停
健
側
偶
傅
備
傳
債
傷
傾
像
僕
僞
僧
價
儀
億
儒
償
優
允
元
兄
充
兆
先
光
克
免
兒
入
內
全
兩
兪
八
公
六
兮
共
兵
其
具
典
兼
冊
再
冠
冥
冬
凉
凡
凶
出
刀
分
切
刊
刑
列
初
判
別
利
到
制
券
刺
刻
則
前
剛
副
割
創
劃
劇
劉
劍
力
功
加
助
勇
勒
動
務
勝
勞
勢
勤
勳
勸
勿
包
化
北
匠
區
十
千
升
午
半
卑
卒
卓
協
南
博
卜
占
卦
卯
印
危
却
卷
卽
卿
厚
原
去
參
又
及
友
反
叔
取
受
叢
口
古
句
只
召
可
台
史
右
司
各
合
吉
同
名
后
吏
向
君
否
含
吳
吾
呂
告
周
呪
味
呼
命
和
咸
哀
品
哈
哉
員
哭
哲
唐
唯
唱
商
問
啓
善
喜
喪
單
嘉
嘗
器
嚴
四
回
因
固
国
圈
國
圍
園
圓
圖
團
土
在
圭
地
址
坂
均
坊
坐
坡
坤
坪
垂
型
城
域
執
培
基
堂
堅
堯
報
場
塔
塚
塵
境
墓
增
墨
墳
壁
壇
壓
壤
士
壬
壯
壽
夏
夕
外
多
夜
夢
大
天
太
夫
央
失
夷
奇
奈
奉
奎
奏
契
奪
女
奴
好
如
妃
妄
妓
妙
妻
始
姑
姓
委
姜
姬
威
婆
婚
婢
婦
子
孔
字
存
孝
孟
季
孤
学
孫
學
宇
守
安
宋
完
宏
宗
官
宙
定
宜
客
宣
室
宮
宰
害
宴
家
容
宿
寂
寄
寅
密
富
寒
察
寡
實
寧
審
寫
寬
寶
寸
寺
封
射
將
專
尉
尊
尋
對
導
小
少
尖
尙
就
尹
尺
尼
尾
局
居
屈
屋
展
層
履
屬
屯
山
岐
岡
岩
岳
岸
峯
峰
峴
島
崇
崎
崔
嶺
巖
川
州
巡
工
左
巨
巫
差
己
已
巳
巴
市
布
希
帖
帝
帥
師
席
帳
帶
常
幕
干
平
年
幸
幹
幻
幼
幽
幾
庄
床
序
底
店
庚
府
度
座
庫
庭
庵
庶
康
庸
廉
廟
廢
廣
廳
延
廷
建
弊
式
弓
弔
引
弗
弘
弟
弱
張
强
弼
彈
彌
形
彦
彩
彭
影
役
彼
往
征
待
律
後
徐
徒
得
從
御
復
微
徵
德
徹
徽
心
必
忌
忍
志
忘
忠
快
念
忽
怒
思
急
性
怨
怪
恐
恒
恥
恨
恩
恭
息
悅
悟
患
悲
情
惑
惟
惠
惡
惱
想
愁
意
愚
愛
感
愼
慈
態
慕
慣
慧
慮
慶
慾
憂
憲
應
懷
戊
戌
成
我
戒
或
戰
戱
戴
戶
房
所
手
才
打
扶
批
承
技
投
抗
折
抵
拒
拘
招
拜
括
持
指
振
捕
授
掌
排
採
探
接
推
提
揚
換
揭
援
損
摠
摩
撫
播
撰
擇
擊
操
擔
據
擧
擬
攝
支
收
改
攻
放
政
故
效
敍
敎
敏
救
敗
敢
散
敦
敬
整
敵
數
文
斗
料
斥
斬
斯
新
斷
方
於
施
旅
族
旗
旣
日
旨
早
旭
昆
昇
昌
明
易
昔
星
映
春
昭
是
時
晉
晋
晦
晩
普
景
智
暗
暴
曆
曉
曰
曲
更
書
曹
曺
曾
替
最
會
月
有
朋
服
朔
望
朝
期
木
未
末
本
朱
朴
李
材
村
杖
杜
束
杭
東
松
板
林
果
枝
某
染
柔
柱
柳
査
校
株
核
根
格
桂
桃
案
桑
桓
梁
梅
條
梵
棄
棟
森
植
楊
楚
業
極
榮
構
槪
樂
樓
標
樞
模
樣
樹
橋
機
橫
檀
檢
權
次
欲
欺
欽
款
歌
歐
止
正
此
步
武
歲
歷
歸
死
殊
殘
段
殷
殺
殿
毅
母
每
毒
比
毛
氏
民
氣
水
氷
永
求
汗
汝
江
池
決
沈
沒
沖
沙
河
油
治
沼
況
泉
法
波
注
泰
泳
洋
洗
洙
洛
洞
津
洪
洲
活
派
流
浙
浦
浩
浪
浮
海
消
涉
淑
淡
淨
淫
淮
深
淳
淵
混
淸
減
渡
測
港
游
渾
湖
湯
源
準
溝
溪
溫
滅
滿
漁
漏
演
漢
漸
潔
潘
潛
潤
潭
潮
澤
濟
濤
濱
瀋
灣
火
災
炎
炳
烈
烏
焉
無
然
煙
煥
照
煩
熊
熙
熟
熱
燈
燒
燕
營
燮
爭
爲
爵
父
爾
片
版
牌
牙
牛
牧
物
特
犬
犯
狀
狂
狗
猶
獄
獨
獸
獻
玄
率
玉
王
珍
珠
班
現
球
理
琴
瑞
環
甘
甚
生
産
用
甫
田
由
甲
申
男
町
界
留
略
番
異
畵
當
畿
疆
疏
疑
疾
病
症
痛
療
癸
登
發
白
百
的
皆
皇
皮
益
盛
盜
盟
盡
監
盤
盧
目
直
相
省
眉
看
眞
真
眠
眼
着
督
矢
矣
知
短
石
砂
砲
破
硏
碑
碧
碩
確
磁
磨
示
社
祀
祐
祖
祝
神
祠
祥
票
祭
祿
禁
禍
福
禪
禮
禹
秀
私
秉
秋
科
秘
租
秦
秩
移
稅
程
種
稱
稷
稻
稿
穀
穆
積
穴
究
空
突
窓
窮
立
章
童
端
競
竹
笑
符
第
筆
等
答
策
箕
算
管
節
範
篇
築
簡
簿
籍
米
粉
精
系
紀
約
紅
紋
納
純
紙
級
素
紫
細
紹
終
組
結
給
統
絲
絶
經
綠
維
綱
網
緊
緖
線
緣
編
縣
總
織
繩
繼
續
缺
罪
置
罰
署
羅
羊
美
群
義
羽
翁
翊
習
翰
翼
老
考
者
而
耕
耳
耶
聖
聚
聞
聯
聲
職
聽
肅
肉
肝
肥
育
背
胎
胡
能
脈
脚
脫
腦
腸
腹
臟
臣
臥
臨
自
至
致
臺
與
興
舊
舌
舍
舜
舞
舟
航
般
舶
船
艦
良
色
芝
花
芳
苑
若
苦
英
茂
范
茶
草
荊
荒
荷
莊
莫
菅
菊
菜
菩
華
菴
萬
落
葉
著
葛
董
葬
蒙
蒼
蓋
蓮
蔡
蔣
蕭
薄
薛
薦
薩
藏
藝
藤
藥
藩
蘇
蘭
虎
處
虛
虞
號
蛇
蜀
融
血
衆
行
衍
術
街
衛
衡
衣
表
衰
袁
被
裁
裏
裕
補
裝
裵
製
複
襄
襲
西
要
覆
覇
見
規
視
親
覺
覽
觀
角
解
觸
言
計
討
訓
託
記
訟
訥
訪
設
許
訴
註
詐
評
詞
試
詩
話
誌
認
語
誠
誤
說
誰
課
調
談
請
論
諦
諫
諭
諸
謀
謂
謙
講
謝
證
識
譜
警
譯
議
護
讀
變
讓
谷
豆
豈
豊
象
豪
豫
貞
負
財
貢
貧
貨
貪
貫
責
貴
買
貸
費
貿
賀
賃
資
賈
賊
賓
賜
賞
賠
賢
賣
賤
賦
質
賴
贈
贊
赤
走
起
超
越
趙
足
跡
路
蹟
身
車
軌
軍
軒
載
輔
輕
輝
輪
輯
輸
輿
轉
辛
辨
辭
辯
辰
農
迅
迎
近
返
迦
述
迷
追
退
送
逆
通
速
造
連
週
進
逸
遂
遇
遊
運
過
道
達
違
遠
遡
適
遲
遷
選
遺
遼
避
還
邊
邑
那
邦
邪
邱
郎
郞
郡
部
郭
都
鄕
鄧
鄭
酉
配
酒
酸
醉
醫
采
釋
里
重
野
量
金
釜
針
釣
鉉
銀
銅
銘
錄
錢
錦
錫
錯
鍾
鎬
鎭
鏡
鐘
鐵
鑑
镇
長
門
開
閑
間
閔
閣
關
阪
防
阿
陀
附
降
限
陝
院
陣
除
陰
陳
陵
陶
陸
陽
隆
隊
隋
階
際
障
隨
險
隱
雄
雅
集
雖
雙
雜
離
難
雨
雪
雲
雷
電
需
震
露
靈
靑
靖
靜
非
面
革
韓
音
韻
頂
項
順
須
頌
頓
領
頭
題
額
顔
願
類
顧
顯
風
飛
食
飮
飯
養
餘
館
首
香
馬
駐
騎
驗
驚
驛
骨
體
高
髮
鬪
鬼
魂
魏
魔
魚
魯
鮮
鳥
鳩
鳳
鳴
鴻
鵬
鶴
鷄
鹽
鹿
麗
麟
麻
黃
黑
默
點
黨
鼎
鼓
鼻
齊
齋
齒
齡
龍
龜
뎬
띕
룀
뤽
좥
쾰
퀑
헵
金
老
魯
論
樂
不
兩
良
女
年
連
禮
龍
劉
流
六
李
理
️
！
＂
＄
＆
（
）
＊
＋
，
－
．
：
；
＜
＝
＞
？
［
］
＿
ｇ
ｍ
ｔ
｜
～
｢
｣
･
￦
🌟
🌷
🌸
🌿
🍃
🍓
🍞
🍫
🍳
🍴
🎁
🎉
🎶
🏃
🏻
🏼
🐶
🐷
🐽
👀
👈
👉
👊
👋
👍
👏
👧
👩
👶
👻
💃
💓
💕
💖
💗
💘
💙
💚
💛
💜
💦
💪
📌
🔥
🖤
😀
😁
😂
😃
😄
😅
😆
😉
😊
😋
😌
😍
😎
😏
😖
😘
😙
😚
😛
😝
😢
😥
😭
😱
😳
🙂
🙄
🙆
🙈
🙊
🙋
🙌
🙏
🤔
🤗
🤣
🤤
🤦
🤩
🤭
🥰
🧡
##ㆍ
##с
##о
##к
##и
##е
##р
##а
##н
##ы
##🤔
##😆
##з
##я
##т
##в
##○
##💗
##🔥
##😊
##г
##🏼
##б
##😘
##é
##♥
##😁
##🙊
##ö
##ᆞ
##⑥
##🍃
##ä
##л
##👍
##🏻
##💙
##▼
##❤
##Ⅱ
##Ⅳ
##→
##😛
##い
##て
##か
##ь
##п
##🙌
##ᄒ
##💛
##🌿
##😳
##💜
##😝
##🎶
##🤣
##😂
##💚
##👀
##💖
##🧡
##の
##😍
##🥰
##😄
##💦
##に
##❗
##😱
##😭
##≪
##💪
##💕
##🙈
##💓
##ㅤ
##😃
##△
##◇
##▣
##♡
##🖤
##🤗
##×
##😋
##₩
##🤭
##④
##⑨
##⑦
##¹
##뎬
##＋
##ん
##😚
##Ⅰ
##️
##😖
##■
##□
##👏
##↑
##↓
##▷
##💃
##÷
##↘
##↙
##🙏
##😀
##🌸
##🙄
##🍫
##🌟
##🐷
##😢
##🙂
##쾰
##🍞
##Ⅲ
##ニ
##ー
##ン
##😎
##▽
##🎁
##🤩
##👈
##👧
##⑧
##🍓
##◈
##🍴
##🤤
##👊
##💘
##㎡
##✨
##🙆
##👋
##り
##🤦
##●
##👩
##る
##α
##β
##③
##⑤
##🏃
##🐶
##｜
##㈑
##🌷
##│
##⋅
##⠀
##☆
##😌
##😏
##★
##😙
##😉
##▫
##😅
##°
##☞
##～
##👶
##☎
##🍳
##̥
##👉
##⊙
##◎
##´
##❣
##☕
##ⓒ
##🎉
##😥
##㈜
##▶
##ⓑ
##◆
##▲
##◀
##⑵
##⑶
##²
##₂
##②
##♣
##─
##㈐
##㉢
##＝
##ｇ
##①
##☺
##๑
##̣
##뤽
##┃
##✌
##Ⅴ
##＜
##🙋
##≫
##ｍ
##🐽
##〓
##♠
##👻
##μ
##̈
##³
##￦
##━
##±
##㎞
##㎜
##헵
##㉠
##℃
##∙
##＞
##ⓐ
##➡
##├
##ℓ
##㎝
##ｔ
##㉰
##㉣
##㉡
##퀑
##룀
##▪
##♀
##⇒
##⭐
##₁
##㎖
##✔
##↔
##좥
##㈏
##⑷
##㎏
##㏄
##📌
##♂
##☏
##㈔
##㏊
##㉯
##㎎
##™
##㈎
##㎥
##└
##㎉
##㎍
##㉮
##©
##＄
습니다
면서
다고
는데
도록
는다
으며
으면
거나
지난해
어요
는지
이날
라며
다면
명의
그녀
더라
199
어야
위원회
대부
대의
전망
센터
##버지
프로그
로서
대회
##st
국의
기에
시스
개월
니까
려고
아서
마지
로부터
마을
198
장의
아야
는가
려는
##어난
으나
느냐
에선
동시
오전
더라도
을까
와의
각각
방안
성의
데이
##el
보였
스러
리그
2012
지난달
스럽
업계
오히
2013
바이
녀의
으로써
아요
상의
부의
간의
네요
나타났
2010
전했
2014
##ion
면서도
했으며
사의
더니
도의
2011
세요
여부
##am
으로서
인의
2015
부동
문학
으로부터
으니
분기
197
알려졌
고자
포인트
##이션
서의
기의
##어들
##ol
##il
거든
덧붙
이곳
차원
본부
제의
수의
어도
2009
체계
드라
지요
2008
올림
당국
##반기
2016
우승
공원
듯이
므로
시의
시리
방침
으면서
##et
##운드
려면
의회
월드
예요
캐릭
덧붙였
활성
습니까
당의
전해
부문
연구원
고도
캐릭터
체의
고는
개의
##ch
마리
196
세기
식품
학년
특성
심의
했으나
그램
은데
만의
맛있
다며
##nd
계의
원의
거든요
##어났
거쳐
시리즈
장소
중인
스러운
아의
협회
도착
군의
비중
작용
으려
선발
대사
는데요
선보
리의
열리
##벤트
이벤트
2007
등급
인근
고요
요소
그리스
아름다
모바
측면
께서
부상
의장
##니아
건축
설정
##젝트
에요
모바일
##니스
본의
가량
계기
프로젝트
2017
드리
계열
물질
메시
위의
of
전력
컴퓨
당하
빠르
앞두
##ro
미술
지사
나섰
##ac
과제
바라보
명이
뉴욕
배경
지수
마케
텔레
수원
창업
카메
보고서
측은
가의
단의
아도
##ent
##ri
##ad
이른
종의
크리스
크기
이의
이어지
용의
해양
분의
지의
기구
을지
업의
메시지
재의
범위
요인
37
알리
##서관
종류
네트
나선
2006
인하
com
co
고속
세의
194
독자
벌이
장치
콘텐츠
kr
연구소
전년
로운
##us
회견
걸쳐
오바마
적절
강하
잖아요
으니까
체결
학부
파이
점검
이달
펼쳐
투자자
매력
연계
권의
촉구
##ul
는다는
대하
일까
##ig
##ur
물의
##워크
이명
향상
했었
##다보
공단
운용
세트
실장
수많
채권
멤버
km
확장
스테
진다
IT
다소
전날
##ation
패션
##od
##란드
월드컵
직후
동기
42
2005
형식
가을
전의
##페이지
아르
출판
홈페이지
소프트
43
왼쪽
고서
움직임
감안
##ay
산의
당했
정비
연간
교육청
정규
##나라당
소장
지점
네트워크
구의
44
유가
관의
든지
정기
##ag
구간
움직이
기기
후반
으므로
연주
##어날
육성
살펴보
타임
편지
지분
건의
국장
복합
노선
의하
46
디지털
점수
일의
모집
47
출전
발행
종목
스토리
재료
존의
2004
이스
매각
생태
경선
##os
##iv
전개
장점
중의
52
그곳
베트
초의
아이템
사업자
195
런던
##TA
해졌
화면
개편
정해
떠올
지자
##em
내렸
돼야
시가
51
마침
충돌
활약
주년
밝힌
개국
아울
질환
통상
듯한
오른쪽
193
양의
근로자
2002
스페인
새롭
위하
에게서
에스
챔피
광역
프리미
단위
CE
머물
메르
파트
관측
네이
관객
면적
사무실
구요
바르
표준
마법
나타난
이슬
알려진
보스
자면
##로그
데뷔
품의
농업
취지
브리
마르
이른바
53
등과
유형
개성
시내
부드
이내
기독
후의
엔진
2003
박물
성명
유로
개정안
결합
충남
하의
나요
56
캠프
피하
묘사
##ers
취하
교과서
and
학과
애니
화려
출범
는데도
구하
수비
결의
##로스
##레이드
추세
앨범
곳곳
이뤄지
맛집
모의
알려져
정원
주력
##뮤니
관람
완료
커뮤니
만났
부회
역량
통하
클래
시티
상반기
학자
경주
매체
##ie
아울러
59
스킬
던지
##um
특허
관점
성분
주일
하반기
팀장
당초
편성
투어
The
치열
규칙
프레
승부
57
부진
컬러
수립
재무
라서
조각
개별
박물관
##av
더라구요
58
발굴
64
비즈
##웨어
##어져
##마스
자마자
채택
극장
점유
들려
의의
공모
측정
IS
체력
여의
였으며
질의
##and
협약
##어졌
##ap
량의
점차
파일
는다고
뛰어난
갖춘
협정
전해졌
광장
이랑
합병
미소
버전
임원
사령
예고
신설
환율
청문
답니다
뮤지
1990
##일리
면은
로서의
도서관
블루
드러났
더라고
고교
상임
##르트
##케이션
라디오
라운드
잇따
눈길
한화
부회장
집계
태의
##나마
제정
재미있
흥미
2001
번의
연극
어의
교의
##담회
##러리
정식
변동
마의
성폭
미니
표의
친환경
늘어난
감각
CEO
크림
캠페인
지닌
FTA
일대
기지
문제점
교환
스피
St
활발
63
호흡
획득
제국
님의
총회
원리
85
질서
풍부
해진
KB
66
##ce
항목
비즈니스
즐길
##ab
투수
진화
내의
수집
트리
시사
간담회
등도
신화
서구
협의회
선임
레벨
발매
홈런
##oc
공동체
##th
##웨이
행의
비전
로마
EU
남부
찾아가
득점
st
191
##은이
양국
수영
식물
소화
##ess
느라
상업
전제
##뜨리
브라질
생물
치의
##ter
외환
챔피언
적합
나타내
플러스
키로
지니
##CT
화제
여건
관찰
미세
개막
##이너
61
지대
계열사
인프라
과도
설비
포스코
임의
영향력
##ia
패턴
72
소의
견해
뉴시스
화장품
로써
시리아
토대
플랫
결승
스파
부사
지나치
62
파워
침체
오랫동안
다이어
냐고
초청
선박
순환
흔히
##우드
로스
스크
분쟁
사내
흐르
초점
합류
포스
건립
열차
84
지위
엘리
해운
별도
지도부
해의
상하
인정받
본사
하우스
녹색
전이
사원
걸음
텔레콤
지명
##ew
밴드
펼치
한지
종종
이사장
68
상인
이루어지
현안
에다
증시
독특
풍경
##TE
속의
##다란
지표
급증
노사
이용자
67
열정
1980
저장
담보
##싱턴
테크
통보
불가피
아무것
프리미엄
##니어
모드
전하
##공업
정하
정착
오프
##학자
192
창의
임무
바이오
여인
초과
도중
여겨
입지
4000
벌어지
01
파크
그러므로
지주
용어
반의
데리
##ak
조명
워싱턴
객의
아트
##ov
박스
마크
청장
유저
병사
페이
주최
##스티
77
피아
화의
아라
지연
저자
농민
콘서트
적당
대학원
시청자
건조
는다면
##ill
개봉
맞이
과목
유의
실내
스님
풀이
학기
테마
변하
각의
당부
포럼
02
곧바로
1999
연수
세포
##ard
##메이션
장이
여서
주행
만남
74
코드
판정
쟁의
##스탄
박정
##가스
탑재
첨단
##시코
71
신한
구단
성남
1998
73
역의
스탠
온도
방의
마침내
입찰
와인
파트너
이라크
뮤지컬
서부
도심
에겐
주간
##ell
190
안팎
Ch
플레이어
1997
음료
모니
심하
76
더라고요
에서부터
익숙
개설
CJ
강사
경기장
양식
도구
IP
문장
cm
구도
학문
일요일
추억
되돌
##로드
커다란
적발
붙잡
여수
명칭
In
촉진
소스
700
경매
기금
즐거
민의
변신
장착
둘러싼
터키
요원
승객
##미지
바람직
경찰청
타자
배당
클린
면세
벤처
작동
유대
두산
거치
##조합
고전
##IA
해안
##ity
##스토
가입자
담긴
소형
수지
69
절감
십시오
88
도달
중반
무렵
품목
ww
##ED
교실
농협
편하
재생
레드
공학
테이블
공의
근육
구현
for
고구
스케
더군
동력
군요
전주
격차
애니메이션
기한
편리
적의
단장
해상
통증
북부
의뢰
왕의
재판부
그쳤
마당
원대
범행
블로그
부딪
##ev
논쟁
손상
조달
융합
소프트웨어
멕시코
변수
김대
www
이어졌
유력
복원
쓰이
스키
세부
78
6000
##비전
총괄
디스플레이
보여준다
자문
과일
어울리
공제
휴식
외의
드라이
안드
토요일
합동
로드
##르크
였으나
조화
듯하
기후
03
다이어트
천연
비대
화성
퍼센트
공략
플라
연료
열렸
조항
2020
떠난
채무
조례
침대
사우
##ra
마친
세웠
전당
메모
대강
행보
벌였
자네
오브
독서
기온
바위
결심
케이블
형의
스코
베이징
98
드릴
아카
창작
알아보
8000
##if
시범
청사
교황
라든
셔서
연맹
섭취
최우
평창
참사
뚜렷
##ep
유권자
금의
돌아온
자아
상무
포스트
개통
예금
사물
흔적
세이
의자
모니터
일각
요건
카운
##다수
부위
상환
설의
선보이
전후
코치
매니
블록
##ine
유동
의결
참조
생의
주석
IM
당일
소지
상자
산업의
##레인
가공
과세
마사
##로이드
##art
관세
병력
컨설
농촌
사가
국내외
트렌
진주
페이지
##무성
비정규
석의
충북
##타인
부총리
86
양상
동남
주차장
모색
##ob
동작
으려고
이어질
열린다
81
위주
향하
##집트
작곡
부각
배터리
중공업
이집트
##ood
장르
원이
화물
to
도대
떠났
드래
경찰관
변의
랜드
통의
선두
7000
##est
용역
##끄러
마스터
##증권
금속
진흥
시킨다
연의
GS
소요
노리
1995
82
##ip
당내
지침
충족
79
비타
특유
선사
본래
스튜
고리
규명
원유
받아들여
텔레비전
오가
가요
천억
##nn
을까요
AP
##덜란드
막대
가사
총재
네덜란드
산하
비로
임직원
참가자
##크스
91
강점
대원
현황
1970
리더십
##all
유산
##ub
높여
해져
계단
##브리
원정
데일리
실정
제자
##ist
치즈
선거구
농가
얼음
우의
일행
구성원
대행
어둠
착수
MS
선도
수주
치르
신부
섬유
##tt
줍니다
정성
항공기
87
부사장
96
##IS
소셜
중구
매출액
##ht
대목
전한
담겨
경영자
싱글
가속
아저
05
금요일
빠졌
환상
면세점
육군
##디션
돌아왔
표명
SBS
크리스마스
전사
미터
가이드
핸드
발전소
인문
일원
나눔
표기
내려가
유닛
97
인치
특이
앞둔
시중
##비드
이종
심화
해진다
천천
##퍼스
때로
워크
체육관
유용
격의
김해
직면
회전
플래
스위스
##디아
mm
원주
1996
목격
홀로
출장
타워
해질
프라이
물류
전설
생일
푸른
군수
억제
조의
골드
##ang
후기
##리포
책임자
타당
인당
인연
상당수
수면
오피스
신입
모았
대상자
크루
오로
타입
대체로
ch
박람
기조
엔터
해준다
사인
시트
행진
대외
모래
농구
줄어든
브리핑
무척
비타민
소음
으시
월요일
시신
사격
고수
토론회
kst
사무총장
##CC
계절
전선
비의
플로
94
후속
89
판매량
유해
구미
경로
83
하드
확충
재능
조합원
건전
낸다
교장
스페
장수
##먼지
주류
청주
미술관
주재
호수
##포르
신임
##our
아일
웨이
92
고르
이른다
스웨
겨냥
1994
넘치
신학
전시회
학회
역전
알렉
실태
그야
진의
상사
쟁점
무선
##ok
정면
##DP
프라
본회의
청의
메이저
클래식
기운
여섯
용품
포트
아스
여객
대구시
빌딩
푸드
인형
단점
고시
진학
비서관
이닝
입구
프린
두려움
왕자
놀라운
명성
무용
공헌
##리티
사라졌
터미
##eg
재배
코너
방영
##ey
들리
th
누적
재정부
저작
사이즈
동화
인데요
열기
두드
계정
한층
중점
누르
마켓
속성
소금
농장
베르
사무소
버린다
처지
##피소
잇따라
접속
클린턴
단말
흘리
수분
kg
바깥
소외
케어
늘어났
욕구
교도
오일
신세계
상원
자신감
공세
공군
기대감
면의
##ath
위상
##용차
기적
감상
##PG
혈액
운송
거래소
용산
연상
##버트
스런
신인
구름
측이
어질
명시
##런스
서술
됐으며
원작
과학자
표면
al
리조
LTE
책의
몬스터
##가포르
당분
저의
패러
##ue
주부
싱가포르
현의
둘러싸
되찾
윌리
무언가
대금
93
189
붙이
##받침
탄력
이끄
상공
디자이너
육체
지낸
동성
밝혀졌
##크라
기아차
전적
위축
문명
셋째
소모
감자
돼서
밀리
옵션
06
정적
선보였
유연
방학
트럭
##포트
욕망
간주
부리
커뮤니케이션
강세
한도
아일랜드
연인
기업인
##네시아
특위
도내
##임스
##대문
서쪽
돌입
정밀
탑승
서버
터미널
체인
보인
##스키
커플
대주
학술
스프
##ik
멀티
지난주
건수
용도
쇼핑몰
900
무산
헤드
FC
##리포니아
산책
철강
법칙
마이클
##버그
심해
캘리포니아
포착
상승세
하얀
해수
꼼꼼
갖춰
거친
쳐다보
모터
커뮤니티
캠퍼스
라이프
##거렸
마쳤
회동
냉장
히트
높였
춘천
탄소
매치
희생자
박람회
컨설팅
페르
다가오
고지
이뤄졌
목록
포털
날개
9000
08
09
보전
코트
##워드
부시
버튼
##그레이드
대개
업그레이드
인테
제임스
련의
가전
가맹
금감
시공
금강
뮤직
신장
라이브
발효
불거
리라
성실
뒷받침
끌어올
분당
##어놓
트렌드
오랜만
원고
공고
지냈
##루션
약물
특별히
개척
04
입술
백악
문구
리조트
특화
국면
전담
별다른
회관
감축
##키지
PD
인도네시아
남겼
생성
즐겁
가문
소매
오스트
데이비드
돌아와
##데이트
사후
##톨릭
##ff
교섭
카이
까닭
업데이트
고조
눈앞
##피소드
에피소드
항소
패키지
1992
글자
놓여
트레이
강릉
친절
술의
아름답
일지
진로
공방
물품
##어진다
도서
음반
아랍
##러지
##스턴
관념
만기
극대
티켓
미스
줄기
예선
빠져나
기법
여사
이메
지법
지부
단원
1993
갤러리
입력
사용자
실리
적정
증권사
1960
뛰어나
##ack
평택
##ame
점포
다행히
채소
그라
저널
당과
궁극
07
의외
##티나
메일
안드로이드
슬로
양자
학위
기울이
무의
관절
조세
##컨대
로켓
동쪽
하여금
액션
벌어졌
##스티벌
로비
상생
페스티벌
윈도
등산
적도
안의
파의
뒤늦
##직자
타운
타이어
##ud
농사
레인
크로
금호
부드럽
중시
중순
동구
라이트
완공
관리자
바닷
순천
이메일
##ant
드림
GM
인테리어
족의
단말기
뱅크
제어
감지
돼요
노동당
한동안
신동
차장
조약
금감원
스웨덴
기차
분할
수렴
담당자
의상
모은
부양
내다봤
자칫
지목
급속
스크린
야간
주유
우위
무인
달한다
한국어
증대
오페
영의
전무
or
대지
창문
시상
br
즐겨
서기
애정
인디
종시
일환
##FA
드러냈
필드
영화제
비로소
도약
신사
색상
뷰티
노하
##──
결혼식
단축
cnn
데미지
던가
라면서
히로
다면서
경위
130
형상
놓치
포도
러시
편입
거점
윌리엄
신비
흔들리
숙박
##ort
##ich
몰리
가들의
으리
그림자
산업단지
##이즈
New
의류
승용차
고구려
일으켰
##키스탄
##man
처의
준공
메이크
개시
투데이
학교의
관할
순이
미의
비평
흥행
위탁
즐거운
##ert
배정
##트라
동향
오스
플랜
시에
부천
노총
##iz
세일
재고
실용
##ate
스타트
나타난다
##ive
차질
bl
정무
출간
함유
##러드
피트
##가운
세제
백악관
수위
더군요
타임스
세미
즐거움
리버
재원
유혹
OS
##ry
사연
예산안
발라
발동
돋보
오페라
스러워
야외
당선인
꼽힌다
##마크
가톨릭
가족의
와중
창고
으러
##튜브
대국
어차
부른다
공업
나란히
상한
##oh
1991
원활
##테크
사령관
위키
출자
찾아보
연합회
피자
향의
통신사
엄청나
어르
전인
선교
드레스
차세대
수년
NH
KIA
한의
원에
의약
##꺼번에
한꺼번에
체중
부드러운
다룬
제이
드래곤
이뤄진
그리스도
이수
주방
미드
치유
김포
##러진
##핵화
공정위
데이트
병행
남긴
종일
빛나
스튜디오
매니저
미션
색의
책상
안경
니다
est
각국
증진
특별법
수다
사업비
라니
절의
경의
절실
포드
복구
##OS
가하
유적
터치
여신
내각
취향
생생
아리
1988
동서
##ge
솔로
리스
던데
중부
드렸
알파
##CTV
태어났
빌리
단백
유인
##ark
번지
클래스
협동
##ian
프로세
근접
성취
당뇨
110
둔화
야생
터널
나타냈
약화
광범
환경부
US
주저
투자가
이치
##레이션
상향
실의
감사원
레이스
##작스
포의
광역시
교차
일곱
공격력
노하우
료의
여왕
등록금
돌아보
CN
창립
핵실험
내달
부근
어려웠
서방
제고
변형
도청
아메리카
못지
##머스
GDP
구해
금품
발레
용량
일간
처방
합성
명목
해변
상세
난이도
꼽히
아름다움
문건
농산물
초월
기술력
산림
염두
솔루션
강해
언덕
##남도
토의
취해
포켓
유효
드물
더욱이
지르
화요일
자매
간편
피할
첫날
트랙
준수
키스
별명
수험
장인
면담
도민
진전
##ib
IB
유세
전투기
지붕
중견
운항
브로
##ast
간사
자회사
기호
업자
##데미
상영
갑작스
계승
##화문
동계
시달리
비치
베이스
부산시
포괄
뛰어들
##닉스
상금
##ttp
##ne
개장
수산
재현
클리
파운드
성우
수요일
##다지
http
불꽃
힘입
신성
결성
전신
1989
여파
어두운
횟수
탐구
명은
놀랐
정한
1987
확립
불안감
de
아카데미
BM
항공사
잃어버
대조
트레
교원
배포
필자
##ord
재직
부스
계곡
CD
벨트
##느리
내놨
뛰어넘
네티
관장
##체스터
수명
향기
등지
발주
잉글
IC
목요일
냉장고
호응
단행
마산
대사관
모험
앞선
이산
오의
노르
##ee
##ss
아시안
물고기
본선
용지
##더스
스킨
마일
안양
인공지능
판의
선행
이루어진
응시
##ain
한류
##스토랑
레스토랑
표지
몽골
우연히
성당
토록
##PS
피아노
좌절
##오프
메이크업
그레이
과시
장성
급등
광범위
FA
하원
마늘
##일러
타인
출판사
##고리
모이
내비
에드
##DI
머무
코스닥
펼쳤
수송
##ect
간식
내장
지났
위력
좌석
구두
이쪽
##ight
소유자
숨진
주고받
단체장
댄스
전차
한진
올라오
축적
sh
으려는
감면
스카이
코미
일체
으신
원료
##ran
##북도
침입
관해
차트
오사
줄일
스미
패치
##병대
생애
국당
브레이
##식간
##지니어
빈곤
카르
피우
브라운
작의
160
파라
왕국
토끼
유물
폭풍
확고
전지
##ont
포지
##니즘
단과
복용
건설사
벌인
보충
서둘러
급격히
골프장
흑자
상주
라스
렌즈
지적도
센서
출구
접하
파주
떠올리
##사스
실점
##리케이션
해설
그다지
요금제
광주시
##ure
아쉬움
추산
국세청
대단히
장과
140
추출
허브
활의
나뉘
떠올랐
성사
나선다
##ah
커졌
대치
북측
인쇄
소규모
##멘트
순이익
추격
건네
김수
빨라
세련
염려
은지
조율
천의
##걸음
순식간
이야말로
리모
통행
폴란드
여주
##두르
시술
이듬
정교
##몬드
LED
반짝
Al
양측
##끄럽
안쪽
어라
클라우드
단백질
병의
내세우
냐는
SM
역임
다의
##ail
부착
그래픽
통로
텍스트
양이
가죽
시너지
##OC
일과
노동조합
개조
##se
숙소
잠실
트로
날카
연세대
분량
나이트
김민
NC
##AS
영리
##느님
##ith
119
강렬
이뤄질
##오스
소집
지형
유래
##밀히
##ER
교정
십자
프랜
이듬해
러브
원화
채로
사와
텍사스
삼국
게재
##셔널
매트
예컨대
천문
편이
무거운
두루
적립
##틀랜드
##뜨렸
호랑이
주연
##end
드론
소득세
스승
만하
집의
건축물
모씨
기다렸
민영
명회
이윤
약의
관람객
##NG
엇갈
동행
##ial
##루스
들여다보
경제학
둘러보
##슬러
찾아내
권유
무더
검거
폴리
기인
발간
착공
크로스
에도
역설
무너지
다큐
용의자
상점
꾸며
성추
알코
달콤
리포트
노동부
설탕
##외선
저하
소니
으론
분배
기동
파도
보물
이병
지검
폭스
주름
국물
pp
사거리
기쁘
스피드
맨체스터
블라
활력
일러
##ass
취미
장갑
평론
부재
아르헨
소극
인접
연도
장려
던졌
##마토
##지부
아르헨티나
가루
피터
시드
가까워
미용
크루즈
까다
방통
성숙
사업장
##야마
내역
스트라이
들어선
1950
사흘
일선
가맹점
불황
헬기
찾아오
농도
의정부
##저스
함정
제법
근원
산소
한자
행성
출현
대략
돌보
열쇠
혼합
비주
책정
플라스
소홀
최다
장벽
유망
전송
반사
토크
사막
도모
풀리
만다
188
문인
호기심
알코올
따라가
끄덕
베를
잉글랜드
호르
인천시
요약
목욕
마인
##니스트
쇄신
만성
일명
##ick
자사
으면서도
##데스
리가
우크라
##uc
걸친
세미나
##브리드
불러일으
화살
##ust
하이브리드
배의
가리키
막판
워치
김지
득표
낯선
##ly
아이스
응용
라든가
이례
거뒀
피고인
이어진
##현진
상정
등판
무상급식
오피스텔
##바이트
CBS
광명
##어질
벌여
언더
유료
관중
만하다
십니까
시카
점프
분과
SU
위해선
말의
울리
수확
간절
이뤄지지
전격
랍니다
is
반환
##먼트
셔야
포스팅
발음
서면
워터
교역
쏟아지
가져가
보강
송도
경사
##son
경관
우세
극심
농성
공조
FI
##유산
발명
한은
달랐
##릭스
스토어
우편
주어진
연이
##eb
벤치
파문
열매
단다
육상
이마
자이
##널드
부와
##ng
캠핑
101
축산
승무원
그랜드
왕조
신축
보드
Th
수성
아티
베이비
상용
한우
초콜
메리
##밀리
당기
해법
다짐
##ef
해경
함부
엔지니어
출력
서식
최상
헤이
어선
외곽
주파
혈관
로버트
관심사
반찬
최경
낙찰
학년도
최순
우정
생리
노스
게시판
랭킹
버락
샐러드
조속
여학생
송의
HD
주유소
ST
열려
메모리
되풀이
##ld
오케
마라톤
포로
루이스
모니터링
군데
예술가
반전
구사
방송사
보증금
매월
화해
187
제휴
소감
시한
분담
논술
사양
취한
공백
김광
넥센
외국어
로맨
비결
오프라인
##ork
치솟
간격
과자
중복
기둥
대에
방과
지각
의제
의약품
BMW
동북아
아키
연비
한양
##셉트
장난감
골든
경보
처장
가져오
머릿속
장미
동굴
장거리
준다는
##성기
우즈
프리미어
시야
신생
항만
여고
전월
정복
안동
##OU
거둔
접어들
##per
선원
웨스트
1986
수여
연패
상권
원한
맞춘
회원국
라기
추위
으려면
모형
가드
서점
스페셜
애플리케이션
학업
신나
다크
높일
기증
정해진
휴일
##af
버그
열악
종업
이루어져
당선자
시행령
##nt
사각
스코틀랜드
열풍
절약
도리
구리
돌렸
탐사
퍼지
디젤
##ment
영주
산정
부수
##카락
Pr
머리카락
##IC
소식통
기숙
궤도
지상파
파키스탄
거실
야채
우드
힐링
플라스틱
항구
루트
수련
정화
엔딩
토로
##ond
분포
탄탄
외무
선명
수강
##oy
모스크
성서
나타날
상상력
돌아갔
니까요
말리
우회
파장
망의
새우
밀접
홍준
촉촉
name
검정
약하
전진
##ore
송파
급락
박계
코어
##io
사도
은가
에이스
스캔
군주
찾아볼
파격
시위대
지우
약해
진도
이인
##어내
끌어들
중기
열릴
적혀
보험금
신흥
닥터
##패드
나노
법령
Un
쿠바
오마
포르투
국왕
발길
유방
그해
검진
단편
한국은행
연승
탱크
관계없이
리드
기원전
입건
수차례
였을
팔리
옮겼
Com
맞대
전임
인체
종업원
편견
##ice
앤드
전작
례의
냐면
##ear
운동장
이데
보행
낙동강
복제
밀양
타점
등기
할리
호르몬
알레
##ex
신탁
도출
미흡
글씨
##타운
하로
다가가
입수
시립
필름
디스크
메달
효력
##서리
강동
생산량
리뷰
다이아
스테이지
커질
선장
##ula
쌓여
보리
악기
SP
이어져
신형
##관위
아가씨
스티븐
SS
포켓몬
원형
지루
KTX
조그
인명
멘토
강좌
170
잠정
카라
경과
체질
노트북
안건
##산부
흥국
히어로
관광지
1985
어느새
벨기에
껍질
중년
바가
내외
루이
안개
수상자
클리어
연다
부에
단정
일제히
화상
레이저
주역
form
##프리카
베를린
최적
초콜릿
##징금
##소시
작중
사령부
정관
재판소
개관
재학
대피
활기
맞물
모리
배우자
해운대
포지션
화보
##IP
캐스
복음
위가
트라
##aw
##qu
연재
##올로
용이
치아
제사
반지
증후
박차
들어간다
내걸
LA
시상식
매운
떠날
몹시
판매가
참전
케이크
길래
학급
선보인
##타르
MC
사운드
언스
제조사
Sh
##MC
방금
이대
미지
해치
ICT
sp
감독원
##셔츠
경영진
아군
상기
대법관
휩싸
마리아
일수록
받아들일
상품권
암시
지나친
재해
##EA
리서
김병
비틀
하트
복의
치안
체류
협업
이어진다
접목
풍성
행운
배분
여덟
사제
어렸
광산
이어서
약세
호평
오사카
퍼져
몸매
첼시
주전
입점
알렉산
되살
농어
배럴
출제
다름없
을수록
갈비
나마
결함
혼인
대인
추첨
막내
##국수
주의자
##FC
으리라
라든지
먹거리
습격
창당
사소
아홉
선대
유성
여대
당국자
##ory
천장
류현진
정동
초보
북구
으셨
처한
유나이
거니
세르
##네스
##age
꼬집
동아리
원은
##모토
마포
유나이티
농림
##로우
##키아
해리
넉넉
##라이언
뜨겁
##베이터
##ram
구로
극히
육박
명소
시어
인데도
지문
거래량
끊이
문득
##EC
리듬
실은
계파
려던
휴양
개발자
186
귀여운
GB
금연
1984
스터
조짐
평일
져서
상임위
##TI
##내리
on
영문
세수
차분
하인
교통부
증정
환의
조류
이력
아르바이트
##스크림
비명
톡톡
하나다
버프
창원시
기르
곳도
셔츠
하천
업소
Ar
신조
식이
울음
##질랜드
쓰여
자영
##끄러운
성동
350
사이드
기장
##sh
대여
못지않
스러웠
아산
느냐고
오이
스틸
##베스
성장세
##ung
요법
변호인
##세이
원단
마신
퀘스트
저서
드린다
한눈
공문
마틴
물음
광부
##물산
부적절
검출
오렌
안겨
남동
미뤄
사우디
##먼스
운반
키워드
구할
부합
##프리
변해
은하
총격
아이스크림
과다
개체
틀림없
실전
프랜차
어색
타의
추상
##파크
삼성물산
먹스
샌드
논평
프란
##ind
##ence
아쉬운
법제
UN
리서치
시진
매진
##ary
해지
프랜차이즈
가산
수직
간장
클레
망설
바디
넘어섰
라이벌
##oll
플로리
##ber
향했
휘발
국비
숨지
에코
상해
다는데
전산
마드리
아이패드
가담
우연
##ph
##테이너
연내
타결
휴게
신랑
단절
박주
##ical
함대
##ies
드라이브
마드리드
마력
푸틴
전경
##올로기
레저
하버
흰색
사위
코레
증후군
제작진
사마
거칠
초록
영등
##고속
참석자
요시
경부
풀려
속한
푸르
에다가
서브
지갑
사설
속속
팔레스
옵니다
오렌지
잃어버린
##mer
112
국민은행
범주
익히
이데올로기
다시피
유비
1982
야마
잠수함
정전
가뭄
손쉽
CNN
장기간
기울여
TF
Pro
레스
주파수
킬로
##베리
차림
날아가
격렬
여동생
Sp
기체
손목
온실
향수
베리
복장
컨셉
올라갔
군단
회상
갖췄
법인세
본다면
재계
무난
팔레스타인
비스
각기
처녀
봉투
낭만
크리
##렉스
##니스탄
지장
삼각
배틀
으라
##포먼스
토리
안방
퍼포먼스
믹스
밀집
우대
##ire
##테일
파생
114
formula
클로
##티아
미네
흘러나
실로
다툼
비단
##운서
발령
렀다
웬만
CP
햇빛
후임
과실
페어
##스카
결승전
규범
간단히
자부심
판타
교부
국감
양은
잠재력
척추
명확히
##숭이
감탄
박종
너머
크라
콘셉트
음원
회가
트래
품고
신년
연구자
전방
극심한
계약서
스탠드
구워
그루
로고
그늘
고성
인적
발탁
가령
마나
애인
수혜
소망
햇살
보트
통영
걸맞
연안
본문
실감
달렸
종사자
세로
환승
반군
직선
가세
전장
딸기
타율
레오
##소연
광양
대역
유예
##베르
관건
태우
교대
교재
천주
놓인
승강
토마토
##RA
보컬
공룡
물결
브루
담화
엘리베이터
공지
만점
구제역
자외선
배수
무제
암호
##욕장
버섯
컨테이너
수질
권장
마법사
좀처럼
##진보당
공감대
원피스
펼쳐지
모스크바
아줌
인자
스미스
공판
로즈
##ern
총수
지구의
공립
중앙은행
캐스팅
1979
레이더
변했
단서
정산
알렸
등재
##이치
앞당
발송
하와
아티스트
서장
아마존
덴마크
##MA
적시
할수록
소나무
변함
공존
놀란
승의
소아
집필
분해
닷컴
비해서
##렉션
센트
조립
연평균
올레
KA
묘지
합창
소액
특집
차가운
성장률
발걸음
각지
스타트업
##ook
기숙사
모양새
단가
보름
카지
산출
간직
SUV
취할
사방
경전
사임
통합진보당
총력
이경
머물렀
브레이크
##TO
신자
폭넓
##ens
총액
소폭
대주주
유진
첨가
획기
찾아온
탐색
드문
##타이
숙제
관해서
함의
DJ
##자치
동이
이스트
##플레이션
##부르크
찾아왔
오케스트라
느껴졌
상륙
반격
아프가
거제
남지
##oT
홍대
압축
연소
심리학
중형
나눌
보너스
견인
유령
공통점
자립
##슬림
원금
음에도
긴장감
려다
1983
중심지
물체
알뜰
아프가니스탄
플레이오프
##로움
마술
민속
약정
자선
티셔츠
정조
성명서
모호
들렸
오스트리아
마찰
행하
무슬림
거꾸
표결
으라고
달려가
인조
##ug
시속
느냐는
조종사
카를
볶음
##셀로나
봉사자
후계
바르셀로나
이노
끼치
필립
승점
신원
교감
오리지
중진
방문객
이뤘
천하
접시
카운티
모토
차익
상관없
항해
순찰
##ver
데스
실리콘
존슨
포스터
샤워
창구
##운다
##LL
##퍼런스
대왕
수제
화두
박상
리버풀
강변
대리점
스노
객실
배추
정문
##타리
시카고
평론가
회생
##멘터리
쿠데
미분
제치
무늬
착륙
씨앗
냉동
쏠리
발판
실버
위임
외쳤
소설가
공연장
IoT
싱크
DM
온천
정몽
재킷
잠들
보람
상시
다큐멘터리
박성
달의
움직일
##ock
정진
영등포
정립
대포
서적
##레이터
파동
김형
상수
권역
매개
악재
채취
액수
하락세
##olog
다채
근절
##다임
보선
패러다임
꼼꼼히
준의
105
한중
달라졌
징수
##커스
용병
비대위
취했
구급
끈다
여름철
내신
국수
리아
1200
입단
정자
종로구
이상인
걸어가
청취
math
이송
에릭
##철도
훌쩍
안성
망명
진이
마르크스
부엌
##LS
기득
강정
면모
리비아
김선
임용
중세
##저우
강서
구장
##지대
방출
센스
AS
미미
이해관계
실습
ar
자유주의
##ES
쿼터
경쟁자
##ohn
##테르
##one
외상
도장
줄곧
한인
##붙이
달라진
챔피언십
후지
##매김
시일
쌍둥이
자리매김
서정
마사지
##방울
##나물
염증
공습
키즈
##저트
에버
국악
회화
응답자
일본어
1981
이식
##투스
냉정
한다며
매립
더라면
시아
김승
유머
강자
우아
실상
발자
구절
일괄
토너
프레스
이브
중소형
치과
김장
식탁
숨졌
ET
군산
##ational
보건복
쏟아져
SW
복사
늑대
자란
니콜
표출
##북자
빠질
##팡이
뚜껑
무겁
##에르
장마
전두
민사
VR
증가세
비춰
이원
가르침
pro
##레나
엑스포
##센티브
산악
왕실
인센티브
낙관
전문점
프로세스
코믹
넘겼
기습
an
결산
옮긴
LCD
통산
##호텔
간신히
연체
친정
연쇄
2500
테니
교양
##pp
수비수
할당
에르
부임
실린
바나
생각나
마는
불린다
##ann
해피
트윗
360
동호
잔디
인텔
각별
협동조합
불참
나기
정류
버거
딜러
메디
김한
AR
Mr
ex
##시스코
다투
주어지
신한은행
충당
가로막
강수
과천
친화
도널드
사적
원했
통사
뒤따
##노스
밸리
##플러스
AT
매물
황의
자택
다이아몬드
문단
포르투갈
입자
담론
BBC
디의
화산
살균
나비
##기금
충동
선보일
아미
염색
버터
##어스
실려
창설
골자
상표
대검
노려
표적
향이
입체
주신
##iss
##뜨린
선이
학계
가이드라인
동대문
권익
급하
이목
맛보
양해
폭염
니스
##OP
초상
절벽
작곡가
라인업
##소문
호가
연초
디저트
1945
마른
명동
유보
접근성
권총
섬세
##수기
인문학
털어놓
획정
라틴
던진
카지노
유니폼
피난
노화
다운로드
관통
##자원
딱딱
재즈
할리우드
식단
일으킬
프로모
빅토
우산
지체
원로
대담
해선
가파
정했
##ish
만료
홀딩
어딘가
가져야
창단
카카오톡
빠져나가
중앙지
스테이크
도마
빼놓
급감
##ost
꾸려
창업자
정점
대입
회로
Cl
뜨거
특사
테니스
사랑과
중국어
지칭
수영장
필연
##AR
리치
SC
##볶이
삼진
소상
동국
백지
유로존
클러
자책
플로리다
##ley
깊숙
비박
II
그제
역동
가마
양주
복도
영하
호감
세인
여배우
쾌적
신차
돌연
동경
불명
간혹
헌재
제철
현관
두께
장단
컬렉션
에볼
테이프
가축
급히
##신저
관하
말레
의정
185
파우
인선
공구
더위
마셨
돋보이
세인트
불길
보스턴
상봉
호흡기
동상
##OR
만이
PS
시크
겨울철
잇달
차선
민영화
증폭
자정
오리지널
##폴리오
거액
깃발
극의
헨리
포트폴리오
게끔
전동
내년도
언의
대공
##프란
이시아
국외
만인
휘발유
기리
적성
##감치
중얼
당뇨병
##찌감치
SD
인삼
보건복지부
웹툰
탐방
강구
액세
##pt
원산
블로
캐피
유선
담임
풍의
관은
세계관
모듈
칼럼
##ps
플랜트
습득
잡힌
메가
고령화
누리꾼
실물
방울
나폴
크레
재임
르노
찰스
배심
연고
인질
특강
역학
스프링
전대
오디션
##ism
외화
볼거리
올라왔
권단
디즈
녹화
##act
광경
##시피
남매
가져왔
##셀러
국도
스레
태세
프로모션
서사
보병
두부
음식물
재편
정례
달걀
102
이민자
만찬
안보리
곡선
##무라
LPG
깔려
파스타
포즈
생략
볼까
은데요
1930
그렸
걸림돌
익스
##나타
마셔
토니
스톤
후유
벗어난
드려
스와
느리
이온
MOU
줄어드
웨어
떡볶이
수동
은의
해역
##키퍼
김주
현수
##징어
자재
##태프
##고사
대미지
공자
사우스
입히
도주
펼쳐진다
선수단
설득력
##디스
골키퍼
원시
긴밀
이진
125
맥스
고독
원동
내륙
기량
희귀
신약
Bl
피크
##래프트
독려
아담
전례
홈플러스
##겹살
석사
공론
다가왔
지원자
법상
쌓이
쇠고기
트랜
가늠
이현
합계
운의
아크
가정의
도미
생물학
삼겹살
원자재
연어
삼성그룹
마실
여우
○○
공로
밀도
진통
결의안
사이클
행렬
분비
빈번
수원시
게스트
방북
수목
추후
특례
움직여
##테이션
요한
보습
동전
무사히
박찬
과징금
바이올
문화유산
벚꽃
송금
팽팽
##코드
1978
야심
시그
##루미
쿠키
선비
통계청
농어촌
꾸미
곤충
합치
출하
ph
방면
##라이트
가치관
동방
통지
아테
##ult
넘어선
외관
이뤄지는
EC
는구나
##동자
가져올
모방
아바
승자
유대인
행사장
밀착
웨딩
기점
오키
워킹
경연
막강
##ign
##프란시스코
최경환
귀환
고심
도요타
샌프란시스코
조조
교복
백의
분자
##eal
보류
오름
주축
모티브
108
섰다
다녀왔
성주
원격
흥원
드린
절도
김준
연산
전문의
십자가
회의실
분수
문법
여담
소품
허물
불빛
재차
##월드
별개
장래
CS
스리
파인
과열
코코
##TS
칠레
운동가
힐러리
몰두
선착
1973
금전
STX
사나이
승격
wh
유난
##DA
고구마
유쾌
프랭
강호
솜씨
월간
##az
MV
먹방
롯데마트
신하
목이
활짝
환원
태권
CG
하버드
가진다
선점
스가
구인
행장
던전
이광
남양주
텃밭
직의
이불
집중력
최우수
다각
날카로운
전일
결과물
질주
피스
법학
산지
관제
컨디션
세액
핀란드
러닝
다치
이뤄지고
수평
be
국무부
택지
유교
##테랑
이케
칼리
유한
##로리
두뇌
포위
나자
양호
##때로
온실가스
1975
철학자
스캔들
우라
정보원
메신저
에프
들어섰
대두
##겨운
학의
하이닉스
막혀
경감
손길
##ace
일종
서초구
초고
겹치
##도르
섹시
##테스
##크리트
몰입
지친
국한
단골
호조
처해
ed
대문
비준
넷째
풍요
그레
정찰
총체
판타지
##ach
실사
머신
나뭇
가져온
포격
저조
TP
철의
동문
스무
추이
설이
출고
개개인
상고
어음
자민
찬반
옥상
##고속도로
찌르
LI
돼지고기
장남
판교
##소시엄
컨소시엄
붙인
##버님
기하
개량
담합
게요
##퍼드
박재
김희
드러낸
붙였
##센스
피지
기념식
왕복
잭슨
가설
오징어
촉발
회고
상단
수월
어린아이
123
노르웨이
보이스
길러
훔쳐
고양시
우체
디아
경희
살의
일찌감치
FIFA
산단
축복
관악
올라온
차이점
말미
홀딩스
카운터
끓여
박태
기미
생겨나
주당
수중
내전
강진
미분양
사범
승계
니깐
뒤쪽
성희
파손
삽입
충고
불렸
적힌
으니까요
배기
구이
1920
행해
기용
1974
구출
총생
텍스
생전
내다보
외형
넓히
##ons
패의
블룸
##ys
옥수수
전승
홍성
됐으나
##ru
##대교
HP
자비
회색
시흥
기꺼
##거래위
메카
손수
공정거래위
세븐
##pl
스러움
##균관
바를
여겼
아세
산업은행
Mar
팀원
184
수백만
##스트리트
예뻐
패밀리
농부
장로
일화
대명
ES
듀얼
침공
##다듬
제동
디즈니
탐험
스타일링
도래
고위급
성남시
그까
일러스트
구동
동창
궁전
리콜
##ere
##orm
즈음
115
성균관
진한
부속
##무실
밸런스
소파
밥상
##────
무수
이화
다지
남미
450
하드웨어
번개
엘리자
때때로
레전
##킨다
내정자
달라질
나간다
1976
금고
미묘
103
토마스
생존자
숨겨진
음란
서원
대교
수반
##천군
태그
볼트
샘플
해수욕장
서른
저절
올리브
1972
볼넷
상급
미야
KBO
상류
토양
시내버스
미끄러
잔액
걸린다
존스
##able
##cc
문체
해병대
KO
여정
콘크리트
대동
베드
고종
다니엘
##IT
불타
마음껏
항소심
다듬
초코
보정
남짓
산학
##어붙
어스
울려
부평
보호법
수거
친다
말기
나르
냉전
##높이
베테랑
##금자리
소방서
왕위
제작사
머물러
##LED
방사선
미나
자궁
보금자리
사신
로선
봉인
혼의
대위
세율
월스트리트
구형
존재감
그릴
입문
기꺼이
사관
불어넣
가급
군중
투구
원소
##티스
요렇
햇볕
흔한
찾아와
합당
포상
##오카
면도
끌어올리
111
고난
펼칠
쌓인
불출
산재
거인
브레
스물
##ner
라구
범의
##HD
##도어
한식
남측
##듀서
적절히
넘긴
여력
영동
유관
##으므로
프로듀서
시드니
정류장
도매
씨도
학사
220
슈팅
산타
늘릴
##리안
행적
국책
ad
MP
로그
명사
요렇게
문헌
화염
노라
색이
가이
각광
하와이
##베트
트레이드
##럴드
등장인물
로움
기와
꼬마
설화
조형
비어
문예
유난히
탈리
##고래
재빨리
복권
드라이버
신지
두지
중위
파스
헤지
결말
국기
계통
도피
징후
가디
송이
울릉
go
주스
샴푸
##ON
기종
결집
카스
박진
경쟁사
240
명명
환급
##ier
섞여
미팅
체코
대표단
차종
호전
외계
red
가꾸
넥슨
바나나
##ton
수첩
SA
John
미인
##나들
후유증
박용
food
쓰인다
컨텐츠
##ivers
Ph
잠자리
시동
시멘트
공대
재테크
일리
벗어날
##라이나
가급적
잊어버
##바겐
치마
사회단체
국영
절제
상반
무제한
무자
나눴
섞인
##tern
관습
총생산
빈도
겹쳐
블리
교향
식별
저마
별의
워커
시력
장애물
야스
스피커
##rou
유기농
진해
침착
##벤션
탄도
##old
##평균
리처
정반
벅스
열흘
망원
##런트
달라진다
본점
안과
변환
악영향
주지사
인출
##RI
사육
직구
직결
이루어진다
칼로리
평의
메트로
독창
손흥
여도
묻혀
변동성
타수
메탈
애요
##전력
르네
##습기
폭스바겐
1977
##ash
서열
주춤
치른
특별시
는군
리오
##네스코
손흥민
납세
##rom
속옷
아쿠
거시
모였
견딜
반갑
반문
호박
플래시
농축
사외
퍼시
메타
레전드
효능
it
컨벤션
##티지
공예
받아들였
타가
색다른
종말
간과
욕의
접한
성령
제작자
물리학
머무르
교직원
수량
소서
NP
력사
리터
Wh
구슬
철폐
##라미
정정
넓혀
밝힐
##IST
외과
시설물
후계자
클렌
##서스
동요
사사
##글라스
표절
사촌
눈부
공청
##르드
##퍼니
마그
타이거
갈색
사옥
스윙
임하
##포터
비빔
왼손
채팅
동아시아
손질
폭포
한라
국지
원만
이창
전단
열망
브렉
감행
살아나
알라
유네스코
일까요
##arl
브래
안전성
교전
정장
##ite
수와
체납
메이커
##위치
cl
DS
야드
귀중
동점
박의
슬라이
이용객
발이
##백과
##스틱
능동
분화
코스트
김윤
증액
106
오산
헤르
기업가
김연아
줄였
매직
ms
지휘관
##비치
노원
지질
##che
##화물
국제공항
콜롬
##마켓
친근
미주
따돌
주교
##디움
실종자
나뉜
테크노
신청서
파급
잇따르
남산
대의원
페리
미생
악몽
각도
세이브
으세요
##라비아
경품
구조물
았었
하도급
##소통
기념관
동반자
가든
본관
전념
생명체
관련자
거슬러
학점
해적
##orld
내재
##줄기
앙의
인양
표방
수사관
용사
걸어서
아주머니
신뢰도
김창
카트
돌려주
by
마운드
불펜
##te
탈모
복지부
여행자
어미
An
신다
##상부
정형
포수
수필
나카
스폰
inst
요령
영수
나주
합격자
휴직
이산화
##일드
이산가족
고비
내려갔
소고기
궁금증
##BA
풍기
맞물려
컴퍼니
파이프
강대
고아
왔으며
##학규
지기
1968
추궁
미디
은행장
유상
1971
노년
목적지
104
소명
테라
의사소통
자치구
as
대요
글쓰기
공모전
NS
침실
호스
특보
원주민
임박
튀김
까진
예년
반감
입각
통찰
절정
개원
금세
기로
애널
심층
건설업
맞붙
##are
챙긴
지리산
감과
전시관
문항
웨일
바닷가
도어
183
늘렸
공격수
비서실
대책위
익명
당대
중력
아버님
샤오
슬로건
친분
여행사
코디
##십자
갱신
열람
##가와
액체
신작
유익
화석
구실
##뉴얼
주식회사
번쩍
레몬
109
장터
저택
미학
회복세
대타
시뮬
일생
주니어
란다
무궁
179
거래일
동반성
분주
맥도
변한
무심
잔류
회차
조별
리처드
포천
에볼라
페널
자취
교리
잠자
만두
주저앉
카타르
다카
관이
차입
중상
전처
음의
전성기
그라운드
풍선
##ile
순조
##운용
No
EBS
가처분
유무
시공사
유서
뉴타운
대성
휘말
아인
버지
am
국사
##엑스
##ics
임종
쉬워
##러져
법규
접전
열광
천정
소행
광대
소박
AF
한옥
속하
그리워
청계
##법인
효성
##iel
어업
사업가
조그만
지중
증설
대본
설교
시당
추리
##ide
바늘
원안
Pl
조수
107
##뜨려
로라
사치
무방
양대
조이
##GA
##라노
한국사
단연
스며
강국
학생과
기절
콜로
영재
맛스타
납입
여느
맹세
채의
관문
미스트
쓰러지
비관
할지라도
##퀘어
##총액
이즈
매사
인플레이션
장자
휘두르
단풍
공이
##ove
멜로
시가총액
Ex
워크숍
육의
위키백과
레지
어째서
러블
캐롤
속한다
##orea
상이
수산물
후반기
대령
조업
##ction
동사
호재
배심원
적금
손꼽
돌진
##카와
난의
희미
한상
냉각
이별
버디
패권
부의장
마진
쿠션
성전
원서
##수리
내세웠
결실
균열
경영학
지회
강물
캄보
필라
정선
수납
벌일
레시피
재래
기술자
이따
PR
대림
마차
멋있
중장
엄지
프렌
##AC
me
떠오른
본성
인위
출혈
이천
##rist
135
포크
떨어뜨리
지에
처치
아웃도어
어치
모션
##ina
얼어붙
##orn
여행객
코끼리
공신
부지런
청중
원회
kt
##무게
또래
##턴트
소총
with
예매
181
적다
다중
스페이스
날렸
부통령
요동
최장
로맨스
몸무게
해커
강북
싸웠
다스리
tr
결선
탐지
대놓
수요자
명상
수출입
세션
흘렀
단기간
산이
녹차
대용
강점기
김유
1969
##찌개
질렀
김천
아이언
직위
강타
내쉬
박지성
##꿈치
문경
대도
승률
심야
피력
샌드위치
어휘
발부
가미
일컫
토막
허벅
AD
세탁기
특구
민선
##ance
매뉴얼
허무
해냈
모던
묶여
풍속
급한
지주회사
Sch
관내
산맥
JT
과언
민자
##aver
십니다
소동
178
셰프
에디
이룩
캄보디아
스태프
##⠀⠀
121
경지
규격
블라디
약관
이한
##제철
175
159
남아공
풍자
북극
##내셔널
간다는
남해
급진
수염
부결
소진
경신
구금
세자
알루미
와이파이
인터내셔널
역세
총무
패러디
킬로미터
번영
무성
일회
회사채
##슈타인
이동하
라이언
선호도
거미
곤두
혜의
드러난다
주상
공청회
삼촌
달달
돌풍
##페이
동물원
습지
발족
명도
판도
##모니
스티커
파이어
퀴즈
벽돌
손톱
수없
트러
부담금
저술
정우
드레
음악회
아리랑
자산운용
따른다
당정
한껏
항쟁
조경
함량
방화
보낸다
피드
다뤄
쇼트
세단
NY
행방
셀카
초창
고찰
취재진
공표
패드
상선
추신
리베
스타디움
산행
다저스
퍼시픽
##김없이
부드러
적잖
건담
라마
는커녕
시련
필사
거둘
절박
오디오
일어서
명인
접어
당도
상거래
외래
Ad
◀▶
조속히
화자
##TC
소울
1948
액세서리
제트
현수막
우량
##att
뒤덮
##슬리
장시간
중원
블룸버그
집니다
박모
##나드
거창
빨래
특급
알레르기
##페이스
현존
##ky
국회법
트레이닝
##기름
카리스
퇴장
응하
모닝
##베이스
김인
눈높이
지로
재판관
인지라
떨리
어가
다녀온
인플
코르
독성
서한
둥지
원심
조준
번갈
도망치
울타리
급기야
알루미늄
ID
산물
128
1963
윈도우
무안
증자
파이낸
조계
락의
1965
TH
전향
Sc
실존
환기
로워
마리가
##릴라
심포
1800
##yst
News
풍력
덩치
랭크
연준
중고차
카레
ㆍ중
AM
CF
바에
스케줄
목동
파울
타깃
##ott
터뜨렸
격투
##팩트
자니
원동력
##ax
푸짐
무분
야구장
둘레
신전
세심
노동력
면역력
따랐
당권
장편
외교관
아토
기업체
충주
노사정
눈썹
요거
인들
눈동자
치렀
미시
안면
##und
로빈
어야지
PB
재심
다녀오
예보
데려가
조망
장부
함양
타선
심문
##주얼
182
유희
거센
남다른
선체
얼룩
서귀
컴백
벌어질
김밥
##올랐
농지
내포
병기
생체
느니
방대
만장
시연
230
일찍이
한국전력
슈퍼마켓
모발
북방
허공
##ban
##미르
실재
침수
가습기
도당
판문
농약
심플
은근히
기력
1967
추기
페널티
브로드
터뜨리
밀가루
회의소
김두
야말로
축의
배임
은은
공휴
You
영화관
순례
아모
비주얼
농수
편찬
##르타
흡입
훔친
유가증권
##공단
대리인
##OD
기고
##BI
145
바이어
선교사
모로
113
영유
틀리
소리쳤
##순환
플랫폼
구가
오른손
클러스터
서산
122
견이
ml
호칭
오찬
미쓰
졌으며
항로
수료
친숙
##여겨
관철
긴축
##ink
캐주얼
박인
지휘자
각인
운수
중남
사각지대
남북한
에드워드
퀄리티
도난
로열
식감
##anc
방어력
순차
우체국
약품
광물
어둡
뻔했
가평
조영
아프간
스코어
자이언
조처
더운
화랑
##ead
##int
##날레
몰렸
양평
특색
##플렉스
흘러가
##갈비
숙련
백작
판례
제대
흡사
네오
의아
꺼리
보건소
베스트셀러
##쿠라
##ox
##ree
거리의
순회
서두르
뜻밖
pr
눈여겨
박해
미라
송전
승려
하마
일축
잣대
통신망
맛과
케리
쓰였
오프닝
띈다
캐리
##란트
합산
포부
##ous
나흘
루시
반론
의구
고부
조개
드럼
##스틴
송파구
노부
생명력
품종
곡물
힙합
완성도
지역민
엘리자베스
해답
정가
목재
급속히
비주류
세라
세례
성급
지음
공보
동거
기침
##row
강당
챌린
평면
둔다
겠죠
우승자
헤매
속초
축사
직책
거쳐야
극도
비와
미수
다정
이이
세분
##itt
불사
DB
원도
이방
친밀
의거
효소
등극
레일
토트
부흥
서귀포
쓰인
유모
남서
명함
155
##ai
스트라이커
항암
박병
떠돌
잡스
동탄
로우
진열
동인
테일
저해
제국주의
업과
경직
발렌
기일
쓰러져
참치
코카
1962
울트라
꺼냈
악취
스텔
올린다
##애나
냐며
흘렸
기수
번식
165
구비
허벅지
고안
광의
벽화
정제
품은
토종
##ual
EX
애널리스트
의왕
후자
1300
커지
공휴일
견고
승소
##ake
나리
스퀘어
거침
고분
타석
북서
국과
화사
##결승
ETF
UA
폭우
##ime
펼친
정이
곧장
어머님
루비
팽창
핀테크
불거진
루스
행인
##누스
타지
##첨단
마우스
어긋나
올라간
LS
볼륨
돈의
개신
##enn
라던
은밀
무분별
리우
성모
의구심
보답
##금리
환산
연중
아우디
유정
유류
토스
발발
교토
비법
하단
작사
Tr
1600
트랜스
바비
##파이어
암흑
윤곽
부원
con
성원
다자
깨지
본명
버드
도망가
문신
뮌헨
페인트
토너먼트
서문
##크림
OLED
루수
첨부
154
끊임없
신영
최재
불상
큐브
아테네
DC
158
제인
틈새
속해
듬뿍
최상위
다방
함수
치료법
서해안
발자국
##하마
un
요정
직관
오키나와
격파
##레일
지뢰
최첨단
117
KCC
##sp
스트리
스트리트
응모
##승부
마리오
118
공관
김혜
곡이
카리스마
초창기
늦추
흘려
태안
##수원
자랐
루타
보호자
취업자
판문점
빅토리아
엄정
브라우
서남
이룬다
연주자
서재
파르
주십시오
퇴원
쇼크
세울
##젤레스
왕비
팔렸
##드름
누락
화법
바스
정령
우뚝
추대
하룻
사라진다
원거리
경비원
도울
까다로운
스위치
##시스트
이윽
택하
알아차
##rig
견뎌
##ech
심도
호환
부두
##부진
빨간색
서비스업
심혈
오리온
바그
불려
엿볼
초밥
케네
수정안
실증
다쳤
외환은행
제왕
촌의
MVP
카테
연합군
파행
움직였
휴게소
210
파이터
쏟아졌
차츰
1940
기류
줄지
이나마
흔하
여타
반경
Con
시킴
노란색
윌리엄스
가명
찬사
로이터
리본
플레
낯설
도자기
이건희
체온
알맞
척도
나미
이윽고
청량
##바꿈
##ID
스폰서
유키
부인의
경이
##ition
일간지
1964
연못
뿌듯
시조
시킨다는
돌봄
안토
리바
방이
##금속
대란
즉석
##곡동
감고
반값
올라와
증서
감도
베일
었었
sc
인데다
승마
제갈
늘어놓
##pg
성지
공용
사당
평안
데가
장년
나날
접할
티어
##클린
발리
태백
이견
경성
부응
도라
활동가
적법
##ome
통째
1900
pl
쓸쓸
깨끗이
막바지
테마파크
서대문
양당
나스
소변
초안
##노이
750
지으며
기질
##무진
WS
달빛
at
하계
##금융
약혼
MD
naver
두드리
공명
매콤
투신
버블
브로커
무너져
흩어져
교차로
황사
무거
##에이
난방
상회
숙이
##IN
NLL
해독
아름다움을
느린
스틱
후방
김원
116
##예술
게시물
색채
중추
불출마
##프스
##ale
아메리
사채
내성
담뱃
들으
##체어
##네마
수표
부상자
도보
국유
김관
요코
반기문
후반부
물자
대관
생산자
바우
저마다
##AA
비누
선인
##희정
이뤄져야
종속
손잡이
신진
보직
글의
휠체어
늘어난다
연임
재가
돌아섰
ab
##ement
##ix
홍삼
살펴볼
원산지
준우
드릴게요
분에
소생
달리기
하룻밤
내려다보
그물
##iet
기치
경희대
수박
서강
율의
지평
입안
미약
##외과
자릿
PP
베풀
벌리
교보
목걸이
즉위
코오
메이드
127
강인
계몽
제각
아사히
결핍
동산
덧붙여
인분
강했
반장
디테일
수식
소홀히
##uk
점거
프로그래
히스
꼽혔
였음
위쪽
명과
기관장
펼쳐진
##쿠스
돌아간
157
즐겼
자구
파편
지역인
##버거
문턱
##깨비
남아프리카
RO
근간
아아
##상스
체조
트리플
소이
우루
남구
보인다고
가닥
요르
Ed
시합
일쑤
신음
MA
선과
차체
아무개
CO
육수
Br
마카
자각
하사
척의
변론
택했
나뉜다
실크
태아
강등
너스
응급실
윤상
페루
폭주
버지니아
요트
경색
선글라스
정중
분식
갖가지
속출
캐시
타카
자생
악순환
AC
탄산
어학
의존도
##막이
제니
아비
##포드
건넸
성산
유격
##ology
주공
##셔리
달려들
강전
##필더
##rid
막연
럭셔리
미드필더
각계
찾아갔
군포
옥의
##교도
고모
##aily
탈바꿈
절로
당면
들어설
화질
파란색
프로세서
177
제지
반가
베타
##전지
점진
커진
출발점
개수
임산부
북동
##ade
지만은
리퍼
다우
달러화
만난다
스탈
셔도
평상시
지나갔
코오롱
칼라
가디언
혼돈
미셸
영도
활발히
까마
리어
쾌감
앞쪽
##다드
누이
친해
무라
해저
매스
LNG
처우
웅진
질타
증강
분홍
염소
수퍼
지녔
피싱
온전히
경상북도
건축가
당혹
그래프
경산
역과
르네상스
들려주
롯데월드
트로피
올스타
정재
토요
시뮬레이션
급변
정주
##ank
단추
테일러
갈래
부로
##중국해
갑옷
탈피
약사
앨런
구부
PM
방송인
모처럼
팔려
달아나
시어머니
시마
여진
쳐서
1966
음향
##ins
##차림
티베트
잉여
임차인
맞대결
##뜨릴
##ans
훔치
맛볼
오크
깊숙이
거취
Dav
##ris
대지진
시종
여관
다국적
담의
대우건설
명제
연기자
도왔
1961
EP
156
배낭
IBM
내셔널
px
소란
끌어들이
헬리
배트
##erv
사용량
이어받
온의
Univers
탈레
쉼터
##케인
로렌
원치
박경
사회학
##여대
알선
결여
##커트
여객기
거요
강철
개교
인수위
발산
원자로
번은
비엔
124
라이더
모터쇼
##언스
공채
##버섯
144
두꺼운
신주
묘한
앞섰
디바
생소
세속
헤럴드
##튿날
진흙
균형발전
가결
퇴직금
수자원
욕실
##필드
장만
충실히
MM
이튿날
당한다
##숭아
깨우
요리사
건대
갈리
성완
상응
혈당
유치에
라우
도로공사
구르
퍼스트
목격자
종가
##살렘
계셨
##ett
여행지
개막식
만끽
치중
##루살렘
성기
추기경
모건
프랑크
VIP
거쳤
김구
놀랄
양면
혼잡
헤어지
실에
선풍
추신수
신곡
##ull
##eth
힘쓰
##BM
반입
##퇴직
신데
든가
스톱
청이
##클리
불문
무더기
##EN
복선
넘어갔
형법
챙겼
들판
아우르
이양
구매자
스릴
신청자
##축구
벌인다
마마
##시브
기념일
견지
두피
상부
연탄
##과이
하소연
마니아
내린다
담장
시간대
복판
##들였
##이지리아
맞췄
니트
SKT
물려받
위배
성완종
연회
한양대
커져
지날
수녀
마린
162
연행
물리치
사카
나이지리아
능가
엎드
차등
엘프
칼날
모노
어울려
활주
##면적
경기력
구했
데이터베이스
나폴레
아세안
지탱
열의
##수산부
직격
준결승
증명서
뮤지션
가위
내실
중량
세일즈
도우미
나열
순방
인방
해인
##수엘라
고품
세가
바이올린
왕성
##악산
타로
융자
국공
숙명
젤리
드루
아메리칸
잔혹
미숙
280
어느덧
사절
신안
몰려들
목회
무실
유수
평판
생겨났
심부
132
탈레반
1946
으실
##불리
바닷물
한시
배움
최영
엔지니어링
일깨
##에스
색소
이화여대
꾀하
이호
육지
운임
##ft
본체
거스
현미
신생아
스튜어
일감
126
요가
하얗
요르단
137
유방암
정사
라가
이관
Press
왔어요
##lic
클리닉
##다이
서리
마땅히
##구치
온난
##앤젤레스
햄버거
리프
불화
##짜기
168
골목길
대내
이대호
시즈
돌격
레바
##pe
트윈
로스앤젤레스
한성
난감
들려왔
영국인
기울였
만연
시경
변모
출원
가솔
엣지
##무늬
세워진
루카
칼슘
테러리스트
방수
사우디아
##ower
기나
비평가
병합
수에
악명
고법
무르
옮김
교내
양말
끄덕였
염원
자루
코노
브라이언
슈트
드로
나폴레옹
사르
상설
계수
콜롬비아
터무니
152
서인
UAE
요란
다발
아랑
##수아
인해서
입주자
포화
펜션
개막전
Man
GT
뇌졸
좁혀
330
끌어안
갯벌
mc
장도
총독
##장면
성직자
##르도
보가
코엑스
경합
물기
경마
무승부
파이낸셜
만을
mar
펼친다
정차
##베리아
아드
초조
사우디아라비아
아찔
365
가두
순매도
휴업
320
역점
황우
털어놨
박준
어필
배드
##ife
종편
청각
매달려
돌려받
##바탕
기색
쇠퇴
움켜
은평
클렌징
어기
배열
내비쳤
정연
진행자
##amp
하프
139
창의력
면밀히
수락
세밀
##보냈
프린터
상여
마포구
사슴
소시
기저귀
맛나
분대
아래쪽
로이
중남미
133
해양수산부
계획서
월등
업주
프로필
##날드
라운
운영비
최고위
올드
수용소
여주인
통틀
##oon
##ool
무너졌
김우
미녀
서너
징역형
알아내
그려진
분실
270
NG
##미안
후인
번거
케네디
문학상
공허
태양의
되새
치켜
몰린
164
성북
지나간
물러났
정현
무형
##무장
선착순
기내
속삭
불거지
영지
원점
##라기
해낼
선보여
무공
톡톡히
작물
기다려야
짬뽕
투여
메르켈
과격
커스
부추기
데스크
일어난다
반죽
온전
##들목
후문
##레스테
BB
매몰
주어진다
센트럴
##elf
김영란
##나항공
월평균
153
만져
원룸
대나무
연정
나들목
바울
애호
아시아나항공
내려왔
숙성
##더슨
교육비
취득세
담백
소소
136
##ase
존속
골퍼
빌미
##닐라
##암동
강기
기다릴
불씨
의료비
##토스
니코
우주선
플라이
쳐들
하동
선뜻
군민
스테이
##LC
##그레
해발
우측
뒷면
자막
피했
FT
그친
병실
깨달음
길드
중앙선
스쳐
예루살렘
영업자
계약직
는데다
1400
엇갈리
지쳐
스케이팅
창간
피겨
독주
계류
3500
타고난
##마르
성벽
익혀
망하
BC
거란
김미
태권도
정부군
시책
미러
아이러
방콕
웃돌
김한길
카자
##VD
여러모로
미친다
살균제
149
전경련
##삼성
관리법
##숨에
단숨에
마스
개인전
준우승
황태
##yn
미르
할부
##레스테롤
##oth
스타크
어이없
편집자
남학생
한파
jpg
폴리스
호세
광교
여중
그랑
무어
복종
제게
거주자
콜레스테롤
브리지
방황
##연맹
관직
모음
굶주
관광공사
그랜
이완구
초라
찾아보기
김세
##즈키
적십자
치러진
의논
고질
민법
VS
간소
헤아
올라간다
1949
WSJ
무색
찬스
##러기
##up
교단
여객선
감리
루프
헬로
승강장
케냐
부가가치
##ike
스냅
탁자
구직
태종
##oul
##정식
연구회
양손
체내
윌슨
서운
입소문
불복
고함
죄책감
직속
발전기
퇴치
정액
안목
다케
에티
ELS
옥스
셔틀
기본법
케빈
마주치
##me
Le
고운
사수
즐거워
260
박기
##사키
찌푸
스러울
가솔린
유화
불러일으키
루머
하우
뱅킹
펌프
군사력
전셋
쏘나타
코팅
팬택
##트릭
수인
계명
NAS
지방세
신용카드
DMZ
추론
163
138
##제리
국보
아리스
내려온
주임
상큼
항일
각질
저명
##ave
루터
반항
꼭대기
만족도
가열
태자
##킨스
신속히
나아갈
신정
129
지독
대열
148
파출
##맞이
둥근
부어
초연
미생물
MW
잔해
촉각
iOS
203
내려앉
로프
차마
##자재
달해
대졸
속내
176
정해져
가락
CA
슬림
바뀐다
전망대
위함
록의
커진다
##부상
춤추
미스터리
더미
이강
SF
이계
활주로
귀농
최정
여겨졌
##co
fl
자릿수
관례
턱없이
오션
양복
주총
신병
##air
착하
잠겨
와일드
##세데스
관리비
당론
심기
직영
로맨틱
공황
메르세데스
FM
비키
형벌
##넘기
##연구원
영천
스톡
중성
##임자
가부
서포터
건드리
챌린지
##ater
들으며
##미디어
알렉산더
카운트
인은
명백히
분신
몸짓
##yle
부딪히
AFP
PE
공교
조연
##자유구역
불법행위
##청사
독립성
북경
완주
당진
담겼
대표자
링컨
##콥터
반짝이
전세금
불허
평점
물놀이
일차
PK
토트넘
총의
영수증
생강
가리킨다
봉지
커리
공법
내시
고와
특전
##퉁이
새겨진
어김없이
경제자유구역
정관용
끓이
알렉스
쟁이
미용실
펀치
##인다는
분사
##거스
뾰족
금이
증기
커리어
버스터
식용
에이전
151
양수
조직원
방사성
양천
코인
애리
가출
매듭
글래
수컷
양양
이정현
프라임
되돌려
과감히
외우
##렉터
시안
지켜봐야
와야
정반대
im
센티
넘버
비우
띄우
외로움
##슬라
조지아
호화
신입생
커튼
북적
호프
아쉬워
아날
나타낸다
수레
크리스티
어민
여드름
##ric
탈의
판다
세관
운전사
오메
요미
당첨자
벌어들
장안
막힌
골절
##하늘
어버이
실험실
주심
구타
알림
연차
예술인
뭉치
복직
무모
구급차
##워진
현대인
돌파구
146
무더위
명중
사상의
초선
서부터
주의보
헬리콥터
다급
신동빈
랜덤
차갑
모나
침범
##ild
파이널
##체인
신다면
레코드
##로그램
서지
황폐
금기
BS
마블
172
1100
노린
세팅
어려서
거듭나
유태
충무
끈질
지중해
리메
웰빙
탈환
카메론
끝없이
붙들
##ystem
##ME
롬니
스테이션
가칭
효자
됐었
지청
##텍스
싱싱
##시티
##무소
불고기
경량
도루
베이커
밀레
자산관리
은메달
##자락
술부
오카
전셋값
구자
멸치
##슬링
빼내
얼리
정글
이뤄져
팬츠
마취
저감
일세
토르
후세
1953
기획사
이소
한단
현행법
기이
토벌
tvN
##루엔
로드맵
개업
##아시아
살아왔
수건
분향
카테고리
세법
제때
카터
동메달
재질
도정
비만
##펙트
항생
아연
옥션
물러서
전라남도
울렸
재촉
방지법
틀림없이
워크아웃
투스
반대편
땅콩
따를
혹독
메커
태조
강서구
대꾸
KE
##au
##우트
그쳐
줄어든다
우라늄
반포
수억
보행자
급성장
##도리
감격
이희
빅뱅
청나라
소양
포진
간행
##거진
최진
##enc
143
안상
발표회
뇌졸중
버려진
에미
앞바다
번만
##쿠버
##line
처했
해내
거니와
데이비스
관용
식수
동남아시아
보성
여겨진다
경정
##니지
신분증
166
나우
코칭
여직
청담
초상화
York
##land
성대
극한
드려요
##iam
소수자
SO
##덱스
베개
서북
임대차
잔잔
냉면
보잉
수배
University
감세
위촉
아이오
손익
파고들
메우
영산
환하
행정관
인디언
출품
AK
하남
##사전
타일
귀하
구직자
김효
대덕
연립
어젯
다친
기관지
해져서
##우마
##로이
134
김홍
다가온
씨티
이질
##산성
끌려가
나사
142
어젯밤
크롬
블레이드
닛산
제스
성금
구운
향토
조사의
갈아입
마운
##ress
명실
의병
트러블
경상남도
웍스
원년
핸들
지부장
복숭아
문화재청
le
계발
re
낙후
돌고래
부호
광저우
면치
바삭
수조
장전
메커니즘
추월
##레마
두세
신촌
진수
산책로
암컷
달라붙
이세돌
사무국
입상
살린
##aul
전해진다
과학부
위기감
경복
갇힌
문과
변혁
정운
컨설턴트
오다
회귀
콩나물
스콧
표류
가로수
##ma
훈의
압류
업무상
퍼졌
후면
##VE
하리
누비
##어냈
건너가
거머
소관
인척
무실점
따라잡
다진
남대
도깨비
웅장
쓰러진
지팡이
내심
뽐내
원두
자본금
유리창
사다리
고른
Gre
나물
뒤흔
147
맞출
내과
섬기
##나갔
여보
르노삼성
속여
아슬
분도
##께끼
제물
평창동
##터스
건넨
산수
액티브
수수께끼
550
파병
동월
blog
트루
터보
줘요
박세
젊음
##전기
KD
삼성증권
강령
넘어지
질적
토목
관절염
서울역
구석구석
초음
TPP
말미암
And
라이온
닥치
##소스
노키아
화분
막론
컨퍼런스
열세
김도
크레인
상어
가파른
수천만
볼까요
스텝
수축
청바지
줄게
사춘
재물
해금
##데스크
자서
결핵
연석
멈췄
su
##폭풍
USB
망원경
##가짐
려다가
141
이승엽
앨리스
원더
지치
장대
크리스토
슬리
##aph
음악가
뻔하
공사비
아팠
나토
식욕
리틀
게이지
이규
부쩍
공언
창조적
봉건
아지
오신
##ius
겨루
도스
질량
필살
카니
습의
건국대
미모
##구정
남중국해
장차
테라스
전화기
달서
거느리
샌더스
피치
##상가
케이블카
케인
마가
말없이
체크카드
옮길
선거인
색감
울진
김은
감이
달력
삭스
맞은편
대출금
집행부
1955
어찌나
약식
아틀
##out
마음속
김제
스탈린
영종
사계
수하
직종
개연
구명
대미
바오
일렉
꼴찌
악당
전함
##속기
파일럿
허니
가했
서거
맡겼
삼척
줄기세포
송영
그리움
퍼즐
찬물
독수리
태생
알아볼
채권자
원한다면
수도원
밀어붙이
스모
ECB
실책
사상자
지와
씨름
161
다다
미들
장신
##태평
가전제품
가늘
구애
테크놀
생식
제네시스
고갈
의리
부츠
주선
##own
이통
안전사고
NA
선구
##rat
여단
랄까
부검
2022
650
건만
바랐
##현동
난사
기보
아날로그
만물
매기
무명
박동
World
호출
때렸
에디션
리라는
OP
NASA
평이
혼다
동호회
송환
la
Rob
파열
형국
처사
만회
앤디
군청
모공
실과
열렬
##Hz
앞당겨
요하
##워졌
검사장
산화
뉴스데스크
압구정
나타낸
소인
이드
굳건
오승
쫄깃
상황실
대명사
Gl
조선소
커머스
##ble
남경필
첨예
졸업식
실렸
애리조
기술원
득표율
##세지
##ms
두드러지
고추장
167
동명
프랭크
밀러
##날두
UHD
쾌락
후드
인사말
키트
부담감
껴안
호날두
그제야
Or
##들리
멜로디
he
세리
자나
느슨
에로
워너
적기
##리그
복부
동그
매달리
본지
포획
명나라
고루
머금
유배
거물
##ron
샤오미
##베이션
수익금
다닌다
선로
문양
1958
램프
연사
그려져
환매
나트
##스케
빈틈
사슬
규율
동래
Comm
만능
밤중
##cl
간간
벽면
방산
평정
아토피
갈망
게나
사역
바티
##블로
LPGA
쌓았
예결
몸집
예리
잠식
능이
생사
몸값
이철
David
my
##MS
소라
이오
고충
체인지
교제
정대
지하수
교량
논하
기강
당위
##루엔자
CES
필기
로버
퍼레이드
캡슐
김석
##ald
흘러나오
히데
기병
레닌
##agram
재량
IPTV
어우러져
GE
치닫
게으
##리학
어우러진
죄수
외롭
피아니스트
Gr
지폐
리메이크
##lex
심했
다가올
살펴본
자도
대니
허나
재기
직급
해산물
교구
식초
통학
몰아넣
야쿠
전폭
해물
패소
함선
FBI
##ound
Car
누렸
증식
킬러
샤를
조인
인플루엔자
비료
피카
횡포
유라
높인
절충
채무자
체면
번이
승패
131
진다는
1910
파트너십
맥도날드
친하
아쉬웠
춘추
양지
##iew
마쓰
dis
배양
##쿠르
얘길
접점
174
콜라보
내국
지미
화답
거주지
대승
연구실
들어온다
en
낮췄
참된
담담
망고
##LA
경제학자
루마
us
전광
1947
잔여
안토니
조사단
익산
주립
내적
사교
판로
##통화
진공
덩달
인권위
1956
돌릴
줄리
##ham
쓸데없
간략
토토
He
복당
심경
이효
평년
##제이
고흥
들려오
플루
DVD
듀오
천정배
스팀
##징계
고뇌
은신
민노
재연
뒤섞
연하
인파
후폭풍
떠난다
나아지
##ations
직격탄
정오
사령탑
줄거리
까다롭
레이싱
리츠
외계인
카피
반가운
스테이트
수뇌
연면적
현저히
두터
탄약
이용이
음력
차용
##우치
청도
다이빙
들였
근심
영양소
서강대
석면
따내
불분
해남
추출물
채찍
##도전
정예
벼랑
빛깔
회사원
음료수
위스키
영조
도리어
SE
영유권
수화
##olor
괴롭힘
릴레이
영위
이터
자연히
합창단
단련
알릴
모은다
연신
올라섰
갑작스런
모스
ㆍ미
1954
경질
건너편
성적표
감량
별장
거처
ABC
당직자
정동영
무가
##게이션
##키스
취임식
Intern
연달
수성구
변인
##젠테이션
어조
##브스
유영
내비게이션
NE
파멸
브이
원어
총파
폭설
착오
잇단
여수시
서경
경제력
전보
정거
##시즘
강남역
해수부
##에른
기쁜
칭호
이종걸
불분명
##코인
뷔페
자책점
아모레
부녀
튜브
골짜기
독보
##meric
아로
일품
진하
이공
돌아와서
얽힌
아쿠아
플라워
염의
켈리
붙잡혔
노려보
##두천
##츠키
수돗
이노베이션
넘길
민관
언뜻
청동
폐해
전투력
외교통
괴로워
체전
카나
선천
장원
무이
빌린
분기점
엔트리
연락처
쫓기
능선
출격
##ther
효용
벙커
스마
선상
무한도전
거장
울릉도
는군요
남극
퇴사
제작비
로펌
에센스
청과
##폐합
##모직
노회
수니
맞섰
##con
연장선
여운
폐하
##바퀴
고영
연전
갑상
교포
가까스로
리즈
사업단
기묘
미역
손발
내려다
입주민
##red
두근
프랑스어
기준치
정몽준
맞선
##oto
올바르
분출
안무
평온
ㆍ정
보일러
내줬
합병증
점퍼
재판장
항생제
백혈
카디
지켜본
학자금
##eng
제일모직
볶음밥
매혹
##테리아
능숙
카자흐
놨다
외침
무도
무지개
고공
국제기구
놓이
알렉산드
팔꿈치
재일
1959
재검토
진위
조르
합친
강판
암기
야지
##igh
밀수
택한
일류
Res
지저
카스트
확연히
소개서
투표율
사체
장동
카다
비시
소대
블랙홀
꾸리
유우
##ole
제네바
총파업
틀렸
복면
풍미
난관
막막
아유
손꼽히
끼어들
척하
폐허
부인과
니즈
호두
적중
풀기
173
의결권
남과
##마루
갑작스럽
부딪치
미네랄
에반
사용료
항아리
마이너
동백
롤러
##플러
생겨난
구치
줄인
그랬던
피드백
##ames
끝낸
검색어
에버랜드
조력
첩보
섀도
1919
em
근래
단군
가상현실
피츠
##na
위크
org
준다면
ㆍ군
노점
영덕
##둘기
득의
##app
박사의
유람
법무법인
유년
이바지
도산
분권
##ery
동과
시군
영예
출사
증축
경향신문
포르노
요의
크라이
브랜
캡틴
Pol
랜드마크
불릴
시애
자회
충만
국화
발현
앙상
가르쳤
바이에른
환전
경청
터전
소용이
성수기
이선
교란
##백화점
169
학비
daily
통폐합
려니
멈춘
담그
충원
둬야
족발
스트라이크
운하
조교
역부
동유럽
반동
화물차
드래프트
강박
극동
man
미비
빗물
디오
상세히
Comp
어드
라벨
예시
표상
웨이브
프란치
##모스
선가
등반
선봉
단면
유시
저성장
##뿌리
위계
De
불기
극장판
인허가
유례
1700
이어폰
동두천
좌측
우여
##리히
트레이너
국교
드나들
이회
쪽지
신민
All
말레이
후쿠오카
가져와
정태
사뭇
스카우트
수저
PF
격인
매너
날인
수심
대남
뉴저지
진격
답사
윤성
스케치
플라자
유니버
리온
어부
메이지
정석
GP
석상
트라이
캐피탈
그랑프리
동맥
앤드류
울주
이장
KS
번복
신명
금산
생수
171
할게요
흑백
##곡절
판명
꿰뚫
CIA
정종
눈부신
티아
##we
서영
완수
블로거
사춘기
신대
업로드
SOC
누출
혼동
##ise
##ene
진과
집무실
평형
입장료
https
어워드
판소리
##부패
예감
받들
양재
이혜
여고생
##자드
견과
나인
닭고기
보령
마왕
연례
장어
투사
차근
##eter
쓰러졌
천체
미적
따라오
출입구
출고가
낙지
수용자
화끈
##관리본부
##모어
흐트
찰리
카네
개년
전동차
벌금형
무작위
어뢰
##태평양
노컷
빈민
싸늘
노컷뉴스
자급
평행
슈즈
벗어났
크리스탈
부제
두르
상국
재외
우여곡절
단언
사토
블라디미르
에세이
짜릿
편곡
담아
배타
늦춰
어지간
정거장
엔젤
궁궐
위례
본국
보디
포터
핑장
보유자
시애틀
레이디
비빔밥
오클
우버
인스
좁히
누드
무술
열중
집약
요기
내뿜
손녀
초당
크라운
포식
떠올렸
잔소리
운전기사
보안법
로션
플라톤
농작
헤라
바라볼
비벼
##러그
유산균
수돗물
개각
농경
현대그룹
기념품
유역
##탱크
진에
건데요
여간
##ital
아울렛
##통화기금
무궁화
##사르
전병
상위권
찍힌
풍토
엄격히
손색
지킴
갖춰야
외야
타르
204
는지라
선대위
진나라
대전의
완만
##모비스
380
왕세
점쳐
한데다
빠짐
##협상
게이츠
수개
리바운드
화순
1957
라오스
##바바
바흐
도도
오븐
주기도
판매점
질책
국제통화기금
##ose
열지
개동
북유럽
질병관리본부
둥글
래퍼
##보증
슬라
조합장
NYT
상수도
##포츠
잡음
메릴
청양
당겨
함락
현대모비스
선언문
애틀
연희
간결
게르
하부
기록물
UE
채운
게리
방조
##방향
몰아주
참배
강풍
야경
캐슬
테두리
실무자
합참
최저치
절친
벌떡
ML
상쾌
실마리
곰팡이
##치아
갈릴
낱말
문정
패딩
알아듣
후원자
집결
입성
철원
우즈베
콘스탄
급속도
넥타이
삼국지
##레스트
연수원
##공원
일부분
뒤따라
모빌
결속
의향
제프
감소세
지구촌
Me
과외
수류
옷차림
보험의
Su
수유
흉터
최전
OST
마츠
결렬
의례
용산구
후생
느껴질
탄수
프로토
주거지
감은
##IM
발기
이체
지지부진
백두산
소치
##해튼
마일리
WTO
Be
##오드
병장
##ael
까스
느려
리라고
트랩
판결문
돌발
중수
납세자
혜성
인피
입힌
상법
홀리
교섭단체
의성
장중
주원
##김치
히어로즈
홈경기
술잔
시외
까마귀
##브로
볼리
실기
집요
##RS
흔들림
무시무시
대내외
동대
헌정
프린트
회의장
페이퍼
서가
끼친
돌린
리프트
자락
포탄
제소
화성시
소비세
##ution
맨해튼
콜린
전반기
케이트
묵직
성가
노령
허점
소령
리안
한약
엄두
콤플렉스
스튜어트
휴지
성수
러스
보온
로울
박희
두통
들어선다
Bar
맡긴
작별
출입문
지방분
번번
왓슨
##드라마
무적
라곤
우러
고령자
앞세운
거룩
뚱뚱
어려우
놓쳤
니시
녹여
나루
아레나
적재
필두
##enter
베토
이청
1952
정할
매화
연꽃
선지
##료품
서랍
##조림
플래그
편해
쿠르드
##예금
연석회의
떠안
실수요
##부인과
게임즈
블루투스
몸살
##마킹
##자키
웨일즈
취항
엘리엇
기울여야
입혀
des
계약금
Fran
청소기
벤치마킹
##런치
##itle
박명
산부인과
얽혀
트릭
요미우리
ㆍ이
Korea
결별
고층
##ream
목표치
분만
취업률
송치
설계사
##거슨
세정
##춧가루
지으
제비
굴리
양동
초빙
리카
세안
육류
폐암
끝냈
도교
피라미
매칭
일컬
펜스
봉기
헌터
모터스
화소
접경
##그마
내려졌
LIG
뛰쳐
거래법
단통
끄덕이
중얼거렸
For
카리
조선인
레바논
하이라이트
참고인
책자
퍼거슨
##amb
스케일
요격
코리
현물
##sk
Soc
스커트
견학
현저
##크라테스
쓰일
##렐라
완결
##영수
진료비
여하
특공
양형
미아
##테이
비켜
주택가
부시장
리비
브레인
윤기
마음가짐
동독
알몸
기간제
멀티미디어
악역
크리에
새로이
채웠
맡길
수출액
각서
격화
경전철
서신
중앙당
요런
비둘기
극찬
스타크래프트
오오
고등어
비장
파나
페인
힘차
모여들
베란다
곱창
청년층
##니티
얼핏
##국장
소드
KDI
황소
브뤼
으라는
분향소
수서
##니당
상황도
애틀랜
IOC
금성
걸치
##델피아
수교
양적
BG
다져
야만
의기
휴스턴
노조원
브라우저
민병
박민
마흔
라고도
뒤처
필라델피아
공교육
내구
블랙박스
아랑곳
계약자
Sm
et
도봉
공손
봉화
시니어
불쑥
##푸스
##uss
라라
발열
TE
##ler
간염
난항
면회
테레
길목
리베이트
파출소
영사
##rans
함경
갔었
윤종
조희
NGO
남동생
##득이
##ane
##oss
파우더
귀속
스트로
해부
목장
##피어
En
쓰다듬
팬티
국내산
##라이더
4500
말끔
빵집
참지
전업
주점
예비군
라미
낙마
수양
마도
일용
##지엄
225
조제
평준
한림
화기
Re
공해
니아
라떼
##gh
전통문화
CI
유골
KAIST
Go
PGA
##ii
담당관
강민
끼쳤
분유
산다는
베토벤
Har
시크릿
케이티
심포지엄
수족
##유키
콩쿠르
뱃속
병과
##카이도
제과
진다고
OK
##ings
##텐도
옥시
미카
##을거리
멘토링
총사
FO
##CO
폭발물
닌텐도
재협상
교외
사이언스
고선
습도
황우여
미끼
강추
신경전
반쪽
궁의
태연
김현정
##장치
수력
##차기
한결같이
통용
흐리
광해
칼국수
par
공은
호스트
학파
1944
스트리밍
요지
모비스
##아티아
기억력
카즈
##추세
프란치스코
남원
성화
세세
퍼스
편도
소용돌이
IBK
제반
발랄
샌디
획일
Americ
휴대용
달려갔
가액
라파
울프
콘퍼런스
크로아티아
간지
샤프
휴먼
변할
적격
net
선회
억류
성문
수류탄
오디
경치
##ca
루나
최대치
고군
말린
백과
상경
루마니아
립스틱
회부
탤런트
##분투
테크놀로지
박주영
##AP
설날
청결
인터페이스
비축
##누르
ha
und
강압
근력
휴무
##타로
지망
투성이
웃도
허리케인
미키
모모
헤비
밀크
선적
겸비
사부
##틀리
상여금
대파
사투리
##위성
병상
자판
산모
아폴
발작
피해야
퇴행
태어날
레미
뒷모습
##맞춤
쓰리
숙의
돼도
교향곡
강과
송구
자연환경
자카
동성애자
섭외
##ourn
성품
체육회
해상도
시네마
네임
탄원
낙엽
간병
골격
고속도
참기름
다고요
갑작스러운
무림
장에
서약
전쟁터
폐막
주중
##레이크
CPU
곁들여
##que
가져갔
장세
성악
자서전
지낼
원유철
단번에
양현
리코
이문
계획안
숱한
##차근
신격
차근차근
할애
발암
자로
보여서
##추세츠
파파
으셔
깜빡
##erson
유망주
정돈
금년
받침
펀딩
복식
후보지
텐데요
무자비
기형
프레드
서독
폭언
##악단
매사추세츠
솟아
들인
출입국
BO
GPS
##CI
교통안전
대응책
김신
포스코건설
모친
자만
배당금
맹의
액자
인다
행안
섭섭
##관리위원회
영남대
권오
놓친
동자
스핀
모세
포대
개점
길가
판촉
팔린
안타까움
공상
신시
고단
잉크
급부상
진척
깃털
LP
리기
역세권
입장권
느긋
제너
희소
페르시아
국민당
cc
##바르
현대제철
스위트
래요
편익
코프
구강
##리시
아리아
##회계
울림
##티노
선거관리위원회
잊어버리
On
SH
실속
특가
가인
백업
##ersion
소말
장타
##랑카
##지방
절묘
입가
조가
불발
펼쳐졌
1939
타개
##어링
공석
로얄
김보
수군
퓨전
만장일치
We
독소
들썩
이근
보인다는
항공편
때론
즐비
##제국
윤회
페달
##AT
향유
꽃잎
##미야
굵직
김규
알고리즘
출루
초음파
특조
역부족
모차
은유
이륙
극소
마십시오
new
관세청
나뭇가지
절개
놀리
과반수
Co
단조
영농
나트륨
살상
알리바바
받쳐
함성
##기념
##터카
아머
##밴드
의총
녹지
1941
##에미
시피
안식
티스
캐피털
황후
술자리
ㆍ사
대군
방망이
패시브
all
오메가
헬멧
CT
통통
다가와
구토
렌터카
애착
땅값
무진
산적
독일어
따스
탐정
1951
##rit
박찬호
##레일리아
PO
ac
끼칠
실수요자
블레
만류
매경
일출
모을
범하
초인
370
MBA
부름
증원
행각
내려진
하산
전립
표지판
힘겹
부양책
각료
릴리
문은
해군기지
브렌
귀띔
천도
나돌
포도주
버핏
##송이
석부
친선
송전탑
SDI
단발
야단
날카롭
메뉴판
재조
필지
해병
선후
앞날
달아났
저널리즘
온건
눌렀
업고
왕후
자갈
퍼블
자치단
##uck
단거리
시끄럽
##atch
##ts
딜레마
제천
희박
홍문
##용수
돌출
만년
뜬다
박자
ISA
미로
경화
끝난다
CM
몸부림
얽매
슬롯
프론
가정용
달여
밀라노
탄성
근사
자이언츠
빠져들
한민
궁합
##de
그래서인지
으뜸
찬란
뒤편
가할
고마움
세르비아
Ind
프롤
전세가
어시스트
도화
법사
질수록
비무장
경쾌
랑의
울산시
유적지
검역
홈즈
안타까워
꾸민
천연가스
##ero
소닉
낮출
사업체
팬덤
이재오
##히로
코믹스
title
엿보
다퉈
하급
##ford
낭독
내로
라이스
거래처
단종
##진다는
부지런히
##evel
이따금
밤낮
전자책
경험치
한탄
석유공사
대청
##oph
권위주의
데드
전량
##모리
절하
우루과이
김소
스완
혼선
무릅
##ject
수임
따라야
항변
멜론
히로시마
팔찌
놓아
루가
정모
외주
##저가
돌이켜
경복궁
국문
CGV
시베리아
that
꼬치
로리
##익스
아이파크
##미아
##하우스
전임자
무스
수아
평화통일
들렀
밀린
유니크
다산
##92
느라고
박대
연주회
##마당
휴가철
스테인
내무
양사
발각
하이드
몸싸움
재위
##ict
연필
실례
놓였
체불
브릿
##불이
850
드러낸다
인승
착안
타파
시오
밀어내
한바탕
아리스토
장흥
메밀
선입
##les
##케미
간사인
국은
본드
스며들
der
계량
월경
야근
특산물
독거
심부름
박현
카자흐스탄
##ount
책무
##만금
##oe
캐논
화나
신변
격추
창시
##산동
느닷
뛰어든
필살기
태운
통행료
##데시
행자
##초리
새의
##ors
복싱
농심
활동비
불능
폭격기
문화원
탁구
서태
##ony
안드레
RPG
생태계
왔으나
##alk
역행
등대
비밀리에
숙여
시모
창녕
군부대
유자
불린
JP
인민공화국
제각각
up
빌보드
장년층
속담
진급
정병
카우
KG
당파
##글라
mg
가다듬
마카오
##식물
단맛
세계인
기행
증발
칵테일
인민군
루크
선주
빈약
NHN
no
머스
접견
꺼려
디렉터
Ge
걸까요
##ana
가까웠
피워
원상
드셔
종래
네이처
031
맹활
조건부
ag
어택
베가
처절
명부
배설
##지우
DTI
##now
변비
초원
광학
차남
숙종
마일리지
My
망각
체리
전학
퀄컴
물러난
부르주
맹활약
왔었
리튬
박승
위엄
헤쳐
프로그래밍
역내
##NC
하이트
행과
##천리
굽히
서진
귀여워
과부
갤러
홍명
검장
오스트레일리아
영월
우즈베키스탄
단수
바구니
안상수
로컬
외지
위인
패전
##워즈
찾아다니
qu
경남기업
국방위원회
역이
폼페이
정치학
피라미드
생후
##에미리트
바겐
농작물
였으니
아인슈타인
조광
세워야
모차르트
치른다
인대
체형
포석
증여세
차인
겸임
중저가
아랍에미리트
##러미
##레인지
연기력
고착
##RT
##아보
안산시
노랑
기정
박선
##라드
유고
2021
레고
탄수화물
우르
##US
##MP
넘어설
스터디
고귀
##sc
골드만
성황
중첩
바라본
##은희
감청
반등
지주사
이루어져야
비키니
촘촘
코스타
몰이
소유주
프랑스와
국공립
관영
바쳐
터득
팔자
서클
340
금은
마야
내시경
압둘
테슬라
트래픽
나들이
외로운
경멸
카시
옵티
유부
역도
복리
하비
카탈
분장
예정자
광진
딱지
새만금
미식
둘러싸여
명실상부
온화
설립자
1936
머뭇
회기
궁중
일몰
헌법재판
스탠리
스턴
청계천
인먼
##남동
폐수
Se
##배추
##즈음
식기
중징계
가산점
##연구소
식료품
소화기
##ative
상추
수니파
송정
모유
##상정
장보
흐른
UEFA
가가
치약
대작
1937
바란
골치
습기
##폐물
추진력
분경
일탈
캐서
##OL
초록색
카페인
##렁크
버금
방문자
빼앗기
넓이
경작
어묵
재회
재화
라운지
질소
시달렸
주정
충청남도
승선
으로선
수감자
채울
학술지
말레이시아
풀리지
오스만
군함
조형물
나위
만루
맞먹
산뜻
이토록
글러
내준
선율
버크
트렁크
모의고사
##PGA
ne
괴리
이남
개회
리차
혈통
들으면서
상체
선택지
##매기
중전
먹을거리
야수
혼수
베스
돌아온다
장례식장
가히
급제
달릴
전문직
안치
게을
떨쳐
인계
유모차
리뉴
목욕탕
NBA
연한
##lect
슈퍼스타
Will
인준
외할
낮잠
##IB
섹션
##쿠니
스톰
##먹이
장성택
##절기
010
캐치
##inc
상과
될수록
시판
##트로이트
수역
##웨이트
마요
밝혀내
부설
신과
ap
관리인
삼키
대표인
란스
김시
선량
잠든
미즈
디트로이트
네일
스노우
고군분투
원사
흔드
##호흡
맞닿
엔드
금발
요컨대
분석가
갈증
자명
소중히
작위
탱커
어수
적군
시금
샤이
애틀랜타
##pic
현대사
여호
소비량
남해안
항산
BN
조우
후미
##카이
용적
중후
쿠웨이트
##익스피어
La
잡아내
수사대
창가
게릴라
Fl
셰익스피어
사조
결재
인도적
논증
##코프
넷마
이우
전집
워즈
집들이
자지
갑상선
잠금
연유
워드
cont
굴뚝
##파니
기념비
Christ
이동해
FR
스파이더
IR
힌두
승화
광기
냉소
대등
일병
코앞
##나리
넷마블
레이트
젓가락
초교
from
글리
스크랩
가옥
##ara
op
크레이
구본
이범
화약
청사진
장려금
카프
포커스
평가전
제약사
##berg
일터
외무성
로브
##ward
두리
열도
청라
##뚜기
보르
계실
상쇄
##아슬
중개사
전입
##노소
아슬아슬
싱어
알린
검의
얻어맞
김해시
묵인
##예프
극단주의
정호
부턴
##ini
##돋움
반출
War
사무관
발돋움
변제
애호가
오인
##urn
##캐피
곤혹
로지
##대성
통신비
서늘
사업주
근거리
저력
1942
##ange
역력
사쿠라
판세
205
청정기
물들
진보신
클라크
##hel
2025
김이
김양
꿈틀
머의
통찰력
황홀
방언
배관
사본
산란
요크
논산
##탄불
줄여야
펴낸
자아냈
신세계백화점
나눈
맛의
몸담
플리
##오른
비약
부적합
알려준다
고국
국부
지닌다
Dr
산골
안젤
수줍
##천동
##캐피탈
시라
학장
내분
떡밥
배척
가슴살
엎드려
멈출
후속작
명당
야망
휩싸였
이스탄불
조급
##래스카
나뭇잎
이지만
DD
지라
강수량
레이드
성형외과
서식지
거행
##리스타
맴돌
헤엄
##edia
대타협
꽁꽁
##텔레스
부업
파가
떨어진다는
비워
아치
토머스
운동화
받아들인
서두
열거
##블랜드
Par
누스
미술품
재취업
지배력
갈아타
스치
종영
배트맨
요괴
법률안
발가락
영암
최민
관공
대서
천식
##form
경륜
빙하
##각서
##베르트
스트레칭
급수
액정
정기예금
클리블랜드
고든
앤더슨
##어티
칫솔
공사장
가와
달구
왕립
중개업
하버드대
변증
사극
비엔날레
재조명
##더니즘
사은
편중
블록체인
고산
화백
한수진
낮춘
월남
이타
출토
전할
오르내리
에이전트
##14
항공모
난간
대용량
위아
금수
취해야
밴쿠버
CB
네스
재주
남녀노소
프레이
어울릴
양해각서
당헌
상술
영등포구
채식
컴퓨팅
브뤼셀
##재료
아리스토텔레스
스케이트
담양
야후
##fer
매료
서유럽
가창
니혼
박테리아
김범
막아내
체가
풀린
상소
오월
슈퍼맨
손짓
##벼락
천둥
거트
##타기
프레젠테이션
일관된
조미
일본식
새겨져
법리
##ience
계장
순의
##체육
테이크
청송
질식
이토
한다거나
##ye
부피
완도
지양
품안
해와
학생회
1938
##찰청
잇따른
부딪혀
찾아간
IPO
유병언
격돌
세척
옆구리
인내심
NPC
부조리
재미없
전멸
구마
일격
프로이트
##문고
##자치부
수협
##ext
덕목
##ke
드러날
힘껏
Am
갈지
전법
##저럭
안전망
선우
참관
##fl
행정자치부
숙지
빼앗긴
불거졌
이월
테르
판시
##타나
갈대
##우병
##럭저럭
포근
International
##필품
성장기
##자치단체
봄날
per
투표소
학군
보여야
플레이스
지그
넥서스
발톱
대검찰청
NHK
프라이머리
기발
더비
중용
중생
베이컨
던질
생필품
ㆍ일
고창
커트
라고요
광선
기공
지점장
##케미칼
부식
석가
도사
방법론
레어
방심
선풍기
감염병
금정
명작
밑돌
틈틈
스릴러
가부장
모태
##보레
담아내
시들
알제리
##지수
여주인공
관전
뒤바
무비
HS
해했
##ren
바깥쪽
빈소
멜라
변조
##심장
안양시
탄식
##랑드
세차
편차
만전
피격
현대증권
지디
Mark
지켜볼
version
테스
한입
곡식
다분
적임자
sm
승승
여대생
Qu
카오스
추워
한이
##ield
레이크
변기
으냐
무릅쓰
한문
수은
저울
##마드
금천
로저
임팩트
주술
선다
곡성
타마
##각형
고온
장정
다졌
심이
노을
이한구
이방인
두툼
오름세
나간다는
KDB
방중
무너뜨리
산길
그린벨트
유태인
자석
##밸리
격퇴
누수
직거래
국립대
문성
후일
판매자
성토
읍니다
껍데기
돌기
민첩
브룩
유목
경계선
두각
몰아내
ㆍ고
뽑혔
일으킨다
CR
콘솔
안도
애교
어두워
개로
라틴어
십상
클라이
졌어요
석이
아득
대전시
마피아
보루
장내
개포
##레이트
옮겨졌
냉방
떠넘기
플러그
그리드
멧돼지
아메리카노
데카
오비
구축함
유격수
또렷
필더
키리
1943
리차드
수긍
위자
안장
##선스
현대캐피탈
##세스
##드레
테리
##ium
SL
위암
이베이
물씬
소말리아
##글라데시
##메르
히말라
##푸드
XX
안테
내딛
강소
날씬
번번이
레즈
제리
무의미
연세
특목
경도
극명
##마침
역삼
스파크
원재료
직행
480
시차
##푸르트
사고력
관사
양궁
무인기
사교육비
수뇌부
잡아당
이학
때마침
정신없이
귀결
노바
창건
방글라데시
포탈
##캐슬
들릴
##raph
애프
회의록
##ublic
부릅
재치
로그인
ㆍ도
시아파
뒤돌
파묻
218
빠진다
친의
헤겔
##습관
##지먼트
매니지먼트
움직인다
서청
옷장
예식
백혈병
맹렬
Col
부조
환한
소송법
##조각
출두
##바나
트로이
예절
바티칸
캐머
시험장
신빙
히말라야
##착륙
생동
오스카
IN
유타
티저
롯데호텔
저변
##네임
된다며
영업시간
방류
윤영
해본다
##────────
사계절
남대문
용접
장판
순종
지름길
쉽사리
아낌
고이
그럭저럭
뉴캐슬
막혔
미륵
전립선
WW
애용
주어졌
넘어간
약이
빙의
포구
수영복
클레이
##란도
##착오
도전장
회유
산사태
선방
책장
##업소
뽑아내
하이퍼
자라나
사이먼
돌봐
전류
즉흥
통풍
김기춘
밧줄
비에
기념행사
아즈
시행착오
스키장
헤어진
##공항공사
고금리
네모
경협
묘역
불순
둘러싸인
안착
중심부
동갑
레버
정용
##AN
##아르
헌혈
계양
근린
물감
톰슨
라이선스
나이다
쇼트트랙
산후
##민턴
미덕
아반
아수
어벤
그림책
병영
앤젤
조윤
케익
안간힘
문책
not
우발
입출
차관보
봄철
과하
서머
스팸
식습관
고을
구민
캐스트
웨인
##이스터
청자
##뱅이
car
미일
방공
봉합
배역
트롤
##ouse
보위
갈까
빌드
유이
##45
콤비
찾아냈
마이애미
오하
##erg
허덕
공전
##aj
##가정
권력자
정승
독신
위시
공성
블럭
휴양지
무침
체격
지킴이
입김
##곡히
1933
캐서린
EV
걸작
단체전
신사업
머지않
흐뭇
변국
양배추
승승장구
기술인
다네
장본인
원리금
장영
가파르
숙원
자아내
청취자
수식어
##우주
강신
국을
거구
도용
빈티지
태화
##카쿠
놀라움
가져옴
깔린
외투
짜여
의과
춘향
펼쳐져
개화
슬라이드
종교인
말문
미백
##나카
필립스
산호
일수
##플릭스
##75
##꺼풀
일회용
묘하
피디
기약
남방
넷플릭스
직계
한데요
빙수
떠오른다
대추
모레
악어
지크
##위대
밀렸
##uro
희곡
검문
단층
1932
닌자
##주곡
원론
청주시
독단
소자
왕래
쓰레기통
마하
오미
##stagram
해밀
할로
용감한
사려
국제선
내려갈
한정판
강습
외벽
구세
##yl
중랑
황토
독일군
놓칠
숨겨져
부득이
산문
마칠
간파
##13
전라북도
소실
크리스토퍼
컷오프
강탈
아바타
거린다
고학
일례
견본
했으므로
인덱스
독이
접어든
네이트
소크라테스
사병
선반
최승
어촌
특약
과소
해태
##맹이
전환점
고춧가루
땅볼
자긍
산전
살폈
직감
시찰
이회창
쿨타임
금지법
구미시
do
##니카
끝내기
제철소
강동구
##코니
대표작
자위권
고취
상하이
선거인단
##17
##돌프
##보리
사용법
원문
함축
임창
int
##ichael
케이드
##88
심폐
도르
##제표
문화예술
##코지
##시안
##der
솔로몬
울주군
##메드
누워서
용암
부지사
왕궁
##폴트
피부과
제이슨
결전
론가
외교통상부
잠입
정열
기념사업
배드민턴
투약
##슐린
갖출
잇몸
##ata
끼니
출항
지울
헌의
##lin
##du
완벽히
멍하니
찍혀
컬럼
흘린
재무제표
출근길
재가동
고야
파랑
식중독
형광
홋카이도
권했
까치
확고히
##ournal
캐머런
내사
정상급
1914
부총장
비화
프랑크푸르트
울부
정명
타구
내려서
사옵니다
동일시
290
글래스
일절
##큐어
예언자
마중
소비재
중독자
막이
일사
임시회
##눈썹
Mc
이석기
명장
발신
벌어진다
심리학자
Im
삼성카드
산동
물색
교민
ind
성탄
객석
다문화
막스
##ific
다구
아하
피신
노고
로저스
중소기업청
커피숍
까먹
이랜드
괴로움
손아
##구이
무이자
영정
프린팅
blu
##org
소도
인슐린
보고회
gl
숙주
순대
중거리
한라산
풍습
모기지
빠짐없이
케미
게이머
터무니없
포옹
we
조그마
Rev
격상
설거지
##ization
주창
전시장
모성
##대원
안테나
들끓
BI
서예
숲길
정품
일진
##변이
호투
그지없
유창
유실
개명
원할
420
마리나
몬테
수석대표
이연
촉매
통관
페르난
만취
노동계
매립지
##텔링
1929
기탁
일전
이주민
It
떨치
스토리텔링
비친
소리치
소재지
##리우스
비행장
알파벳
유람선
울부짖
##크라이나
산업용
합법화
##22
##자실
예스
일어섰
렉스
양분
빈곤층
다가갔
해왔
병동
작업장
다섯째
##글스
서청원
포유
요즈음
승부수
방점
##마차
루니
민요
바빴
트레일러
등락
모리스
포가
선택과
반열
속눈썹
수선
이력서
돌연변이
노련
오차
혁신안
적립금
거침없이
Cont
다인
여길
##에트
드롭
매장이
오더
##임새
다뤘
소량
정확도
튕겨
우크라이나
진성
##투자증권
포상금
본다는
##ym
현주
피서
YS
연습생
통진
황급
자긍심
늘린
쫓겨나
방정식
벌기
축출
중령
어떤가
팰리스
평했
밀려나
글라스
면책
발해
끌어올렸
발라드
대당
중학
##메인
##임수
Fed
PV
유추
법조인
소공
res
담요
정파
보로
쐐기
열전
블루베리
데려오
금상
지마
다릅니다
스칼
러쉬
##48
천시
눈가
열량
무효화
간다면
림프
##레븐
디바이스
##33
삼계
행한
##수단
기자재
자동화
통한다
챕터
지도력
우선시
와이어
모국
계룡
무기한
식도
찹쌀
BP
민트
모하
낙원
보탬
서도
##혜진
페트
뜨거워
##프레스
##ondon
멤버십
미가
##orth
브래드
몽고
재상
One
보라색
라이너
차차
구심
월화
적시타
수개월
진솔
포맷
밤하늘
움츠
준하
##유국
##eph
##리케
단국
돈다
시외버스
원합니다
초저
gre
철근
문화부
물티
섣불리
갈고
오시
김부겸
항공모함
브런치
일지라도
수프
연약
As
치러야
##ize
군정
피닉스
스페인어
총영
평평
니라
보따리
주안
아반떼
센카쿠
스푼
노렸
유민
내리막
동무
역습
자력
추도
대차
연골
정영
초석
comp
치지
구내
규의
캐리어
템플
평타
##MI
부가가치세
옵티머스
특목고
패트릭
박태환
끼얹
유스
창백
총각
학교장
Ag
한스
자그마
찾기
투병
##LE
물티슈
신데렐라
성리학
##35
Ass
메스
인포
##교동
구약
미신
순항
기하학
시몬
영성
오리엔
조계종
매실
유소년
자바
주니
스프레이
사활
값싼
꾸짖
동질
애썼
##OT
대장암
##그머니
김태호
스나
아플
월성
##제당
수목원
플란트
드려야
방제
묻히
돌아다
미트
기사단
소풍
수칙
출연진
blue
궁리
병원장
Paul
ec
목돈
아보
남궁
##하르트
AFC
등용
확성기
오승환
은커녕
레이어
가져다주
풍광
홍천
##ener
위즈
출사표
nh
공급자
한명숙
알래스카
가를
남길
북아
자자
부산항
222
서야
건져
출가
유명세
공민
##게티
도맡
화합물
대웅
매끈
면밀
제일제당
로이드
론스타
조선업
인공위성
다룬다
오대
미움
배반
쪼끔
5500
이정희
1905
갈치
로보
세종시
중과
루즈
용수
판서
제스처
그르
파주시
싱크탱크
간선
브릿지
제독
패한
평민
백서
슬기
기자단
공정성
부유층
편집장
난동
한산
모델링
다원
WP
발화
험난
느닷없이
교시
풀렸
2400
매거진
백색
승낙
체벌
감춰
대감
날린
변한다
옹기
##던트
##ollow
마그네
SDS
낙서
쌀쌀
지아
고압
내공
##ichard
실효성
네거
경대
차렸
시사회
국력
급행
근까
##ility
회고록
도로는
##레타
나폴리
레슬링
역경
##echn
밸브
협찬
알카
세워졌
위약
뒤진
반달
하오
불명예
따돌리
구수
##하키
##틸리티
are
경시
흠뻑
넘나들
대림산업
방청
투옥
##네이
경영인
윤창
컬링
매수세
아라비아
명료
왕족
프렌즈
체증
취록
고속버스
점주
직권상정
애견
조직력
##let
나와요
##conom
리트
긴밀히
두터운
유틸리티
황산
필로
가한
굳히
self
설명서
타이거즈
나온다는
AG
험한
플래닛
브루스
위스
의중
자태
도면
오니
경미
글귀
주간지
SI
볼일
내쫓
익힌
나타낼
##ision
한화그룹
##bps
월등히
감초
토사
긴박
찜질
미워하
래미안
고배
향해서
더라구
보호막
신호탄
퇴각
힌트
##들레
##erm
김현수
경리
이형
##특위
군자
희망자
약초
함안
##aus
고점
어다
정박
참혹
날아오
정민
희석
강원랜드
장윤
기다림
##오피아
카를로스
야스쿠니
레딧
첫해
보안관
관저
프랑수아
두기
팽배
노가
순전히
도쿠
마키
주실
자상
알아주
내용물
왕관
잡초
실리콘밸리
능률
다윈
sch
황실
네거티브
비오
보수당
송신
앤서니
토하
블루스
에티오피아
정진석
조동
##겨울
휴양림
유심히
MBN
기괴
토모
펑크
아미노
평원
충전기
기린
로로
소심
안마
종용
국제법
알프스
야산
##장자
훈련장
##데르
테크닉
박병호
쇄도
Part
로크
##탄소
Robert
back
질감
가운
오정
정맥
##드래
대통령령
##net
외무부
카인
서요
박형
무드
시노
물꼬
빨강
학설
국밥
토익
연료전지
제격
트림
하노이
허약
사칭
설악산
전단지
##72
서핑
1935
빚어지
골랐
타진
골반
아이유
제단
지나갈
고위험
빈자리
조식
허다
bp
수혈
우두머리
물동
수문
리얼리즘
직선제
발단
셔터
역외
제후
달린다
강정호
경차
난폭
영적
칭하
엄숙
일구
off
황급히
패자
회자
하강
조끼
혈중
밝힌다
208
고원
##ays
질리
분홍색
선형
폴라
교육장
피로감
##my
스리랑카
신항
식과
마모
김성근
루피
1925
##any
##afe
배지
강의실
거머쥐
어수선
우왕
활자
##버시
걸어갔
정벌
거북이
고강도
핸드백
rd
왕과
시호
포고
노폐물
가오
성패
적나라
시초
야식
뱀파이어
베이지
따온
주치
으리라고
부치
진달
캔버스
고스트
액면
엑소
스카프
천안시
##95
끊기
히든
소비에트
당사국
하순
1918
이안
재학생
절규
민간단체
방증
곤경
소사
전문지
아야지
음란물
닷새
약진
여실히
흐려
떠서
##호영
무모한
비석
걸프
하워드
다문화가정
난입
카마
칸트
호크
델타
소견
펼쳐질
순응
ATM
분쇄
슬램
피에르
##린내
이정표
모란
여과
##을지도
Em
결투
동종
레스터
정신력
아이스하키
자화
중의원
사정관
인회
##슐리
사무장
심근
제품군
총체적
경은
볼링
봄의
간디
기우
증거인
최형
다량
수세
황정
냠냠
봉의
샤넬
시화
영아
조나
만족감
중도금
실직
##트니
##날리
관청
안대
UP
##지구
되살리
군비
차액
으리라는
항체
프라이버시
other
##소타
##FF
ㆍ김
벨라
영진
디펜
시가지
처리장
##커피
##베이거스
분통
진구
마르코
7500
라스베이거스
깨물
서커스
실생활
숨통
형용
작업실
합니다만
##덕션
달성군
부서지
##ino
##운데이션
가로등
율법
해프
립식
파운데이션
어법
갈라지
버금가
추징금
##팽이
206
피니
이동국
310
평택시
뒤흔들
대치동
번호판
sv
포탑
취약점
##ute
사은품
신보
펭귄
농수산물
배꼽
트인
블라우스
선구자
##실록
##링턴
경로당
고해
밀란
방도
는지요
style
카다피
공생
##꾸미
묶인
참모총장
센티미터
겸하
숭고
적색
끌어당
스펙트
1931
CH
졸음
##vent
감독관
떠올라
선후배
집안일
개항
영미
온다고
부가세
녹조
흐느
무용수
반향
치명타
미네소타
관동
덕수
웃돈
패럴
허영
##cal
해이
허탈
흔들렸
발바닥
사비
##LO
신다고
교부금
서대문구
축산물
페더
##ube
완강
##저곳
이곳저곳
지배자
형편없
틈틈이
디폴트
높여야
캐스터
힘겨운
익스프레스
초미
춘천시
제멋
겸직
좌초
중앙아시아
살렸
피임
##by
였음을
겨자
관음
##바키아
푸르지오
THE
걸으면
댄다
도표
아만
SSM
##소시효
갑판
불우
산청
주황
선제골
El
휘청
##바라기
이르지
파전
빠져나갔
발코니
IA
저우
들이대
노량
말년
서바이
해프닝
건재
테드
늘려야
진부
침구
항공우주
슬퍼하
테오
효도
빠뜨리
MWC
축전
##난방
요코하마
기뻤
당규
산간
발짝
투영
##미트
가왕
규약
붙여진
물방울
화신
살인범
북대
내던
불식
패션쇼
el
##IE
내려간
최태원
##먼드
전문대
투척
부르주아
식스
몰아치
통칭
##반찬
쟁취
주조
투하
미끄러지
##bo
##23
복역
풍수
호에
산만
카이로
부원장
결석
어로
기울일
경건
수학여행
1934
골문
제안서
붙일
스펙트럼
별칭
친목
물려주
고어
정수장
2200
원세
연출가
게을리
관현
기틀
세브
이율
기성용
해장
받아들여야
리턴
꺾이
암석
##박질
이상일
id
거동
수기
호우
프레스센터
급성
리얼리티
520
리타
##람쥐
메이플
추징
레인저
예사
후안
##일관
메드
살라
역주
인심
송출
후추
235
발맞
어려워졌
초심
고고학
##NE
흡연자
평의회
소시지
벌어져
뼈대
스텔스
윤상현
bar
전관
##주부
##르노
1926
##21
##벌리
북한산
지역주의
430
고삐
군용
널려
라야
백미
안구
저탄소
##으리
##be
식생활
##회전
신현
투덜
미츠
불러일으켰
양천구
RC
지구대
데로
##델라
고교생
구덩이
사명감
병우
윈드
Journal
피살
##드래곤
난처
##ese
무심코
MR
요직
후작
##iness
독과
커맨
답안
선양
장지
##ille
덤벼
##ck
갖춰져
경부고속도로
피츠버그
도안
떠도
숙였
간질
사들인
시적
레이건
차입금
조서
운전석
##99
##블린
가브리
궁지
마티
찬바람
찰나
##푸르
손수건
구와
두목
이성계
Is
매끄럽
브러
그랜저
##크리
##에고
라는데
매트리스
송년
롤링
두드러진
동동
접착
나고야
온다는
##십리
따라다니
드가
블라인
키움
##메스
되돌리
사생
전자파
##지휘
##킵니다
일깨워
뉴턴
코바
1928
누명
##바구니
클립
의복
쏠쏠
##DS
##충제
##earch
FOMC
경진
대칭
덮개
레슨
줄여서
System
##골목
이마에
용선
수탁
상한선
실탄
버려서
코리안
데크
흔쾌
반란군
생김새
폴크스
256
발제
번성
아자
아이슬
비씨
수로
일면
픽업
##극장
CU
원통
은닉
우에
신관
열병
기해
모서리
요구사항
##볶음
1924
중환
타오르
하체
보호구역
제멋대로
불멸
비선
전서
한들
##지물
리사
밸류
앙상블
스로
노원구
TS
말썽
##학생회
아이슬란드
가신
##며시
일손
불면
구스
##드기
관망
가리켜
균등
물길
##광석
커브
통념
섬뜩
전권
토탈
어벤져
총학생회
##준호
벽지
사들였
폐의
후대
산업체
모피
예탁
침의
되돌아가
Gu
블러
총량
십자군
광안
##res
민경
지난날
올려다보
노숙인
NBC
국판
실루
제우스
쥬얼
1927
소나기
로웠
##obal
라트
베라
215
감내
성행
썰매
##연료
스크롤
로다
우도
유혈
##가시
풀어내
유라시아
라니까
연습장
즐거웠
감액
바닐라
스탬
페스
무너질
KL
해밀턴
중이
##24
유재석
본보기
여름휴가
전유
풀릴
제시카
속임수
시식
1917
키를
##sy
빼돌린
끊겼
유토
에듀
왕가
제곱
자폐
해바라기
횟집
뒤쫓
러셀
향한다
##히드
KEB
##노버
pol
낙타
분말
폐사
강우
섀도우
개운
베이커리
James
London
타이완
윤석민
part
인부
명쾌
평지
예우
##혈증
덮여
자가용
214
달도
라디
히메
걸쳐서
기정사실
인단
티브
파나마
조승
덧붙이
신상품
북돋
몸소
수변
완구
##26
방재
오갔
한다든지
gr
갇히
욕조
닥친
대대로
석학
가져갈
방미
암세포
파벌
피리
흐른다
산산
시황
일궈
##리사
##쓸이
담가
가압
부연
##둥절
방송법
어류
어리둥절
고증
토이
대소
새콤
시금치
알카에다
도성
최인
페니
산림청
빨려
정희
수혜자
DG
시추
퇴계
고용주
콜라겐
사회관
끈끈
흐를
가정폭력
두드러졌
스몰
정두
SPC
위자료
수난
연봉제
초미세
싹쓸이
##sch
보시
찾아낸
벨벳
top
시향
사무처
1907
로망
은수
장가
고파
정치국
fc
항우
일렉트로
슈가
##문화재
##96
Int
IF
렌트
벗기
고상
데님
사상가
사로잡혀
Love
하류
리빙
불가리아
김태균
쉐보레
여긴다
피켓
##타오
범람
여지없이
고물
네타
도축
시승
소방차
꺼낸
천상
부러지
국민대
지긋
SN
오아
삼계탕
DLC
국빈
로직
묻힌
애칭
부렸
상충
별관
친족
핵연료
아사드
Michael
값진
누진
허정
호로
어루
원초
대낮
유사시
넬슨
징병
킨텍스
##받이
그리스도교
부안
섬진
세이버
축이
혹평
순경
유채
직이
보험업
준설
관공서
곰곰
마자
신통
낭패
거쳐서
사색
졸리
천진
남친
는디
정회
호적
낸다는
노랫
대진
##eck
쿠퍼
순탄
##uth
하한
올랑드
인도주의
빅토르
화천
이청용
객체
뜨거웠
로열티
대리석
도수
테헤
각급
우가
##EE
기갑
왼발
바야
정취
튜닝
간통
권선
메이트
##다툼
##일체
경호원
캘리포니아주
니체
다이오드
##킨슨
애슐리
근현
뽑힌
##85
다가서
수해
쫓아가
철제
##베르크
일거
라지
지카
Vol
소용없
답장
화단
Rep
극본
외자
이과
블리자드
##개골
라이터
굴곡
소피
악보
오랑
지퍼
RA
구례
김옥
정약
지날수록
Je
이유식
판단력
블라인드
진달래
곤두세우
아수라
니켈
영화배우
홍익
##브르
부풀려
테헤란
중일
##⠀⠀⠀⠀
신격호
인화
강경파
추수
나눈다
스마일
건과
절실히
ㆍ여
외장
체스
후한
2100
시커
시끄러
JY
베니
토미
견의
아몬드
아폴로
발끝
예고편
싸워야
##렁거리
신호등
##하이머
내림
##ason
##66
담뱃값
내진
고칠
숨져
전매
남인
논설
세아
오동
총통
넥스
묘소
one
자물
저스틴
파와
으면은
조림
서귀포시
계보
엑스트라
우먼
입소
휘둘러
##ever
개헌안
위아래
역사학
집시
융통
중얼거리
당무
지선
PA
수트
교육자
높인다
정몽구
순순
이춘
헤딩
게임기
사과문
순천시
Ne
재보
분개
지반
콜드
특임
구려
##더드
흘러나왔
백일
팩토리
##ient
세워져
빼어난
자며
##ury
과속
배나
센텀
트렌디
더워
전주시
선팔
슬그머니
사업소
교문
##alt
북스
애틋
정읍
제청
젠더
토기
##거름
전도사
바그다드
키친
투르
활로
##버른
소작
저그
모진
서병
가로지르
김덕
빙상
추의
달아난
레이블
전래
피어
비쳐
차린
207
역전승
식빵
아기자기
분담금
발등
##ats
##ature
세이프
더없이
##대군
무함
쏠림
어획
개와
밀의
솔라
##28
서태지
가즈
성시
inter
연두
조양
합체
950
줄까
##꺼기
##메리카
1923
##ica
밝기
연타
절세
상계
정미
별세
부적격
설계도
퇴직자
부단
양키스
정월
##질서
##ari
베어
##코르
대물
사행
항공권
통치자
꾸몄
찌꺼기
콘테
통근
##내렸
개도국
기압
비상사태
오락가락
생가
지하철역
가면라이더
고화
누설
패스트푸드
온기
왕세자
로제
위급
잠기
양립
찢어지
오른발
강석
멜버른
내려지
##보살
베네치아
그제서야
노자
매니아
외적
학번
닭갈비
민원인
인칭
달려오
해시
엠마
주성
노벨상
비노
여쭤
브로드밴드
스즈키
카미
받아들인다
견줘
더디
바쳤
복안
209
MIT
OO
선례
반년
모로코
입혔
초간
##네이터
본격화
변증법
문대
터스
소이다
결점
피렌
라이온즈
App
모어
예치
와이드
한국일보
구급대
사저
각별히
끄집
살펴봤
맞닥
비스트
박인비
영호
무수히
북서쪽
도식
팩스
생계비
문무
봉착
##버터
박한
일리노이
##right
ㆍ기
볼보
실망감
이권
개울
스탠더드
파국
잃어버렸
캔디
피난처
라구요
장작
##oom
데요
증빙
지훈련
##나절
##캐스트
연구비
황과
신예
##TRA
fe
노블
억만
6500
공여
별자리
서현
##27
돋보인다
수호자
독식
일회성
흔쾌히
상냥
셰일
##쩌둥
매운맛
실루엣
항문
하모니
열연
쿠페
##운동연합
마오쩌둥
일파
코스로
##55
##앙스
맛난
문학사
유니버설
에밀리
블러드
산도
승기
너비
전병헌
애프터
UC
형수
감귤
납작
종파
강가
계십니다
찬의
김광현
사절단
희생양
진통제
아브라
제갈량
반세기
##딩크
개인주의
문고
타이탄
위약금
오두
측량
AIIB
재팬
컬럼비아
뚝딱
훑어
##성동
##케어
되물
##막염
나온다고
심리전
211
중사
병자
불러오
믿기
저작물
내국인
호반
나눠서
교육학
과학고
##arm
창시자
깻잎
제방
발포
참의원
에리
포병
분간
다쳐
리부
튀어나오
전구
역사관
근무자
가로질러
천마
##좌석
떠들썩
닉네임
수잔
연화
추계
1922
경실
산천
인피니티
비나
얘긴
will
타원
##규어
히딩크
##ush
##가드
필승
440
출하량
맥아
모바일게임
720
반주
선입견
어루만
##수무
##맥스
추돌
협주곡
형과
성북구
그란
임태
김영철
로렌스
모퉁이
설렘
Phil
RP
YG
상병
한테서
한다면서
##add
치도
밀폐
앞세우
아늑
##수정
William
결부
벌려
del
무주
카타
불러올
방범
홍진
배상금
대제
돼왔
##ator
파괴력
카니발
노크
##매장
시구
##oint
라지만
레오나
앞당기
파시즘
베인
서동
고등교육
다비
##44
전산망
서대
콩고
##outh
##DC
방호
배리
코코넛
##칩니다
겠다
##36
심장병
빡빡
인천항
물리학자
KF
##urg
애드
차출
460
바이크
연천
캡처
스포츠카
상록
2300
TEU
CV
전등
등단
##폴리스
WBC
##실베이
##실베이니아
압록
연연
오도
##정리
##일비
고기압
영결
후견
김포시
습한
##다발
뉘앙스
펜실베이니아
령도
##레즈
갈림
넘나드
다윗
전속
탄광
현판
려나
염기
쓴다는
교화
사대부
범용
완의
부주
유미
개당
악단
재규어
min
서상
엽서
순순히
수모
불면증
거르
단락
후세인
강희
뒤틀
알찬
어벤져스
박석
생과
피웠
Art
명만
##erc
good
하이데
자물쇠
위기관리
한경
NFC
팝업
##ealth
낸드
린다
설전
한승
GTX
의미심장
양구
충칭
##불호
사우나
감미
##76
tw
구설
스콜
수학자
김두관
본사가
방불
속편
큽니다
간암
은사
청담동
김철
존립
999
금빛
영락
도인
화원
사립대
전월세
##림동
##ited
##uman
내무부
빙판
알차
그리스도인
간청
하진
무함마드
조던
보여요
허덕이
헬렌
##가미
쓸모없
타스
##레라
시종일관
교학
양치
열대
호불호
##샤오
##irl
뛰어다니
박창
##RC
ㆍ대
마카롱
명물
##orean
간만
Ab
등산객
반듯
ㆍ공
네놈
살롱
찌푸리
성큼
전위
행진곡
나약
신중히
대패
##느질
교통수단
닉스
대시
뜻깊
종묘
하가
겸허
성곽
##양함
##기념물
기막
감식
듀스
박은
남양주시
부쳐
비지
급상승
김중
미남
뒷좌석
선불
대한제국
mod
성행위
였으므로
온난화
창이
모셨
병풍
손등
환희
세계사
구조대
고용부
comm
교통망
덕의
##스턴트
블의
##II
조직법
DA
일임
바친
훔쳤
전태
통운
##링크
들어맞
무기력
연단
경영난
학벌
곡인
냉철
메리트
##득점
도급
경각심
아꼈
##원회
순정
지프
크리티
기념회
남겨진
음색
한국군
프리랜
도망쳐
까만
부기
비문
용맹
종주
##간접
달려왔
천연기념물
문란
##자스
흘러내리
들이닥
대학원생
들여놓
안내문
되돌아보
교신
박광
금물
독해
자켓
타케
##ates
희극
스타킹
문학관
야쿠르트
라스트
해리스
등록증
밝혀져
변별
프록
기말
디딤
리딩
아디
챔프
최현
어딘지
끈질기
ㆍ인
명랑
엄밀히
1908
후진타오
박연
난립
육신
인스턴트
튀니지
파리바
단양
힘찬
금주
컨트리
세계유산
전광판
##ridge
##지우지
장구
퍼펙트
황진
##티모어
so
고깃
배어
중략
##78
알아차리
모함
국무회의
별반
전해져
어원
AA
성심
##rain
던진다
##투수
프랑스인
라네
지바
청구서
소위원회
모나코
네이션
웨이트
치웠
친지
희망퇴직
돌이킬
Mon
요일
미켈
월가
짝사랑
##라이언스
BGM
빌리지
한계선
떠밀
원청
잘려
시럽
노년층
낙점
왕권
편승
따라붙
대행사
쿠로
항모
##irst
정육
차후
한신
와해
저어
찾아올
##rew
Cor
손보
##ein
려는데
급선
만듭니다
매서
옹진
소형차
럭비
##렉트
이케아
정과
이병헌
Mod
카카
케이프
리티
뿌렸
##문트
날아다니
병무
엄밀
여소
전성
쫓아내
##ien
권혁
화전
530
서바이벌
호시
박보
신동주
##니엄
여종
245
마운트
DI
볼티모어
비염
점막
##제르
바라지
이끌어냈
안성맞춤
명세
만리
진다면
다니까
배합
석회
쾌거
공고히
괴한
규슈
최원
매겨
246
마르크스주의
향연
제너럴
로페
합해
##믹스
와요
개요
주희
##네즈
라덴
다이어리
나날이
미온
비도
두말
안종
브라더스
베르나
금과
애원
이동식
로드리
카펫
타우
##마른
##슬로
움켜쥐
##콰도르
소질
##정원
방아
소와
##투아
어우러지
Eng
공덕
태산
임정
캄캄
##아트
리허
##연수원
런닝
열사
변함없
American
갈매기
에콰도르
##달리
일족
종착
##inn
기흥
저점
클라라
고품질
끌기
금융업
진실로
1912
1921
레인지
묵살
재결
어지러
하회
채굴
마술사
앵글
항성
장엄
피처
국조
마이스터
쇠약
##34
거느
접했
진가
구월
프랭클린
박철
하스
##oun
고덕
228
선발투수
입기
카이사르
벤트
스파르타
kW
패기
##비슷
국민카드
접해
흡혈
##ions
키워야
다독
다승
그럴듯
트로트
기권
불어나
##카스
걸어야
오로라
국인
랠리
육식
팬텀
##태영
##테르담
물줄기
사들여
##펜하
다가온다
엇갈린
성종
##OA
속마음
최문
##대식
##OM
이사의
MLB
Act
분분
개종
잡힐
허기
기라
방파
해협
두개골
흔치
##포스
##로웠
##31
신경질
어울린다
임상시험
위도
은총
자형
즐긴다
렌탈
빗발
어온
스타워즈
점잖
곧잘
오감
청순
##ba
돌아선
빨아들
안병
가용
헤어졌
결연
달팽이
발진
질려
드러낼
제니퍼
난데
작인
최루
fr
루이지
헌장
합쳐서
프리랜서
노이
숨결
로군
평화상
기뻐했
계망
배차
음양
특산
한답니다
휩싸인
민수
##이동
거닐
고체
변종
성씨
##로호
두드려
죄악
겠다는
투숙
##32
신년사
##round
잠긴
##연설
을지로
부총
##버스터
지하실
디플레이션
부영
신조어
감돌
교습
천리
매달린
큼직
##46
현미경
매점
모아야
국무총리실
중화민국
바꾼다
도운
쓰여진
스텔라
복고
##98
APEC
갈의
목조
나니
비운
오즈
퇴적
협곡
구룡
자크
재조사
끌어들여
신드
지정학
##ural
코멘트
표로
도메인
연기금
동호인
물동량
was
렌의
부침
불태우
튀어나온
진드기
과업
십시요
해머
hy
특단
옥스퍼드
강림
관우
두른
창밖
포티
영양제
권태
데이브
##팔트
원샷
이보
장시
##42
sn
글루
봉우리
빙그레
마코
알로
교통량
다녀야
최적화
돌변
살충제
청룡
췌장
##77
##ze
아스팔트
Dis
로만
##노프
##태용
이용료
##inal
칸막이
김춘
평결
##재해
된답니다
딸아이
다람쥐
알람
폐교
가람
리나
내게는
선착장
교두
##회관
주치의
호호
##bi
공공연
오우
탄환
동천
초소
요양원
김진표
취량
##코비치
##히코
수화기
원성
##orge
반대쪽
축구장
반품
폴더
하숙
소다
원세훈
UF
세난
야전
퍼팅
미지수
빵빵
천자
민박
스메
피셔
성년
위드
날아갔
버무
병들
연민
나이프
광둥
나이키
명기
몰아가
피칭
구매력
pre
꽃다발
수라
안겼
##잣집
눈매
표고
부랴
제프리
가석
여장
잔금
귀향
##영향평가
216
맞춰야
세무서
어때요
졸속
##퍼트
원효
bbc
권투
덮인
데니스
바느질
악장
○○○
미진
수온
필적
##광장
##언정
글렌
##unic
중금속
박완
싸인
##큘럼
기다린다
##ani
강인한
눈초리
가브리엘
본받
삼양
최면
##유사
열혈
통감
성동구
신학자
미연
##수염
검단
전조
환경영향평가
들키
지마는
밑거름
북상
웬일
잘생긴
##gram
자유자재
like
근교
버팀
연호
성모병원
괴로운
난색
이글스
하마스
아미노산
Pe
당수
밑반찬
첼로
##펠러
단자
소피아
조셉
천성
석탑
이너
캐롤라이나
양념장
커리큘럼
라오
주례
단행본
포섭
낭만주의
공론화
gu
모신
샴페인
세조
심성
장단점
퓨처
외대
망라
체로
대학가
mon
종단
꼭지
메세지
번져
쌍방
대수롭
라거나
##학습
자임
##oot
행정소송
##ICE
AB
존치
고속철
금값
redpic
기선
덜미
만델라
면면
서글
이채
중식
배아
추스
괴수
구먼
오노
정력
##epic
광명시
##질렀
우리투자증권
보탰
광택
치하
생리대
백종원
##레트
비대칭
Per
경련
도선
생각났
상한제
문화방송
자금난
난다고
정강
전기료
코난
연마
오스틴
초고층
보쌈
개소식
개진
내보냈
비수기
중론
세운다
니콜라
깜깜
용액
2800
넘어오
mp
송강
조중
##요시
기조연설
맞히
스텐
인디애나
##ML
수출국
피해액
무용지물
발레단
독촉
오보
이덕
크라이슬러
모교
잔재
##바스
긴다
피오
영양분
실외
찌개
명곡
자분
허드
공급량
가벼워
##메이트
수의사
고흐
코우
전면전
VOD
줄리아
트리오
흩어지
의뢰인
부총재
말다툼
문병
##82
크래프트
삼각형
서킷
390
bluepic
환각
졌으나
##91
민병대
에워
끈기
주물
안전장치
가로챈
광산구
라비
티코
미제
약수
DMB
나일
충청북도
col
열띤
커넥
##공주
귀의
2700
원비
윤동
##프셔
무더운
자청
코딩
부화
체구
유통망
담사
확연
환경운동연합
540
갈림길
뒤따르
KIS
머레이
외전
측도
##열차
사법연수원
스팅
오송
담수
자성
255
리허설
종아리
포브스
UI
백운
아이비
요시다
자활
##유리
밝혀냈
커맨드
까맣
회비
자연재해
프리킥
방어율
빈센트
칠곡
다이렉트
집적
##38
560
메아리
병든
피어나
기마
노역
알짜
잠그
##도니아
블록버스터
app
백억
정상회의
예비역
패럴림픽
재빠
rad
속수무
오퍼
##황후
속수무책
리플
변덕
월마트
##화나
공양
기왕
호통
##79
풀려났
진에어
##이센
##끄럼
rub
원희
헤아리
##rim
웨일스
##ness
폴로
ICBM
무방비
팔의
크리스틴
스파게티
결손
2600
엽기
풋볼
조원대
부사관
고속철도
고노
흐릿
황태자
만수
본진
##뜨린다
질린
프로이센
대기실
붙잡혀
pe
고열
동떨어진
베르크
핵과
##ral
장마철
##ao
can
리브
투자처
김수현
대관령
애덤
##야스
가르칠
하물
##린트
그레이트
프렌치
감명
상층
수치심
안토니오
정론
콜럼
영상물
서천
완제품
##거림
NT
암묵
장충
##oad
##ster
고관
백이
총서
권리금
총력전
table
군기
기판
모면
기네스
세용
이상민
다변
밀실
기관차
적십자사
노파
울창
취수
226
맞춰져
쓰러뜨리
오존
다락
명지
##재현
##led
침식
##세라
##치마
LTV
달랑
독과점
배석
김상곤
고프
가정과
에스파
현관문
의왕시
POP
유원지
인색
조여
##41
TC
주포
퇴거
Lv
클랜
표제
##라치
클레어
##EX
##37
1911
되새기
급박
마담
노드
셀러
신간
켄트
##AAD
엘레
조달청
섭씨
잠적
##세웠
기억나
우승컵
단호박
미공
진군
동시대
메디컬
가느
근저
라멘
적과
이주영
가석방
석권
윤희
창호
변속기
##por
WTI
고승
얼라이언스
걸세
무예
울지
이봉
호러
홀드
##손가락
의견서
이인제
건널
아킬
정렬
펠리
OPEC
당적
##벤처
행정학
불행히
전생
##타니
이효리
자카르타
가발
사민
외삼
##사이드
아우구
내한
##of
암벽
예예
##olution
이광수
근속
기교
##조류
바인
방편
버니
불금
종과
기록부
스러우
에어백
SR
닫힌
마쳐
함박
스타일리시
National
간이
시름
흑색
정두언
지방산
달려온
공학부
휘하
잇따랐
토요타
익대
유니온
제보자
운석
반신
단상
해전
후식
##ated
등부
잡화
카츠
##VA
Stud
백지화
러블리
된지
달라서
합천
자본가
양육비
어림
개인별
##문화회관
가비
구술
도다
지휘봉
의석수
강팀
옐로
민노당
아실
폐가
##ka
소극장
함평
베어스
이홍
자몽
함장
협소
##케이크
프로덕션
##ows
등심
##어먹
세종문화회관
생산력
영결식
검술
시문
제창
##천사
불운
오영
챙겨야
안드레아
둘레길
일석
앞면
전언
피카소
급인
라시
##uch
수천억
잔디밭
TOP
은빛
난자
선거일
서성
피시
현대건설
FDA
겨누
뒹굴
마곡
퇴색
##가슴
반바지
원종
관악구
윤병
교직
값비
껑충
꽃피
라크
채집
승부조작
레터
성난
##라이터
행여
행군
허전
순한
유업
콘테스트
svg
채점
광진구
술탄
흔들릴
Good
균일
에밀
비닐하우스
##ring
할인점
##기계
레온
##튀김
your
말소
옥외
첫발
해직
니콜라스
물거품
박유
심할
떠올려
기단
스팟
점원
닉슨
윤정
대나
##테리
우편물
고음
정보국
바트
장녀
협연
붐비
나아질
탕수
걸기
##이티브
그려졌
광해군
박시
##령관
자산가
들르
스피치
혼혈
촬영장
수리비
양조
호국
##토토
국방위
퍼진
항이
##43
라즈
레아
이백
팔뚝
##나미
상한가
발렌타인
크리에이티브
마스터스
##89
상업시설
괴담
수증
##칼리
대마초
경장
동태
망했
아낙
386
자다
절상
계산서
앞장섰
탈루
교향악단
화로
건당
횃불
장갑차
부축
분교
팔라
충성심
외도
직진
필수품
교착
문전
확실시
경실련
Pre
온수
##톡스
Mus
사오
무개
반반
죽임
부러진
하녀
노점상
뛰어났
린이
위트
THAAD
카바
헐값
은평구
데일
빗대
작과
경남은행
돌려보내
##용석
부문장
완충
파헤치
압록강
mill
괴산
레비
진찰
보합
마닐라
드실
무패
창업주
조목
##59
외야수
호모
훤히
##74
기본급
##IL
몰릴
1906
참작
##대표제
낙천
특례법
대규
관리도
기복
치장
풀어놓
설명도
TO
풍물
##드리히
뚜렷이
정약용
ㆍ소
BL
새싹
위증
원어민
약칭
페라리
##71
##약청
블레어
설도
설상가
어렴
외양
##roup
해로운
##부랴
카르텔
기슭
음미
동작구
존엄성
선서
##미사
최고점
설상가상
BR
클러치
PH
약재
간간이
토스트
##port
는다며
습성
럭키
##ux
선수촌
목과
상투
재야
오스트리
망막
울분
호리
##73
극성
부주의
팔다리
삼국사기
NSC
떨림
##usiness
칼리지
아이언맨
무형문화재
그린다
상근
실바
씌워
하층
할로윈
리필
속인
숯불
원생
맞물리
머뭇거리
부랴부랴
건성
문창
식약청
마사회
GO
냉혹
##나스
##ould
등불
국내선
스파이더맨
이복
탐지기
Inst
생동감
포워드
프루
아래층
도자
광동
칙칙
##네시
##ross
지은이
진두
반말
이발
##play
속력
일률
입항
체험학습
rob
적외선
태수
신고자
rec
골다
세네
구속력
별미
우표
홍의
히히
남서쪽
정운찬
어렴풋
Rel
노린다
##29
재능기부
스테인리스
래리
명가
인친
##채기
##블러
MRI
도상
노루
뒤엎
토성
Inter
함부르크
이동한
교관
남도
순결
으레
가변
귀순
발찌
헌병
공탁
딜링
바니
헤치
해운업
Des
동일본
ip
난해
무턱
##tm
한의사
배운다
찔렀
##ih
##놀림
놓쳐
프리드리히
특파
##랭크
스포츠토토
조모
마지못
blueban
진시
##여객
러시아인
##EST
피플
형체
직과
고농
맞설
##떨어지
RF
신해
##르바
##ros
걸어오
Ver
가리켰
홍역
강유
단도
##미스
##진흥
##노미
아랍어
주려
##포동
##acy
660
redban
시끄러운
정부안
광고주
버밍
어진
학내
275
문사
반점
##ally
독백
회계사
시공간
love
사천
성욕
써니
맹자
손주
채색
##홍철
470
봇물
순직
여명
세계일보
현충원
대적
판독
##커버그
경축
나락
목표물
섞이
끌어올릴
원목
페인팅
시킵니다
오성
키프
파츠
##무스
지나쳐
아낌없이
가격대
지도층
아삭
터트리
도미노
조현아
디딤돌
베니스
완승
날렵
##티콘
알베르
레인보
KLPGA
UR
가린
문호
선종
짊어지
필하
시민운동
교두보
책방
헐리
대주교
follow
동족
면직
아트홀
캠벨
미하
십의
도토리
백조
병아리
천차
피조
##스톤
##츠하이머
출몰
크리티컬
빨갛
떠오를
알츠하이머
없앨
장학생
##음료
여중생
귀금속
비탈
서프
아뇨
한국개발
우스꽝
##rown
##진진
연작
##신호
기니
기출
잔고
철광석
##65
낙폭
묶음
줄다리
막부
의인
##ely
사르코지
남다르
레베
건도
볼턴
불합
송아지
장현
전열
인사이드
연금술
고베
예단
##라이즈
동강
##추럴
본청
상성
수놓
스플
이카
차곡
변함없이
배재
페이즈
비례대표제
ㆍ전
우치
위세
직사
김만
자오
분수령
값비싼
##omas
사회당
특공대
##evelop
궁정
산신
##oz
비틀즈
외연
##콘신
##itch
벡터
어처구니없
교동
농산
처칠
##클로
Life
문진
단일팀
실지
가르시아
델리
오리온스
쿠르
나가사키
조심스레
에바
통솔
##혜영
위스콘신
고화질
망가지
빨랐
행자부
Off
Richard
기입
석차
판과
레이첼
##일기
홍보물
KAI
담기
도트
제빵
조병
허망
##eek
di
HTC
걸으며
현빈
##네트
거렸
육회
허름
##MCA
가압류
볼라
쌓였
춘의
형인
##박혀
상아
저당
##스코트
한국개발연구원
격하
김성수
범퍼
야유
통할
가르친
삼국유사
임성
총선거
실력자
도넛
아츠
대한상의
대판
사발
승합
풀뿌리
Sec
조찬
허비
연장전
무서웠
암스
채비
기다린
상담원
황혼
410
메릴랜드
요충
##축구연맹
광채
영사관
미주리
난장
제복
##94
셧다운
##다이스
증권가
조나단
오아시스
##agement
다분히
난치
힐러
최상급
탄원서
모하메드
치프
장승
뿌리치
프라이데이
##여름
기본기
라자
쿠스
할증
워시
시간표
1909
라던가
내추럴
무디스
1904
거만
공터
암초
타사
블랙베리
##프라노
서치
북동쪽
연발
이사국
3200
뿜어내
상서
인산
##중기
부풀리
##iation
GN
내민
공리
발자취
봉황
셀피
시제품
획단
저격수
아편
##탄두
감사관
붙여서
정설
차단제
빠져나간
최희
방광
사간
이웃집
러너
승복
이분법
파노
감정평가
던데요
흥미진진
망토
원예
##ena
휘둘렀
##특별
도와준다
나았
총탄
##avel
꽂혀
파마
##lish
누운
시늉
향방
은둔
##pr
진보당
마이크로
헤아릴
발대식
뽑히
라이센스
누님
부림
투항
##97
정부서울
가져간
정부서울청사
눈덩이
얌전
##산업개발
자판기
굴착
냉기
도살
앞부분
적인
##카메라
끓인
돈독
미관
증이
##공증
채지
통했
팀워크
221
된장찌개
트윈스
빽빽
탐사선
에반스
본다고
질까
BJ
권세
임재
##티시
경비대
코미디언
읍내
열병식
닫혀
총국
홍차
목구멍
soc
밋밋
벨리
어드벤처
판가
김관진
노아
타임즈
거미줄
노량진
불응
석고
직간접
극작
증과
셔요
##클레스
탁의
ev
사바
##다닥
아스널
교통비
스킨케어
끌리
##랭이
직함
##IV
미국식
셔틀버스
땅바닥
##유업
##불명
골다공증
나로호
요번
보내왔
줄다리기
Don
예술단
베네딕
승산
올라타
Charl
쉬웠
돋보였
right
응의
아름다웠
법원장
피사
막대기
계략
##istory
버팀목
Mart
시료
파드
혈전
휘말리
거침없
Day
진천
헌데
외할머니
je
빛났
작자
루카스
견주
따낸
바라본다
기동성
임관
추문
부대원
time
스나이
911
##work
ㆍ경
로밍
의료관광
영이
트레인
올려놓
김봉
리전
모디
체념
LO
박제
소탕
합한
##일레븐
부딪쳤
암살자
타박
sub
분업
차주
640
뇌리
동양인
꾸지
콧물
대할
삼림
정한다
##47
##스트로
보였으며
늘어선
금치
브론
송곳
에픽
##itz
##ret
시트콤
쟁탈
좌완
##스토리
정해졌
수완
##저축
능력자
대장정
위층
파라다이스
항암제
업인
좌장
시흥시
범어
팬클럽
다이나
낱낱이
넓혔
예멘
픽셀
순익
영통
올립니다
상영관
남양유업
파수
수족관
단초
튀기
보였으나
##mann
##애플
제언
기무사
ke
vol
대손
요로
탄창
한영
오른팔
강모
시게
에메
유카
언어학
무거워
메소
미행
##49
##광역
포니
불가사의
물어볼
PER
격분
변방
중처
##호우
##MD
산양
사월
쏠린다
조커
##모자
선크림
발췌
잠겼
##83
제설
##ij
우지
피에
금회
대머리
어긋난
미궁
왕좌
##티티
##레미
천일
특파원
대야
사하
##워프
낙찰가
자랄
색은
엄연
해양경찰
벌크
자인
코퍼
엇갈렸
승강기
##프레소
Wind
도처
변장
양방향
템포
흑의
보호관
따돌림
김근
대리운전
ISO
구심점
박이
히토
바빠서
파로
화목
찾아낼
퇴역
걷잡
결장
임영
페라
한해서
##아졌
##ones
물린
##ney
김종필
그레이엄
세븐일레븐
시발점
징크스
##만치
2050
사회봉사
학기제
1895
팔로우
차상
캔자스
지나칠
한데도
전용기
매튜
월터
##가을
그리운
치료사
시그널
마리화나
뒷걸음
시온
재력
해결사
##끄러미
HA
라그
고된
##번스
미래형
태양계
소나타
슈틸
##토르
진단서
YMCA
마타
윗부분
##바오
라파엘
제쳐
코네
##81
기지국
소지자
활기찬
감칠
마주쳤
보듬
사그라
최윤
제수
성신
마르크
피소
생쥐
##PN
방비
카사
##콜리
기장군
유토피아
슈틸리케
Op
반인
역류
프런트
##멩이
Bo
블랑
수전
##만두
애절
야영
잡아가
232
도립
현정
집중호우
핸드볼
면허증
키는
이끌려
노릴
원정대
길들여
뒤졌
명맥
종점
희비
되살아
모티
빠듯
앉히
평야
##ody
이슬람교
헷갈리
명태
덮밥
상무위원
KC
억누르
한솔
조니
##선미
합숙
해녀
1915
갈라진
가로수길
차곡차
문맥
폐단
말끔히
단비
리자
직설
차곡차곡
자포
짤막
에이미
스택
청색
끊긴
앨리
로빈슨
공실
서스
앞머리
##라호
첨가물
KGC
사온
육사
##ious
현대산업개발
인사동
조각상
현란
꼬이
##중간
슬리퍼
면죄부
모라
##비안
다가갈
리커
af
도시바
바자
윤지
끈질긴
영산강
홍명보
늘어지
섭리
여아
장막
프린스
마신다
백설
장진
쿼드
동의서
돌멩이
##apan
부전
전압
제르
이기도
도망쳤
결백
핵탄두
오라클
장신구
내디
상작
잔존
축조
겉보기
##ency
겉모습
주효
송영길
품절
##rop
Vo
따졌
브리스
노보
서평
##맘때
어려워질
왕자의
섬진강
다기
불감
사쿠
이펙트
벌어들인
아로마
관인
제제
헛되
##gy
##창수
GC
끼쳐
이끼
출금
##ior
피파
박주선
신드롬
펜싱
PEF
성자
학적
외딴
212
후반전
골머리
비기
초계
ㆍ보
굴절
색조
툭툭
주무관
살아오
##ather
고은
광활
구겨
산성
원나라
크래
살펴본다
##iety
덕택
임야
중종
다시마
##스타일
뼈아
망설임
GHz
내막
원제
단시간
레크
공공시설
특허청
쌀국수
민물
개최지
샌들
시보
유나
##리드
경수
냉담
##67
일용직
리니지
온스
저버리
##신라
##라이언트
낸시
##za
가보
귀추
깨졌
꿋꿋
생업
솔선
엄선
훑어보
van
##erry
##eam
네이비
워런
큐레이터
8500
가야금
격투기
날치기
상은
마케도니아
fa
배웅
수재
이변
밀려났
포르쉐
Ev
눈시
유월
클라이언트
몰려오
미간
적막
플렉스
##way
##52
발맞춰
눈시울
다던
갑작스레
예천
황해
알려야
모사
스펠
영영
찍히
창사
풍조
구구
아름다워
깨뜨리
세일즈맨
Red
견적
학도
곰곰이
노면
아벨
한울
##63
서병수
앙리
웨스턴
장서
허리띠
Econom
들일
여교사
슈미트
버밍엄
신당
##요미
##ger
농수산
궤적
김순
스펜
용두
황량
비수
##번트
##캉스
성냥
요점
발칵
사별
서에
안색
혼잣
구안
바캉스
팔과
##반사
노장
심연
mail
에이지
가점
숙취
톈진
바이킹
났으며
마네
오롯
패닉
sbs
숨긴
알콜
뽐냈
미첼
틈타
##촌동
대형주
액세스
다각화
플루토
기혼
물끄러미
전리
황기
원한다고
독한
밑그림
조진
국민회의
되살아나
도전자
차베스
##ND
바이저
감산
쟁쟁
전우
제강
파커
걸어온
탕수육
맞불
##진로
##39
주소지
아베노
애국가
게다
스니
##off
바실
빚어진
응방
미지급
피렌체
매카
에베
연제
험악
##진다면
과천시
미칼
악행
철분
혈연
화교
주군
관계없
목청
신협
에덴
총출
불법체류
내자
모더니즘
재작
##눅스
담회
비욘
##리얼
##FL
중문
프로파
금형
##랄드
사망률
옮겨져
조계사
징조
누웠
살핀
아련
##꼭지
부담없이
남겨둔
Wi
##그러운
가지런
라바
최병
##틸렌
##ORPG
조부
쫀득
판권
부숴
삿포로
피폭
힐튼
Her
Mic
카가
하르
##54
고아원
고택
수공
##방망이
레오나르도
Bro
리눅스
솔솔
임신부
군데군데
성호
카오
무난히
여하튼
301
은행나무
얽매이
가차
서러
표식
프로그래머
연해
저물
허둥
후궁
강지
진사
그리스어
해짐
경찰대
##덜미
사변
양가
파프리카
응시자
상류층
느니라
발사대
매드
cat
직경
진주시
게장
밤샘
앞이
투르크
팝콘
알아냈
김재원
Med
원활히
댄서
일광
토드
괴테
뭉클
육안
재경
기타리스트
ESS
각막
리크
페르시
야자
하람
인권법
백과사전
center
심오
부평구
조미료
##bl
sw
만사
불붙
향신
세출
##bert
원외
찬찬
##용품
코스모스
거림
저편
주황색
아흐
명중률
새긴
후끈
힘없이
프라자
매표
무위
수액
와카
철도역
GA
미완
번들
빅터
숭실
##그러진
부르크
물러가
내세울
갈기
문수
서번트
청량리
거버
송유
rel
##레타리아
관방
버클리
벌칙
베푸
야대
증산
수만
애쉬
자야
진경
한족
들려준다
##교차
##금고
봉산
채우기
문물
바빌
부스터
앙코르
주세
휘감
보사
##els
프론트
굴레
NSA
비합
따라갈
##unn
이자이
프라이드
경종
구정
되짚
마더
무표
초년
만화책
가곡
도비
시끌
죄질
총대
들린
우후
최동
##체능
대표부
청구인
프롤레타리아
##56
노다
산둥
쏟아부
왕건
참외
올리버
##ating
디디
여념
##PA
노동법
공경
FRB
삼의
정윤
팔짱
미운
자평
this
다간
깃든
바바
바싹
##eaut
수진
이부
정략
제하
KOTRA
묻어나
샘물
##iff
갇혔
더냐
거시경제
##라호마
가업
유경
총책
580
문안
##제과
Cal
노라고
벌거
숨소리
쓰촨
온종일
빼앗겼
##맥상
바그너
dem
da
돌담
분립
개발비
일단락
##orts
래쉬
이요
현악
정주영
오클라호마
도하
##its
파인애플
대자
황영
스탠퍼드
유정복
깨알
투박
##반짝
리모컨
난이
노약
배짱
##코트
천문대
가창력
무턱대
노프
커멘트
레인보우
rev
학연
##53
살림살이
중환자실
자결
헤헤
휴학
테마주
급선무
두유
한다는데
스탠다드
난로
읽히
튀겨
무궁무진
석연
획관
##티넨
##ervice
통조림
che
뚝뚝
방랑
유휴
의경
##백산
뱃살
뻣뻣
나올지
반짝반짝
art
진두지휘
레퍼
소프라노
작화
최수
##87
강연회
줄무늬
후발
##창호
유대교
넥스트
리마
액화
##누이
배출권
삽화
##장수
메워
##ars
데이빗
##변속기
MG
니즘
##93
##츠크
닐슨
로스트
아포
##길동
과금
꿀벌
한국식
나이스
상동
양태
젓갈
코피
해집니다
3300
EL
박빙
약제
이승훈
Global
윤활
출연자
3600
사격장
마지못해
디시
토네
##년기
취한다
흥청
##민정
들여오
##히트
##폴리
합헌
MHz
근황
유품
기어이
미혼모
성탄절
불합격
OB
감회
즐긴
처남
플레이트
어정
알아채
녹색당
유의미
저작권
꿀맛
내키
말뚝
목성
최전방
BA
##패닉
눈살
보우
##ffect
nhs
Fre
마을금고
매달렸
##보증기금
개칭
##오위
이치로
본회
부딪쳐
무참
애당초
잠재우
1913
히스패닉
아틀레
중흥
구기
몸체
뭉친
일신
Miss
미노
마이어
부서진
소지품
ruby
새내기
휩싸이
티아라
오클랜드
리언
##노위
요구르트
보스니아
나아졌
강병
민지
코스트코
뽀뽀
하중
결탁
슬립
그을
내홍
묻혔
터빈
토가
##보트
하수도
과오
실추
##igital
프라이빗
브루클린
어긴
허의
로미
비늘
익사
##나비
570
이지스
대각
머문
##min
photo
trans
아르메
III
수빈
중임
푸념
##NO
골대
꼭두
반부
자족
차서
##oud
어버이날
마그네슘
마스코트
광양시
두고두고
대별
리도
직물
화난
아람
주검
문제집
곤두박질
밀레니엄
유임
데려왔
가본
정교회
외삼촌
막중
터너
Top
비좁
아뢰
재소
이뤄지면
합성어
ㆍ유
들락
미납
##르륵
선발전
예체능
독일인
정성껏
##aster
대종
진우
김재철
변변
블링
서희
차우
병무청
##카라
김치찌개
오두막
골칫
수욕장
슬러
시무
시편
드로잉
사스
역효과
취합
##돈나
밀어주
불어오
북동부
나래
달째
무협
유다
알려준
식용유
고참
나빴
쑥쑥
정찬
팟캐스트
교부세
가천
나영
##파람
거리낌
고시원
도르트
트론
가계부
걸어왔
간대
숨길
전해진
배너
편식
##워스
요동치
브로드웨이
레퍼토리
물으
선선
이서
##ha
오색
환절기
Black
몸뚱
복이
속박
추심
호송
불경
치달
이뤄지기
##64
##덴티티
##57
고쳐야
동체
부록
칭기
연주가
휩쓸려
교권
난제
아이덴티티
러시아어
소방본부
브렌트
Sim
담판
도색
타국
토핑
깜박
대영
페퍼
삼성전기
로드리게
끈적
마수
수려
##62
뒷문
에비
더라는
나쁨
아역
애타
유구
점인
정홍
경구
문지
복통
이재민
불기소
체포영장
동그랗
BIS
배회
재추
##혜원
통나무
맹점
코파
허우
으르
##sa
갑의
한낮
##och
호텔신라
##ople
Peter
떠맡
발칸
보문
김정남
불도
정일
후후
지원서
독립영화
나아갔
##머니즘
잘라서
##공간
당청
다마스
헤드폰
소매점
진원지
향응
자화상
ED
rep
곤의
저수지
##uel
##곡리
253
RS
면사
비잔
장재
시켰으며
격전지
무임
##로니
낚싯
얽히
경쟁률
도가니
거사
주먹밥
드레싱
갱년기
남동쪽
녹스
바베
슈타인
최시
아카이
##ype
##승용
탑승객
dr
스스
평촌
252
로니
##특구
##iver
배고픔
동장
손오
응대
켜졌
##샤바
홍문종
억새
하키
##나귀
고소장
보육원
리퍼트
로직스
근소
다라
샐러리
신일
회선
##ura
구로구
메라
참으
수업료
##ship
물대
안위
키드
도이
마드
백남
##른자
마구잡이
드워프
동대문구
발기인
놀림
원기
삐걱
신령
원곡
각축
기제
##WS
공모주
ㆍ부
계주
따끈
식재
##amil
MMORPG
비일비
토마
공격자
지사장
비일비재
무르익
게으름
고릴라
노멀
무허가
일동
특정인
중기청
동정심
Techn
첫눈
황인
##ET
하이트진로
원희룡
딸린
약체
위용
Er
mil
오수
천왕
##amer
사모님
자이언트
슬럼프
주마
당명
배신감
미룰
단호히
궁핍
산탄
앞길
전근
친형
행이
이맘때
트램
스에
##석기
긍지
비철
족보
체하
오르막
리포터
중급
슬로바키아
KR
생크림
##그럽
미망
재청
환생
##두부
행방불명
속살
하남시
금오
루키
본고
소회
스털
##cess
귀촌
난도
스쿠
펠트
도르트문트
단검
실록
완패
정개
통기
##68
전반전
극락
선데이
설과
흥정
찜질방
나스닥
레버리지
우화
ㆍ중ㆍ
찬찬히
사무엘
칼럼니스트
랴오
벼룩
##결제
감칠맛
Rec
거위
구식
핫뉴스
후술
##51
##레드
달아오르
내비치
세터
##렌스
베이스볼
레미콘
수현
피운
##주니어
아르메니아
멘붕
213
굳건히
소포
찬송
224
산티아
장경
저유
ㅜㅜㅜ
굴비
서안
출렁
##두근
레인저스
우미
좌절감
크리켓
계셔
깃들
정봉
승부차기
녀석들
도네
분뇨
스낵
투자액
##산지
영남일보
요셉
승전
심미
도쿠가와
FPS
고약
전재
중서
제이미
번뇌
그만둔
전모
떨어뜨려
이사회
돼온
씹는
회도
유지비
암스테르담
겨드
차감
계세요
판가름
토네이도
산티아고
당나귀
동교동
원색
홍석
IAEA
혼잣말
발원
카누
회신
회오리
장화
이상득
##아프리카
하얀색
인어
타리
이기면
한중일
er
괴상
마장
양강
체지방
해서라도
정치력
해안가
오락실
##테르부르크
Green
고현
##la
문답
부국
제형
책봉
케임
패티
PT
비바람
쇼와
몽둥이
이리하여
##바라크
볼리비아
송승
카리브
갸웃
머스크
##셈부르크
풀려나
간간히
##over
Air
히라
부주석
볼드
정량
Mbps
라나
무바라크
준비물
West
서툴
습니당
신창
찰떡
화정
찾아온다
뚫리
돌아다녔
로와
향식
##rol
은신처
빚어졌
사만
양현종
극소수
단열
모가
호사
굶주림
강단
롯데카드
급식비
HT
가물
길들이
노모
##만별
##처치
1896
만지작
천차만별
ass
계책
메기
율곡
주영
##ifa
배고파
산발
윈터
지류
##물살
정치권력
배기가스
급물살
악세
##IG
자유형
ㆍ수
어울림
조력자
붕대
교보문고
구획
##레이즈
살아날
저커버그
푸른색
포켓몬스터
민화
평방
감정가
상무부
isis
로테이션
묵시
안이
미나리
##박사
유일호
건다
입힐
캐럴
##박자
응원단
중앙선관위
유심
김정훈
막무가내
송시
하임
##formation
해다
승합차
룩셈부르크
##고양이
지지가
##aby
간곡히
대들
합의점
말렸
##천후
발행인
이주노
자른
회당
보수주의
즈음에
매서운
서스펜
급습
꼭꼭
알록
유념
탈옥
1916
##ple
##ents
과도기
나른
버즈
석좌
##론자
데려온
콜라보레이션
닫히
매미
불똥
반대파
부잣집
##복음
비행사
골동
스트라이프
Val
압박감
후원회
티나
유성구
매개체
발렌시아
스탭
물으면
오열
킬로그램
태백산
JR
가교
##EV
염색체
스털링
굳혔
들뜬
송나라
수속
끼우
이코
본디
열한
인트
황색
223
후송
##포도
생활고
개인용
라이즈
기스
불임
옐로우
파이브
뒤엉
##겨워
부딪혔
ㆍ한
부릴
##58
무등
성공회
감원
컨트롤러
탄다
##타페
510
한옥마을
어드밴
무표정
초동
슈퍼주니어
이태리
AV
Book
OC
나그네
왕정
월별
힐스
Park
하염
가꿔
전현
충무로
동승
MT
선곡
방전
해칠
##주머니
고사리
Che
금화
##컬레이터
인기몰이
강호동
몰지
옥천
##ique
영화사
교황청
노숙자
괴롭혔
USA
강현
회전율
주사위
양주시
데카르트
볼펜
분지
뺑소니
하정
통일성
에스프레소
에스컬레이터
have
항균
1894
디아블로
카스트로
스쿼
헤더
나타났으며
가엾
맛없
수복
심청
입법부
저울질
아구
썰렁
테란
레트
패셔
##ita
응수
##uz
두드렸
호실
휘파람
살벌
JS
size
도호
숙인
은서
좌회전
선거전
고성군
리에
두려웠
번창
##uy
배고프
네타냐
간수
너구리
##den
두리번
그이
##조목
뒷부분
육감
해동
돌려서
응집
바오로
mark
번졌
##셔티브
##비언
##세우스
##ola
이니셔티브
찾아갈
부메랑
구시
나성
세간
##이행
후견인
화훼
##타자
##글리
대출자
##riv
날아갈
신인왕
##민석
유기체
파스텔
슬라이더
val
실베
놀라울
져도
상속인
Social
궁녀
엘리스
옷의
하토
장밋
3800
동그란
용자
울상
포레스트
군위
떠다니
록맨
부관
숨겼
양산시
출범식
스크립
1890
##69
수면제
티브이
무뚝
피보험
##암리
227
인구수
치수
동창회
영일
트리트
휘말려
미우
이봐
판별
마운틴
미끄럼
산유국
##선지
교통카드
갔으며
장실
산업재
시킨다고
강해졌
동식물
세도
일평균
찻잔
대뜸
사투
시급히
도마뱀
따왔
행정력
엠블
냈으며
버텼
은밀히
##61
무뚝뚝
남작
도핑
뽀로로
어플
주길
톱스타
##day
나빠졌
뚫려
선덕
##ano
현종
배부르
이찬
##컨드
할인율
허준
인플레
발트
고려인
에너지원
cafe
바레인
실소
허세
##궐기
Ant
니당
성체
지게
##uf
단지로
680
매스컴
Time
독설
라데
보국
약서
##LR
비스듬
거스르
kh
과민
기폭
옐런
총궐기
카멜
특선
스타인
Mag
So
겨를
했는데도
세라믹
봉이
읽힌다
777
아키라
bord
작심
축축
Ann
실거
암각
##회원
오케이
든다는
사납
형용사
고달
파사
##냉면
##냉키
프라이즈
미뤘
자조
##상조
재배치
개찰
내력
도련
묘미
샅샅
지산
해맞이
##제강
사진가
압둘라
샅샅이
피클
아이리스
통신부
즉사
피식
지켜봐
복습
상학
세스
으루
day
대피소
음직
포장마차
온다면
초속
홀로그램
핏줄
##로프
코스타리카
갱단
버냉키
신승
예지
창녀
다이어터
계모
시효
##소닉
##플로
217
노니
##맥주
##olf
파노라마
고주
세컨드
알프레
##넌스
윤병세
터뜨린
판도라
브릭스
부산은행
저널리스트
Cap
빈손
지칠
유명무실
최경주
배와
##오피스
##ington
다거나
만유
출중
안종범
Can
줄임
흩어진
##분자
SSD
재수사
어플리케이션
sl
마돈나
자음
꼬리표
격전
레티
카일
펄펄
풍족
##결연
##클레
한국노총
기프트
문지르
식자재
TR
수연
회항
라이플
기차역
공문서
ER
보약
노심
빈혈
스컬
여서는
##트라이트
연고지
권능
였었
이직
##amm
근거지
스턴트
울컥
통이
흐린
##출혈
드리블
브리티시
워낙에
Alex
mcc
갈리아
자매결연
뒷산
불러왔
서사시
그렉
매복
데몬
현우
##나기
##멘스
부산물
알아본다
콤팩트
물러날
Euro
민들레
잔다
피노
##치즈
##ogle
KBL
순찰차
공금
명주
였어요
음악인
들어갑니다
올림피아
##une
ㆍ신
본원
어항
화물선
백마
악인
##HS
도망친
도감
##모닉
독살
짭짤
증감
##효진
시험대
부탄
바닷속
그랜트
How
간극
양용
미동
숙부
한샘
향긋
보살피
무화
인에
떨어뜨렸
전자기
매트릭스
봉제
엊그
##르트르
두드러진다
드세요
떨구
234
운전대
재작년
동년
이삭
##ta
사단장
보름달
눈부시
바베큐
##호테
가중치
유목민
휘둘리
훈계
##ied
블로킹
속사
환대
빌릴
악물
##달록
트레일
입담
##DD
##sych
부나
630
알록달록
걸요
단아
타나
파밍
##HA
##라이어티
바라봤
김구라
겐지
일변
##미술
sa
공복
버라이어티
끌어갈
노라면
덮친
듀크
멱살
황재
##대간
밀리지
필하모닉
노상
마을버스
대합
쳐야
연금법
부드러워
군국
답습
공소장
수증기
택할
Inc
전유물
난소
멸시
신율
ge
윤의
지천
##tr
새들
커밍
기념물
워프
##낍니다
맞받
반월
토박이
피케
했잖아요
238
다방면
To
앙겔
도로변
떠올릴
준공식
백합
신수
실비
정근
##ipp
금호산업
알라딘
경동
골밑
서포트
재정난
각색
서당
풍류
창립자
노론
넘쳐나
객원
##팬지
탑승자
장밋빛
천호
기관사
플래카드
백두대간
베른
수일
쉬울
신랄
얼큰
중심주의
보살펴
작업자
9900
##펜하겐
ps
눈꺼풀
점장
철조
흡족
피상
엑시
웰스
도라지
부활절
곶감
극적
무에
코펜하겐
황금빛
프록시
이군
이롭
WWE
에메랄드
마테
살펴봐야
모험가
장보고
향신료
수취
조석
통쾌
##흐로
이승기
남한산성
부러움
아태
참새
초능력
플롯
##적거리
축구단
차분히
ME
격한
의가
가평군
병마
##손실
아보카
Do
상보
의령
저금
##ode
최강희
바야흐로
wik
논어
물든
침팬지
##터슨
249
여포
취사
##신기
물대포
초입
풀무원
전자레인지
폭풍우
속죄
오갈
살펴야
클로즈
권은희
벼르
##계선
기부자
조각가
불러일으킬
무학
일직
킹스
##랑크
쓴맛
비닐봉
공분
목공
실랑이
토했
철강업
녹이
교과목
줄기차
사각형
인솔
STA
건장
다반사
시실
애벌레
헤로
느껴져
붙잡힌
혼전
##반구
##그러들
사나운
니코틴
요크셔
미정
전야
제회
스테로이드
리니
폭침
남동구
Ac
니키
크나
혹여
##구르
백은
전시실
개회식
탐라
공부방
달려와
미공개
느낍니다
##히토
전략가
##urch
이모티콘
관중석
테레사
기민
만석
별빛
풀타임
휩싸여
사파리
벡스코
제라드
증강현실
깜찍
민우
사선
시큰
재우
테너
##나우
난쟁이
박신
오호
말단
오뚜기
원폭
정갈
감가
페널티킥
스모그
sec
레포츠
##규칙
세르게이
조목조목
흑흑
프린세스
퍼블리
날릴
루블
문방
산체
실권
일침
접합
뛰어가
동국제강
무로
신사동
속삭이
야마토
열자
주리
퓨어
##알라
덕수궁
감전
데코
에피
이비
일월
팻말
##카운
##치락
문화제
해안선
로버츠
머리칼
흘러들
괜한
시사점
거버넌스
도금
보코
출점
강제성
김영환
##ible
빌렸
었잖
베이직
승부처
스탠딩
RT
됐으니
척척
Fe
괄목
어인
피폐
깔리
무근
처에
측정기
##ograph
갈라져
발명품
섬광
앙금
오레
막힐
엄지손가락
가쓰
신춘
##불퉁
##퉁불퉁
333
주거비
Sw
공물
코마
화엄
다이얼
천문학자
김유정
플러그인
제노
칼륨
헤이그
틴트
##ival
스킨십
##ison
오미자
해왔으며
299
공예품
기통
손대
##불교
출연료
여비
울퉁불퉁
잘린
졸지
가까울
980
##ugh
스탬프
ㆍ국
그자
딜레이
리히
시아버지
파킨슨
##스타인
커스텀
최규
현기증
거느린
격식
아론
전곡
바로크
경계심
가금
로키
컨셉트
##스민
때우
섣부
설움
가트
태영
프리큐어
##urr
ver
로사
##PR
244
심심찮
키프로스
용시
지녀
진박
##긍긍
##ional
중형차
전전긍긍
데스크톱
수경
씁니다
오작
##ko
현지인
김황
포문
##몬트
##urt
##idth
고블린
등본
무용단
에버턴
감춘
교만
꽃가루
정순
##좌왕
충격파
들어올리
하염없이
##oug
우왕좌왕
관서
스캐
우윤
적조
강해서
목수
도사리
항거
##세종
##바라지
##eft
가제
사들이
##스크린
채워져
가실
능히
##칠성
랜딩
##막지
누리집
##게이머
MK
수렁
노동청
프로게이머
익혔
해석학
무지막지
기막힌
드넓
입학식
프로토콜
Net
eb
신디
열심
4800
교보생명
lib
강산
##ams
환호성
나쁠
브라이
##kin
구용
오간
제패
투게
거늘
심슨
와이즈
이겨야
동갑내기
대운
번트
본작
켄터
화강
##ough
cor
생도
초이스
형이상
옹진군
High
외동
임해
켤레
인천대
코카인
터트렸
버럭
서다
신다는
##덤핑
##스트롱
살아간다
농경지
투게더
mus
권성동
반가워
해장국
노른자
배변
주승용
준용
헛된
그려지
760
1898
심해졌
크나큰
체득
핸디
노약자
world
##티컷
##룡해
아소
원판
아이즈
SG
Up
식전
잉태
현영
네타냐후
오피
최룡해
bet
지력
##치미
유로파
은어
적진
du
선취
위화
쪼금
다이내
되돌릴
급자
이동평
먹구름
반덤핑
송수
왕십리
탈선
코네티컷
윤여
219
구도심
브로콜리
스노든
그레고리
마물
암스트롱
윗선
작아지
장준
주전자
밀려오
용문
##제한구역
City
관도
역차
임지
칼의
워커힐
파나소닉
수렵
홈피
##고추
네온
##망울
수하물
나시
스트링
불러야
악령
압권
명암
##하마드
대자보
남긴다
미오
사키
##페스트
기름진
끼여
봄꽃
동화책
꾸렸
보부
이도
##very
대마도
개발제한구역
다이애나
670
웅덩이
활기차
##evelopment
우림
231
명예퇴직
기표
벌집
알아본
코퍼레이션
리먼
보료
자양
종소리
벌여왔
Elect
Work
빤히
원적
연대기
성형수술
펴냈
힘주
##여왕
##아찌
##로울
배기량
청렴도
사복
##모닝
둥둥
숙면
관리사
훈련소
로마인
ppm
구자철
사다
영공
라선
송지
포츠
God
사무라이
의료인
##카미
난생
덕담
현자
##ya
부드러움
니만큼
빵이
심고
중등
클론
##제비
윤리학
가려움
극작가
끝자락
양식장
먹일
주눅
최지
홍길동
system
나체
조부모
태동
피서객
강태
검시
테러리즘
뛰어드
움직여야
현주소
최형우
##오위다오
연령층
EA
fifa
간헐
오재
흥덕
댜오위다오
박하
양귀
왕도
재범
##원식
##elle
비틀거리
닥칠
돋우
보리스
정평
강관
굳어지
##sw
무리수
인류학
미확
셜록
지상군
브리즈
어판
지스타
code
조양호
백범
베기
애환
##티어
두꺼비
제각기
걸스
바젤
벅찬
##걸스
공방전
아보카도
삼켜
에만
절경
역삼동
에스파냐
유생
탕감
폭소
##햄프셔
으니깐
답례
망령
떨렸
산속
호주머니
굿모닝
윤진
카로
해수면
성황리
쏠려
쟁반
초식
##스트림
416
뉴햄프셔
신공
국제축구연맹
UFC
단신
바리스타
가속도
안영
유랑
불감증
김황식
드니
어주
구단주
병리
쇼팽
페로
##노선
기나긴
운동량
크리스티나
뒤쳐
예비비
경의선
보청
집념
안내판
까칠
청천
박스오피스
틀어막
수탈
지배인
490
1899
분파
새하
점성
페트로
##수범
##cept
다를까
대여섯
징검
합정
##스태프
시그마
재빠르
Bre
근면
학예
##갈색
통신업
대웅전
델라
안재
콘스탄티노
관위
구대
다마
세에
싸여
##퍼슨
사무직
배고픈
xxx
거용
명왕
봉은
어정쩡
고명
라드
구해야
##메이카
착시
지켜온
스트레이트
시리얼
처방전
도원
마태
하림
헤어져
수포
와트
절절
태후
편인
304
센서스
김을
연을
콜럼버스
싼타페
한구석
##트리올
앤드루
코칭스태프
ㆍ제
레프
몬트리올
골몰
무정
폐차
##데자
보여진다
찾아와서
께선
끊겨
최명
권위자
두만
빗방울
##그라드
work
자일
지병
바우처
##데자네이
위나라
하반
233
대원군
미야자키
Tim
나진
떠내려
실익
장직
전편
대비책
하이힐
마르티
에디슨
자퇴
##yc
##연재
##arth
확장팩
맥아더
오물
##for
주변인
정개특위
지탄
Thomas
가우
낯익
239
##ama
내부자
##aker
히로시
휴게실
##티넨탈
상파
줄리엣
기공식
무급
은데도
set
쏠렸
연가
친서
거제시
신지애
cd
버마
좌상
피한
호인
이름난
곤욕
타이트
##도그
동적
상조
커플링
리지
이용섭
아닐지
##ella
에볼루션
Power
막국수
카세
혼례
지방채
진술서
가토
보세
부정행위
닛케이
준장
건달
매가
석조
캐디
지배했
산산조각
무중
중퇴
준거
전기금
나온다면
서양인
잊어
큰손
CMA
자메이카
조소
증류
뮤즈
삼위
창덕
초급
780
였음에도
ld
방기
##irect
드셨
빌헬
시미
Class
강기정
하토야마
삼위일체
갤럽
총성
##룽지
ㆍ사회
들떠
솟구
시프트
위니
임했
##ope
말라리아
문관
위구르
참회
청동기
##니치
##버러
신태용
필러
셀틱
왔으니
타르트
##떨어져
소개팅
식물원
엊그제
bre
숙식
미친다는
우렁
해낸다
깨져
놔야
선화
천신
루이지애나
매지
빅딜
연우
칠판
예뻐서
예찬
Dan
도읍
번화가
성조
##내린
안무가
스콘
##각각
구독자
아브라함
퍼뜨리
흉노
연지
동심
전사자
##데자네이루
GR
안부
##얼빈
교도관
리우데자네이루
전문학교
한가득
일깨우
Fri
관성
눈보라
반한
얼떨
집집
안드로
서려
정당인
하이테크
일기장
동고
선녀
신학교
끌어올린
사정거리
Trans
ㆍ재
아산시
싱크대
##투아니아
달라이
해파리
형세
달라져
휘두른
막사
열강
##통신
피부염
따끔
로널드
베베
알아들
용모
촉박
##onn
다나카
우레
조물
황병
##발력
Star
기름기
경부선
부다
아다
픽션
해충
용선료
지피
##엉이
카메룬
국문학
담지
시우
##농사
스포트라이트
고딕
레노버
손쉬
언데
음절
남서부
IV
##평동
##ript
she
대혁명
부세
순발력
정감
결의문
시시각각
저수
의료법
pet
라벤
리투아니아
자잘
성취감
선동열
설악
앙겔라
머그
세모
아낄
피부색
Jos
그람
방부
색인
유찰
추려
걸음걸이
남하
룰라
침례
견인차
서기관
친밀감
기립
람보
자장
판매액
안전교육
유례없
Super
솔트
송라이터
보살핌
얻어먹
가단
동그라
역관
환송
960
경포
집게
트립
이뤄낸
오랑캐
Free
mph
본업
양악
하얼빈
치러졌
하역
마미
##혜정
Win
but
승천
천적
한텐
##에프
갈구
속칭
의정서
대생
요것
넘어간다
싸이월드
##ruct
노영
디비전
말랑
##혈관
##ular
진흥회
달기
도형
마초
Tw
드미
마우
성배
썬더
천수
키위
물러섰
든다고
상민
플래너
명성황후
스와프
620
이뤄냈
쫓겨났
징검다리
부심
산은
국과수
기암
유커
일교차
파헤쳐
미자
으랴
최준
황보
해리슨
늑장
베컴
설파
꼬막
늦출
바벨
위령
##엔지니어
##타입
관광버스
나왔었
노이즈
미대
주채
ㆍ지
논현동
빙글
소강
체인점
정병국
million
Kn
양기
쭉쭉
찍혔
미나미
소행성
우윤근
불시
사미
용적률
금천구
독차
바이스
보헤
스펀
흐흐
달라요
헤아려
MI
습니
오웬
임자
##당선
공공연히
프란체
바비큐
총상
##례문
구릉
토시
호지
##코스터
경제인
박재홍
잿빛
토라
프라이스
글러브
최창
##엔지니어링
강재
롤러코스터
골동품
사림
의술
BNK
특산품
역차별
꽃게
에디터
제라
미끄러져
목화
##★★
##ello
재추진
켄터키
ii
비안
뜻밖에
Dream
메트
왜군
학당
우주인
예금자
고마워요
##축구협회
모국어
미망인
고쳤
유괴
테네시
##atic
##each
묘비
원지
중심축
264
뛰어올랐
유흥업소
그윽
송두리
##보감
Law
벌렸
##기획
심의위
Min
나침
과수원
디너
족쇄
대학살
뒤집기
일색
종금
집행정지
트러스트
무전
밀림
##예우
254
롯데제과
와이번스
농기계
두레
막차
찰칵
흐지부
##gc
대한축구협회
데려와
비합리
흐지부지
LCC
목덜미
이프
행시
패터슨
백기
총잡이
##트론
##da
갈비뼈
물산
우마
reg
몰아붙
747
DR
마고
식비
워렌
인도인
스토리지
exp
철조망
KN
우경
혼재
229
전관예우
Reg
깔깔
듀엣
예정지
의사당
군포시
경총
차르
패트
스테판
인증서
백승
웅크리
짓눌
최전선
담근
음대
재래식
염분
옷감
243
태양열
뒤섞여
어렴풋이
형이상학
젖소
동진
부린
세레
스캇
식음료
불모
자욱
항고
카톨릭
##이치로
레베카
포커
홍합
화환
총격전
School
안행
##전입
242
살아난
ISD
내리막길
요충지
영접
텀블러
학관
그리곤
김관용
먹혀
식히
ARS
##ulture
리노
하츠
넘쳤
선결
##ures
유니버스
쿨링
끌어올려
라울
유제품
주미
325
서프라이즈
각주
차일
복병
핫도그
어그
기염
당락
목도
우자의
두근두근
과수
조깅
그리구
9500
유유히
sel
뇌출혈
##셉션
조용필
와이브로
끌려갔
가감
내미
전소
에스티
위장전입
빙자
손맛
국민학교
필로폰
Korean
LC
준위
통업
야생화
삼월
오릭스
##렴치
방어구
##aper
쫓겨난
워스
탄두
##SI
안내서
apos
손오공
OT
교가
랜스
문집
판자
빌헬름
봉안
전미
정크
조강
족장
겨루기
식견
##독부
265
007
섹터
옴니
컨테이너선
중턱
미술사
##사관학교
selfie
장석
유산소
심포니
Dem
기특
케이지
후각
우성
장문
##티나무
문화사
독차지
금할
##슬기
상징물
제트기
모듬
여라
착지
푸시
동물보호
곡면
하치
##ling
##yp
241
치러질
EG
She
로베르
립니
강남스타일
떡국
일거리
흥겨운
##시타
가로채
삼청동
경무
두텁
##소싱
##승차
열대야
Mac
겨레
류성
호령
George
알약
총합
##기수
베이비붐
양육권
식인
##브리지
응급처치
그친다
변칙
언저리
준법
부차
불미
##mar
##우회
맛깔
##애애
동그라미
버러
벤자
사보
오솔
제레미
her
공국
예문
유량
겸한
##리니스트
들여온
로젠
생산직
아웃소싱
다름아닌
바이올리니스트
덜컥
홀더
다수당
연남동
인장
불리우
What
고동
하객
##스카라
속삭였
근저당
사포
철자
라이브러리
경솔
꺼낼
친수
따라갔
토론자
다이노스
내겐
추인
헌트
instaf
주안점
과식
꽃밭
논거
느티나무
닭발
디에고
##현주
루스벨트
미역국
리키
메탄
탄자
상대편
보내온
더니만
대니얼
안습
주막
겨드랑이
무릇
최단
투싼
푸조
##ander
life
앞선다
고인돌
ㆍ시
여제
런닝맨
MO
##디슨
##다랗
어서요
브러시
라일
받치
짱짱
##뮬러
236
밝혀질
스파이크
미시시피
뉴딜
서빙
대립각
명문화
찮은
##디트
##ection
신제
행주
##짓기
##가방
##개토
시스코
대전차
둘러본
GW
고철
벌판
요율
발주자
문하
전갈
후천
물증
샤인
##짜고
1880
여행기
기초자치단체
유행어
Polit
담아낸
변별력
광개토
다짜고
오트
컵라면
감사원장
다짜고짜
강함
꺼진
모회사
배속
천동
과밀
답지
덩이
등원
범한
순리
후루
이코노미
갈렸
양안
원구
휴즈
마르셀
맞춘다
장학사
강민호
외가
지어야
뮤지엄
에릭슨
거하
혜화
##ground
##치오
display
초판
알로에
개구
가려져
일렉트릭
소공동
Ben
심지
NL
물병
##아내리
die
생육
데르
불이행
정혜
토큰
##흡연
##투합
의기투합
화기애애
롯데케미칼
##rib
거로
##융합
불러온
힌두교
병신
사족
유탄
희열
마호
영희
돌려보냈
ma
ㆍ외
신파
##TR
차려입
크리에이터
공병
당인
마두
취의
헤게
##죽순
불러도
소매업
후임자
잊혀진
손쉬운
홍상
##각시
드라이빙
철거민
라프
류승
세태
협력체
렌지
##EZ
이사로
주체사상
공포증
암각화
다도
조련
##HC
꿀꺽
영자
철권
칼빈
포이
SPA
우후죽순
꾸러미
밥솥
순양함
자연주의
285
IDC
광안리
JYP
스크립트
피나
남동부
입영
정철
북서부
웅변
초나라
광구
포만
푸딩
##ense
건의안
##unt
신라호텔
오솔길
Pat
리우스
서둘러야
배설물
감출
석류
호미
예배당
싱크로
한민구
EM
버진
승급
##칠리아
경험담
올레드
리커창
준이
숙녀
편백
##PI
##치우
더치
정안
헌납
지하드
박연차
향교
김동현
스필
장유
합세
자기장
1903
플루토늄
요람
지남
청부
평탄
##수소
밀리언
Ang
느릿
씹히
쭈꾸미
촉감
황새
이민호
흥국생명
손아귀
찢어진
톱니
햄릿
국민주
한낱
연설문
대연
돌린다
최은
황룡
237
가려내
언데드
불협
정변
홈스
##isch
북면
송광
스즈
앨라
엑셀
장상
타일러
신분당선
날아온
순교자
변협
수자
현아
##수아비
구불
우이
그리핀
증거물
잠재성
호세프
교무
니스트
로코
이레
브레이커
스칼렛
명언
별일
카밀
호명
통제력
쏟아진
Best
von
구소
귀퉁이
산상
강화도
조바
폐회
홍종
황무지
게르만
NX
Out
환태평양
시험지
정홍원
바쿠
자두
철기
테디
에이커
표고버섯
볼게요
저온
퍼플
501
금메달리스트
##ERS
Hot
pat
결계
단념
삼중
매운탕
박희태
Martin
KI
격변
윗사람
겁먹
뇌혈관
다지기
역전패
경찰차
가느다란
완비
출판물
랜턴
순손실
##케이드
거름
매끄러운
충치
##통행
환경청
추앙
##배마
크림치즈
교총
비엔나
kn
숭례문
##캐롤
스크래
프랜시스
수강료
서자
카트리
티타
호봉
혁명가
상암동
순창
절기
티모
##부산
트레이딩
국소
슬래
타쿠
##ju
강화군
아스카
이병철
약해진
벌거벗
교학사
앨라배마
들으니
목마
정공
충신
포뮬러
표범
over
검소
해서인지
user
평균치
양평군
피조물
PL
개악
펠레
글로브
드나드
한빛
##pa
들러리
촉수
투지
최고령
880
htm
지른다
중심가
1897
박미
손연재
약도
창세기
파이트
광역자치단체
신진대사
820
육즙
##랑스
크리스털
월화드라마
강영
네바다
독서실
##캐롤라이나
불완전
석굴
철탑
화창
##궐선거
데려갔
굴려
눈꽃
순국
아이다
##ada
벌어들이
거역
질지
한다던
국무원
만과
인품
##준혁
관리원
관찰자
루비오
뒷걸음질
카렌
자투리
지현
##wood
조선사
두려워했
instafood
늘린다
일문
철갑
보신
절전
아이젠
김광석
동로
목살
건너갔
헤게모니
능통
부질
앞마당
합금
올랐으며
align
로페즈
cap
기러기
머슴
1901
베르디
포도당
거려
김택
방배
송중기
쉬우
##ude
Frank
엉엉
올랜
윈스턴
티몬
할까봐
왁스
익힐
행복감
국자
로어
샤브
##블리
쌀값
##gan
개선책
안정세
살아났
표준어
천변
프린스턴
눈여겨볼
지렛
전횡
##샤브
상장지수
유언비어
안다는
##EM
##읽기
새로움
공민왕
구전
금동
장항
준동
가까워졌
뜨리
방바닥
나타납니다
LIVE
수작업
억양
콘돔
##충류
냉동실
조두
여태껏
Sum
거슬리
귀로
비뚤
상견
SLBM
구문
도이치
수준급
상실감
마누엘
보청기
삼켰
넘어져
공산품
주경
착용감
야시
차창
하세
지렛대
격자
벅차
##시네마
##당당
##잘것
마주친
표기법
우대금리
라티
매연
##ities
지휘부
관능
쓰라
##소녀
##포화
##고스
공연히
떠나가
시달려
날아간
북항
##EF
##왕산
3400
갈취
칭다오
플레인
##경궁
트랙터
불협화
고여
세나
##방아
##내티
여백
원양
수입액
Cop
민가
예뻤
인멸
정색
##게트
금지령
크리스천
골칫거리
소림
사인회
고마웠
김신욱
IFA
지른
처마
척박
프롬
연극제
체크인
Center
굉음
##지긋
##꾸러기
251
드라마틱
청소년기
워크래프트
TA
게야
은색
##ift
옥스포드
Die
맹비
풀밭
학제
히카
##iter
BSI
act
성물
철인
홈구장
탱탱
감점
들썩이
지참
##면은
저항력
재결합
교육법
바르샤바
990
조리법
섬멸
알맹이
아브
야겠다
POS
도통
돈가스
뺏기
##홀름
가져온다
수비진
최문순
Instit
심술
토건
통닭
##go
##저만
Stev
아지트
생포
##탐정
체납자
Business
대어
뒷골목
뱃길
사귄
호치
데뷔작
박진영
Mor
소임
심취
730
신시내티
나부
냅니다
요식
직불
추사
한다든가
Research
방아쇠
짜내
##섬유
롯데시네마
사직서
공심
오뎅
바르트
바지락
금관
단전
셀레
수북
조재
세계무역
나선다는
API
관원
첫선
최남
하루카
박탈감
외래어
##특별자치
항시
행패
##ider
실명제
만무
변천
호들
##연수
딜런
마티스
산삼
##서양
##예진
콘서트홀
갖춰진
이만저만
동속
억눌
송호
카네기
주정차
Big
경외
독대
볼모
걷어차
로스터
생년
수채
요강
주어져
팔릴
공공성
브리튼
금색
이바
진땀
키운다
히사
##메이드
수비대
지용
캘리
av
강창
애경
조선총
보증서
벤자민
##특별자치도
만호
가라앉히
생태학
중개인
고우
자금력
라이드
대첩
산시
오답
김흥
학습지
##사이어티
뼈아픈
Gold
몰의
아용
체이스
장기전
지명자
터치스크린
맹비난
에쿠스
주현
##적ㆍ
1902
불거질
터프
프리드
아웃렛
독학
미각
알갱이
호찌
샤이니
마스카라
였을까
지영
혹자
혈액형
수소문
려구요
석양
노무라
아수라장
속히
행실
물살
아워
자장면
전치
던지라
몰아붙이
AL
우사
방어선
편안히
잠자코
조선총독부
붙인다
김영우
##ird
DSLR
리무진
제주특별자치도
망가진
어획량
대양
대견
집사람
우선주
재단법인
상륙작전
산체스
개강
산화물
##헤이
빨라졌
넉넉히
Science
플렉
스키니
씨씨
##투어
상대국
Af
맹주
미코
약과
철쭉
넘어졌
소방방
냉랭
용해
조수석
소사이어티
채워진
라돈
아십니까
지훈
수행원
기싸움
양회
##동아
비니
빌려서
음파
읍성
장주
진피
247
슬로우
방석
정발
투고
테크윈
버립니다
타미
세무사
pop
골리
당구
도농
성교
조타
머무를
벌점
유식
나빠질
로드리게스
레일리
유림
##리온
##베니아
중대장
샤브샤브
원당
자란다
잘리
체어
자동변속기
레이팅
DGB
해약
##두라스
##페르
가속기
스크래치
맞잡
부마
아파하
보드게임
놓아주
논할
익살
쾌속
폐광
약혼자
다움
빠를
창안
판매원
부대시설
넘겨졌
막연히
아린
조난
귀여움
나츠
비야
심대
양고기
히가시
뉴스쇼
싫증
제이콥
수목드라마
대경
문형
온두라스
하품
훈제
##테말라
가스공사
매표소
과테말라
저층
큰딸
##어낸
기말고사
대산
실격
팽이
예선전
파고드
총영사관
일요
##합성
몸뚱이
댈러스
동수
밀매
입회
코웨이
더빙
사력
청해
튤립
기록원
Adv
살생
소기업
아델
운다
이항
##ayer
고라
정족
태웠
스톡홀름
검지
까르
노마
누계
만부
목도리
식상
큰데
클락
슬로베니아
적대감
냐구
아성
임대인
기동력
일갈
증조
충의
해봐도
375
김종훈
영동고속도로
Tel
볼프
유조선
윤재
함흥
돌아볼
원주시
레나
사청
연거
지쳤
진정서
화학제품
피란
더샵
빌어먹
여리
체급
소방대원
##msys
ldmsys
디제이
우거진
하승
힘듭니다
어젠
참나무
자연사
유치장
가르친다
격앙
날아들
다빈
책략
황성
예방법
##ental
대대장
정찰기
QR
머드
명종
##급수
버크셔
HSBC
광년
빈다
핍박
히터
천일염
에베레스트
##잘것없
King
군무
우빈
움찔
외식업
감췄
성진
이아
##시아드
##보험공사
칭기즈
레그
실학
종대
헤드셋
나탈
지동원
추어
##omen
스토커
김동철
불명확
동방신기
카디프
CL
XP
갓난
##경정
어울렸
김용태
탈의실
윤창중
디어
민국
긴급조치
어려워진다
유니버시아드
스기
오묘
투혼
핀잔
한국학
##스토이
EPL
담벼락
바게트
유별
의료기
3700
프라이팬
피크닉
이근호
산자
살려야
스포일러
신용장
김여정
지론
##수스
##빼미
중견수
역주행
세면
송혜
##ives
가동이
불꽃놀이
검정고시
시커먼
목판
조한
청혼
##bid
여객철도
신비주의
──
도예
불어난
전군
마셔야
ah
노랗
법전
탈해
후사
이슬람교도
슬라이딩
감싼
규합
급체
상암
와사
후광
강력범
대장군
분당선
김두한
##unication
걸터
마천
서연
초도
환관
영의정
길잡이
다트
보그
제원
##플랜
기지개
스피어
웨이보
페더러
박헌
##ration
cit
록히드
##체육회
넘친다
산기
큼지막
허겁
지나쳤
스트라
에어부산
군소
끓어
반목
잠옷
하시모토
png
내연
아와
으쓱
통고
붉히
터뜨려
재보궐선거
아킬레스
고토
텐센트
튜버
##들러
##장성
다녀갔
어슬
져요
접착제
Charles
군국주의
BW
모일
합심
해트
직업훈련
어려워진
브룩스
Public
액상
야시장
척이
코일
투철
낙담
현은
##계리
상담소
임창용
헌팅
##콘서트
지나간다
상고심
낸다고
맥박
조슈
탈주
침체기
비보
빛내
효의
노브
땅굴
번질
##구미
간병인
심해질
상견례
PG
##성대
##도사
벗겨지
조윤선
빅스
248
뜨개
생화학
##BO
랴오닝
꼬꼬
린을
서린
총명
흉부
양재동
ㆍ현
고환
디카
제이크
린드
코니
##타카
정책금융
추모식
고무줄
곁들인
량도
무정부
영생
올빼미
305
##aint
##ittle
font
따듯
술병
음질
##둘렀
조선대
집어던
여호와
##경정예산
범벅
비이
안아
착실
칠리
오래오래
따님
스왑
##충돌
보여줘
김기현
김응
력도
직분
반딧
선택제
빼돌려
우익수
정우택
잡이
철없
혹사
후라이
추가경정예산
비상시
부자연
재소자
Just
가망
선미
은영
주다
파충류
판화
##오버
졸업장
하이데거
방파제
수매
원미
전초
무한히
소모품
발색
취침
##아산
##럭스
퇴근길
태만
지평선
담대
점자
810
if
득세
로데
어겼
폭죽
##유진
##픽스
##ember
집권당
소모량
주사기
굶주린
깨어났
부교
비쌌
신구
##분계선
보수파
4200
OCI
양희
저고리
터리
이니셜
동공
명복
홍정
불상사
Cre
개비
면목
월트
군사분계선
흘러갔
순환도로
시어터
패권주의
전업주부
뻥튀기
심해서
약했
편할
##aff
괴짜
임모
진기
허황
인신매매
스펜서
리볼
으십시오
궁예
방음
##메트
확인서
안기부
##통장
굴러가
Ber
먹인
추동
288
이재현
##샤오핑
뚝배기
우시
총무원
핵융합
사이렌
##민정음
Not
환멸
315
빼돌리
임종룡
나침반
빗자루
셨잖아요
승하
해조류
스웨터
##국사
내야수
간도
박히
성현
수형
아전
알자
임수
##불성
해진다는
덩샤오핑
군락
봉하
세실
##지겁
취업규칙
이겨낼
허겁지겁
비버
핫라인
대항마
등기부
항공우주국
임계
##타스
IMG
고조선
두만강
sim
상존
쌍방향
탕진
##ecial
띤다
영제
을지라도
건조기
영재교육
구울
쁘띠
숙고
채광
황이
신문지
저기압
되묻
반나절
톨스토이
트릴
##블릭
호스피스
해부학
성악가
달려드
주방장
스티븐스
고품격
왕인
왠만
훈민정음
##클라
비린내
빈스
장률
하디
향할
740
뒷바라지
##월일
053
되살려
기보다는
뒤집어쓰
변속
소추
해맑
##캠프
##enz
마가렛
면사무소
사르트르
서툰
2900
##ets
특수강
Lee
경내
누룽지
루미
빨치산
시위자
장제스
Windows
##세종청사
축협
##세프
탐험가
칠곡군
##field
정부세종청사
불협화음
don
광풍
전분
##더위
302
내몰리
경운
구보
장바구니
적료
족히
천과
테스코
##뛰기
840
디젤차
일변도
넓힐
누그러
물레
본전
Cons
설경
시월
295
현상학
남상
단선
우열
처한다
##각층
경제난
공장장
둔치
우등
인감
회장단
보관소
산수유
Ma
정각
타이젠
전지현
형부
2023
개척자
각계각층
AN
요게
##elt
보통주
임진강
Pop
뉴트
창인
프랑스군
오브젝트
엑스레이
극진
금남
시제
옥수
완고
인인
차비
움직인
김강
깐깐
뛴다
오진
임이
재미난
문도
선승
임형
##교섭
[unused0]
[unused1]
[unused2]
[unused3]
[unused4]
[unused5]
[unused6]
[unused7]
[unused8]
[unused9]
[unused10]
[unused11]
[unused12]
[unused13]
[unused14]
[unused15]
[unused16]
[unused17]
[unused18]
[unused19]
[unused20]
[unused21]
[unused22]
[unused23]
[unused24]
[unused25]
[unused26]
[unused27]
[unused28]
[unused29]
[unused30]
[unused31]
[unused32]
[unused33]
[unused34]
[unused35]
[unused36]
[unused37]
[unused38]
[unused39]
[unused40]
[unused41]
[unused42]
[unused43]
[unused44]
[unused45]
[unused46]
[unused47]
[unused48]
[unused49]
[unused50]
[unused51]
[unused52]
[unused53]
[unused54]
[unused55]
[unused56]
[unused57]
[unused58]
[unused59]
[unused60]
[unused61]
[unused62]
[unused63]
[unused64]
[unused65]
[unused66]
[unused67]
[unused68]
[unused69]
[unused70]
[unused71]
[unused72]
[unused73]
[unused74]
[unused75]
[unused76]
[unused77]
[unused78]
[unused79]
[unused80]
[unused81]
[unused82]
[unused83]
[unused84]
[unused85]
[unused86]
[unused87]
[unused88]
[unused89]
[unused90]
[unused91]
[unused92]
[unused93]
[unused94]
[unused95]
[unused96]
[unused97]
[unused98]
[unused99]
[unused100]
[unused101]
[unused102]
[unused103]
[unused104]
[unused105]
[unused106]
[unused107]
[unused108]
[unused109]
[unused110]
[unused111]
[unused112]
[unused113]
[unused114]
[unused115]
[unused116]
[unused117]
[unused118]
[unused119]
[unused120]
[unused121]
[unused122]
[unused123]
[unused124]
[unused125]
[unused126]
[unused127]
[unused128]
[unused129]
[unused130]
[unused131]
[unused132]
[unused133]
[unused134]
[unused135]
[unused136]
[unused137]
[unused138]
[unused139]
[unused140]
[unused141]
[unused142]
[unused143]
[unused144]
[unused145]
[unused146]
[unused147]
[unused148]
[unused149]
[unused150]
[unused151]
[unused152]
[unused153]
[unused154]
[unused155]
[unused156]
[unused157]
[unused158]
[unused159]
[unused160]
[unused161]
[unused162]
[unused163]
[unused164]
[unused165]
[unused166]
[unused167]
[unused168]
[unused169]
[unused170]
[unused171]
[unused172]
[unused173]
[unused174]
[unused175]
[unused176]
[unused177]
[unused178]
[unused179]
[unused180]
[unused181]
[unused182]
[unused183]
[unused184]
[unused185]
[unused186]
[unused187]
[unused188]
[unused189]
[unused190]
[unused191]
[unused192]
[unused193]
[unused194]
[unused195]
[unused196]
[unused197]
[unused198]
[unused199]
[unused200]
[unused201]
[unused202]
[unused203]
[unused204]
[unused205]
[unused206]
[unused207]
[unused208]
[unused209]
[unused210]
[unused211]
[unused212]
[unused213]
[unused214]
[unused215]
[unused216]
[unused217]
[unused218]
[unused219]
[unused220]
[unused221]
[unused222]
[unused223]
[unused224]
[unused225]
[unused226]
[unused227]
[unused228]
[unused229]
[unused230]
[unused231]
[unused232]
[unused233]
[unused234]
[unused235]
[unused236]
[unused237]
[unused238]
[unused239]
[unused240]
[unused241]
[unused242]
[unused243]
[unused244]
[unused245]
[unused246]
[unused247]
[unused248]
[unused249]
[unused250]
[unused251]
[unused252]
[unused253]
[unused254]
[unused255]
[unused256]
[unused257]
[unused258]
[unused259]
[unused260]
[unused261]
[unused262]
[unused263]
[unused264]
[unused265]
[unused266]
[unused267]
[unused268]
[unused269]
[unused270]
[unused271]
[unused272]
[unused273]
[unused274]
[unused275]
[unused276]
[unused277]
[unused278]
[unused279]
[unused280]
[unused281]
[unused282]
[unused283]
[unused284]
[unused285]
[unused286]
[unused287]
[unused288]
[unused289]
[unused290]
[unused291]
[unused292]
[unused293]
[unused294]
[unused295]
[unused296]
[unused297]
[unused298]
[unused299]
[unused300]
[unused301]
[unused302]
[unused303]
[unused304]
[unused305]
[unused306]
[unused307]
[unused308]
[unused309]
[unused310]
[unused311]
[unused312]
[unused313]
[unused314]
[unused315]
[unused316]
[unused317]
[unused318]
[unused319]
[unused320]
[unused321]
[unused322]
[unused323]
[unused324]
[unused325]
[unused326]
[unused327]
[unused328]
[unused329]
[unused330]
[unused331]
[unused332]
[unused333]
[unused334]
[unused335]
[unused336]
[unused337]
[unused338]
[unused339]
[unused340]
[unused341]
[unused342]
[unused343]
[unused344]
[unused345]
[unused346]
[unused347]
[unused348]
[unused349]
[unused350]
[unused351]
[unused352]
[unused353]
[unused354]
[unused355]
[unused356]
[unused357]
[unused358]
[unused359]
[unused360]
[unused361]
[unused362]
[unused363]
[unused364]
[unused365]
[unused366]
[unused367]
[unused368]
[unused369]
[unused370]
[unused371]
[unused372]
[unused373]
[unused374]
[unused375]
[unused376]
[unused377]
[unused378]
[unused379]
[unused380]
[unused381]
[unused382]
[unused383]
[unused384]
[unused385]
[unused386]
[unused387]
[unused388]
[unused389]
[unused390]
[unused391]
[unused392]
[unused393]
[unused394]
[unused395]
[unused396]
[unused397]
[unused398]
[unused399]
[unused400]
[unused401]
[unused402]
[unused403]
[unused404]
[unused405]
[unused406]
[unused407]
[unused408]
[unused409]
[unused410]
[unused411]
[unused412]
[unused413]
[unused414]
[unused415]
[unused416]
[unused417]
[unused418]
[unused419]
[unused420]
[unused421]
[unused422]
[unused423]
[unused424]
[unused425]
[unused426]
[unused427]
[unused428]
[unused429]
[unused430]
[unused431]
[unused432]
[unused433]
[unused434]
[unused435]
[unused436]
[unused437]
[unused438]
[unused439]
[unused440]
[unused441]
[unused442]
[unused443]
[unused444]
[unused445]
[unused446]
[unused447]
[unused448]
[unused449]
[unused450]
[unused451]
[unused452]
[unused453]
[unused454]
[unused455]
[unused456]
[unused457]
[unused458]
[unused459]
[unused460]
[unused461]
[unused462]
[unused463]
[unused464]
[unused465]
[unused466]
[unused467]
[unused468]
[unused469]
[unused470]
[unused471]
[unused472]
[unused473]
[unused474]
[unused475]
[unused476]
[unused477]
[unused478]
[unused479]
[unused480]
[unused481]
[unused482]
[unused483]
[unused484]
[unused485]
[unused486]
[unused487]
[unused488]
[unused489]
[unused490]
[unused491]
[unused492]
[unused493]
[unused494]
[unused495]
[unused496]
[unused497]
[unused498]
[unused499]
[unused500]
[unused501]
[unused502]
[unused503]
[unused504]
[unused505]
[unused506]
[unused507]
[unused508]
[unused509]
[unused510]
[unused511]
[unused512]
[unused513]
[unused514]
[unused515]
[unused516]
[unused517]
[unused518]
[unused519]
[unused520]
[unused521]
[unused522]
[unused523]
[unused524]
[unused525]
[unused526]
[unused527]
[unused528]
[unused529]
[unused530]
[unused531]
[unused532]
[unused533]
[unused534]
[unused535]
[unused536]
[unused537]
[unused538]
[unused539]
[unused540]
[unused541]
[unused542]
[unused543]
[unused544]
[unused545]
[unused546]
[unused547]
[unused548]
[unused549]
[unused550]
[unused551]
[unused552]
[unused553]
[unused554]
[unused555]
[unused556]
[unused557]
[unused558]
[unused559]
[unused560]
[unused561]
[unused562]
[unused563]
[unused564]
[unused565]
[unused566]
[unused567]
[unused568]
[unused569]
[unused570]
[unused571]
[unused572]
[unused573]
[unused574]
[unused575]
[unused576]
[unused577]
[unused578]
[unused579]
[unused580]
[unused581]
[unused582]
[unused583]
[unused584]
[unused585]
[unused586]
[unused587]
[unused588]
[unused589]
[unused590]
[unused591]
[unused592]
[unused593]
[unused594]
[unused595]
[unused596]
[unused597]
[unused598]
[unused599]
[unused600]
[unused601]
[unused602]
[unused603]
[unused604]
[unused605]
[unused606]
[unused607]
[unused608]
[unused609]
[unused610]
[unused611]
[unused612]
[unused613]
[unused614]
[unused615]
[unused616]
[unused617]
[unused618]
[unused619]
[unused620]
[unused621]
[unused622]
[unused623]
[unused624]
[unused625]
[unused626]
[unused627]
[unused628]
[unused629]
[unused630]
[unused631]
[unused632]
[unused633]
[unused634]
[unused635]
[unused636]
[unused637]
[unused638]
[unused639]
[unused640]
[unused641]
[unused642]
[unused643]
[unused644]
[unused645]
[unused646]
[unused647]
[unused648]
[unused649]
[unused650]
[unused651]
[unused652]
[unused653]
[unused654]
[unused655]
[unused656]
[unused657]
[unused658]
[unused659]
[unused660]
[unused661]
[unused662]
[unused663]
[unused664]
[unused665]
[unused666]
[unused667]
[unused668]
[unused669]
[unused670]
[unused671]
[unused672]
[unused673]
[unused674]
[unused675]
[unused676]
[unused677]
[unused678]
[unused679]
[unused680]
[unused681]
[unused682]
[unused683]
[unused684]
[unused685]
[unused686]
[unused687]
[unused688]
[unused689]
[unused690]
[unused691]
[unused692]
[unused693]
[unused694]
[unused695]
[unused696]
[unused697]
[unused698]
[unused699]
[unused700]
[unused701]
[unused702]
[unused703]
[unused704]
[unused705]
[unused706]
[unused707]
[unused708]
[unused709]
[unused710]
[unused711]
[unused712]
[unused713]
[unused714]
[unused715]
[unused716]
[unused717]
[unused718]
[unused719]
[unused720]
[unused721]
[unused722]
[unused723]
[unused724]
[unused725]
[unused726]
[unused727]
[unused728]
[unused729]
[unused730]
[unused731]
[unused732]
[unused733]
[unused734]
[unused735]
[unused736]
[unused737]
[unused738]
[unused739]
[unused740]
[unused741]
[unused742]
[unused743]
[unused744]
[unused745]
[unused746]
[unused747]
[unused748]
[unused749]
[unused750]
[unused751]
[unused752]
[unused753]
[unused754]
[unused755]
[unused756]
[unused757]
[unused758]
[unused759]
[unused760]
[unused761]
[unused762]
[unused763]
[unused764]
[unused765]
[unused766]
[unused767]
[unused768]
[unused769]
[unused770]
[unused771]
[unused772]
[unused773]
[unused774]
[unused775]
[unused776]
[unused777]
[unused778]
[unused779]
[unused780]
[unused781]
[unused782]
[unused783]
[unused784]
[unused785]
[unused786]
[unused787]
[unused788]
[unused789]
[unused790]
[unused791]
[unused792]
[unused793]
[unused794]
[unused795]
[unused796]
[unused797]
[unused798]
[unused799]
[unused800]
[unused801]
[unused802]
[unused803]
[unused804]
[unused805]
[unused806]
[unused807]
[unused808]
[unused809]
[unused810]
[unused811]
[unused812]
[unused813]
[unused814]
[unused815]
[unused816]
[unused817]
[unused818]
[unused819]
[unused820]
[unused821]
[unused822]
[unused823]
[unused824]
[unused825]
[unused826]
[unused827]
[unused828]
[unused829]
[unused830]
[unused831]
[unused832]
[unused833]
[unused834]
[unused835]
[unused836]
[unused837]
[unused838]
[unused839]
[unused840]
[unused841]
[unused842]
[unused843]
[unused844]
[unused845]
[unused846]
[unused847]
[unused848]
[unused849]
[unused850]
[unused851]
[unused852]
[unused853]
[unused854]
[unused855]
[unused856]
[unused857]
[unused858]
[unused859]
[unused860]
[unused861]
[unused862]
[unused863]
[unused864]
[unused865]
[unused866]
[unused867]
[unused868]
[unused869]
[unused870]
[unused871]
[unused872]
[unused873]
[unused874]
[unused875]
[unused876]
[unused877]
[unused878]
[unused879]
[unused880]
[unused881]
[unused882]
[unused883]
[unused884]
[unused885]
[unused886]
[unused887]
[unused888]
[unused889]
[unused890]
[unused891]
[unused892]
[unused893]
[unused894]
[unused895]
[unused896]
[unused897]
[unused898]
[unused899]
[unused900]
[unused901]
[unused902]
[unused903]
[unused904]
[unused905]
[unused906]
[unused907]
[unused908]
[unused909]
[unused910]
[unused911]
[unused912]
[unused913]
[unused914]
[unused915]
[unused916]
[unused917]
[unused918]
[unused919]
[unused920]
[unused921]
[unused922]
[unused923]
[unused924]
[unused925]
[unused926]
[unused927]
[unused928]
[unused929]
[unused930]
[unused931]
[unused932]
[unused933]
[unused934]
[unused935]
[unused936]
[unused937]
[unused938]
[unused939]
[unused940]
[unused941]
[unused942]
[unused943]
[unused944]
[unused945]
[unused946]
[unused947]
[unused948]
[unused949]
[unused950]
[unused951]
[unused952]
[unused953]
[unused954]
[unused955]
[unused956]
[unused957]
[unused958]
[unused959]
[unused960]
[unused961]
[unused962]
[unused963]
[unused964]
[unused965]
[unused966]
[unused967]
[unused968]
[unused969]
[unused970]
[unused971]
[unused972]
[unused973]
[unused974]
[unused975]
[unused976]
[unused977]
[unused978]
[unused979]
[unused980]
[unused981]
[unused982]
[unused983]
[unused984]
[unused985]
[unused986]
[unused987]
[unused988]
[unused989]
[unused990]
[unused991]
[unused992]
[unused993]
[unused994]
[unused995]
[unused996]
[unused997]
[unused998]
[unused999]
